<unk>	0
<s>	0
</s>	0
▁क	-0
या	-1
▁t	-2
▁स	-3
▁a	-4
▁प	-5
▁म	-6
्या	-7
ന്	-8
in	-9
he	-10
ार	-11
▁ह	-12
்க	-13
्र	-14
்த	-15
▁s	-16
▁आ	-17
▁the	-18
ക്	-19
▁न	-20
ത്	-21
য়	-22
re	-23
▁अ	-24
on	-25
▁व	-26
ம்	-27
er	-28
▁ક	-29
ல்	-30
▁द	-31
મા	-32
▁ब	-33
ার	-34
▁त	-35
ార	-36
▁c	-37
▁પ	-38
▁w	-39
ला	-40
▁ज	-41
▁ப	-42
▁ప	-43
▁ক	-44
र्	-45
▁के	-46
ர்	-47
▁र	-48
▁o	-49
at	-50
▁க	-51
▁പ	-52
்ட	-53
▁ব	-54
en	-55
▁b	-56
▁p	-57
an	-58
ല്	-59
▁স	-60
▁સ	-61
▁ಸ	-62
ని	-63
க்க	-64
్ర	-65
▁ಮ	-66
▁வ	-67
ের	-68
ன்	-69
▁ம	-70
ले	-71
ने	-72
▁f	-73
ಲ್	-74
ര്	-75
is	-76
▁প	-77
it	-78
ಿದ	-79
ക്ക	-80
▁m	-81
த்த	-82
▁ക	-83
న్	-84
ന്ന	-85
ાર	-86
▁క	-87
▁in	-88
ed	-89
ें	-90
▁த	-91
തി	-92
▁ಕ	-93
ర్	-94
ಾರ	-95
▁వ	-96
▁ग	-97
ತ್	-98
ar	-99
or	-100
्य	-101
ना	-102
்ப	-103
ના	-104
▁സ	-105
ता	-106
્ય	-107
▁ச	-108
es	-109
▁స	-110
্র	-111
ને	-112
માં	-113
లు	-114
ள்	-115
▁ನ	-116
ां	-117
ing	-118
▁அ	-119
▁આ	-120
ಲ್ಲ	-121
്ട	-122
al	-123
વા	-124
▁.	-125
ிய	-126
▁ک	-127
िक	-128
▁d	-129
▁വ	-130
▁an	-131
▁ਦ	-132
▁to	-133
ட்ட	-134
▁h	-135
▁જ	-136
્ર	-137
ில்	-138
ಂದ	-139
্য	-140
ರು	-141
▁ਕ	-142
▁ਸ	-143
▁മ	-144
▁of	-145
▁ત	-146
▁कर	-147
ನ್	-148
ப்ப	-149
▁మ	-150
▁હ	-151
▁అ	-152
ும்	-153
ంద	-154
▁श	-155
▁અ	-156
▁ಪ	-157
▁है	-158
ात	-159
స్	-160
లో	-161
▁भ	-162
ും	-163
▁છ	-164
▁ന	-165
ান	-166
್ರ	-167
ந்த	-168
▁या	-169
▁ಅ	-170
ou	-171
து	-172
▁ম	-173
ની	-174
▁1	-175
as	-176
ಾಗ	-177
▁এ	-178
▁प्र	-179
▁में	-180
▁ಹ	-181
ली	-182
▁இ	-183
▁उ	-184
യി	-185
▁મ	-186
▁ந	-187
▁చ	-188
▁ಬ	-189
क्	-190
▁(	-191
हे	-192
ान	-193
▁ર	-194
ரு	-195
▁দ	-196
ों	-197
▁છે	-198
▁ন	-199
▁2	-200
్య	-201
▁का	-202
ही	-203
▁વ	-204
▁and	-205
स्	-206
కు	-207
▁হ	-208
वा	-209
ರ್	-210
ic	-211
ಿಸ	-212
▁की	-213
▁আ	-214
▁को	-215
್ಯ	-216
▁ल	-217
ల్	-218
▁ত	-219
ion	-220
ಕ್	-221
ती	-222
য়ে	-223
▁બ	-224
ారు	-225
▁n	-226
▁അ	-227
▁ਨ	-228
ള്	-229
om	-230
▁l	-231
▁ਹ	-232
്ച	-233
▁'	-234
च्या	-235
്ര	-236
ಗಳ	-237
ತ್ತ	-238
▁త	-239
▁ವ	-240
న్న	-241
್ದ	-242
ું	-243
ನ್ನ	-244
েন	-245
il	-246
▁च	-247
্ত	-248
ంచ	-249
ಲ್ಲಿ	-250
▁हो	-251
ಗೆ	-252
▁કર	-253
▁आहे	-254
ent	-255
▁ا	-256
▁ర	-257
▁th	-258
ട്ട	-259
""	-260
ത്തി	-261
▁g	-262
▁इ	-263
नी	-264
▁कि	-265
ുന്ന	-266
▁ਵ	-267
▁কর	-268
▁य	-269
▁पर	-270
ച്ച	-271
രി	-272
గా	-273
▁ए	-274
▁वि	-275
તા	-276
ைய	-277
ట్	-278
്പ	-279
ங்க	-280
हा	-281
ണ്	-282
▁से	-283
క్	-284
ങ്	-285
ून	-286
ಿದ್ದ	-287
ను	-288
id	-289
▁ने	-290
▁re	-291
ರಿ	-292
റ്	-293
ित	-294
▁জ	-295
▁କ	-296
▁ପ	-297
কে	-298
चा	-299
▁অ	-300
ాల	-301
▁ସ	-302
സ്	-303
मा	-304
ल्या	-305
▁எ	-306
ਾਂ	-307
ર્	-308
ത്ത	-309
▁ಎ	-310
മാ	-311
▁ప్ర	-312
▁ਪ	-313
▁દ	-314
ಸ್	-315
▁दि	-316
▁ത	-317
os	-318
चे	-319
യാ	-320
सा	-321
▁e	-322
લા	-323
▁م	-324
▁ತ	-325
ण्या	-326
ாக	-327
ाज	-328
ାର	-329
▁ಆ	-330
▁ન	-331
িন	-332
le	-333
ించ	-334
ची	-335
తు	-336
ள்ள	-337
তে	-338
▁ख	-339
ೆಯ	-340
का	-341
ंत	-342
പ്പ	-343
न्	-344
री	-345
ad	-346
ve	-347
ায়	-348
ct	-349
தி	-350
ില്	-351
୍ର	-352
▁ఆ	-353
▁എ	-354
ನ್ನು	-355
▁ବ	-356
▁on	-357
▁র	-358
க்கு	-359
ay	-360
்ச	-361
▁ਮ	-362
▁be	-363
▁ಇ	-364
ro	-365
লে	-366
ಿಯ	-367
ছে	-368
रा	-369
ते	-370
થી	-371
▁अस	-372
ਾਰ	-373
▁त्या	-374
ങ്ങ	-375
▁फ	-376
டு	-377
▁એ	-378
று	-379
▁घ	-380
▁स्	-381
▁ગ	-382
▁న	-383
ಿಕ	-384
▁તે	-385
ড়	-386
am	-387
▁सं	-388
क्ष	-389
▁नि	-390
▁ਜ	-391
▁உ	-392
▁ರ	-393
ल्	-394
ரி	-395
ിയ	-396
த்து	-397
▁सा	-398
us	-399
ిన	-400
ির	-401
ेश	-402
ిక	-403
്യ	-404
▁చే	-405
ார்	-406
▁for	-407
▁গ	-408
ುವ	-409
ണ്ട	-410
un	-411
वर	-412
▁প্র	-413
▁जा	-414
డు	-415
▁ഇ	-416
ur	-417
▁য	-418
▁ച	-419
್ಟ	-420
▁শ	-421
ंद	-422
ନ୍	-423
▁શ	-424
▁is	-425
▁செ	-426
ot	-427
டி	-428
▁ਅ	-429
ारी	-430
াল	-431
▁ಮಾ	-432
▁st	-433
▁r	-434
▁મા	-435
ண்ட	-436
▁पा	-437
ടെ	-438
▁20	-439
িয়ে	-440
ంత	-441
ut	-442
▁ஆ	-443
et	-444
ुर	-445
त्	-446
ce	-447
ற்	-448
ରେ	-449
▁he	-450
▁బ	-451
▁અને	-452
▁औ	-453
▁జ	-454
▁ہ	-455
ുക	-456
▁ਤ	-457
িক	-458
▁ಜ	-459
ol	-460
ില	-461
▁వి	-462
ంది	-463
टी	-464
▁வி	-465
कर	-466
வி	-467
▁ಪ್ರ	-468
ver	-469
ap	-470
▁કે	-471
્ટ	-472
im	-473
गा	-474
▁ద	-475
త్	-476
▁હત	-477
லை	-478
▁চ	-479
రు	-480
ాయ	-481
ir	-482
▁ਦੇ	-483
▁લ	-484
▁और	-485
ly	-486
▁ആ	-487
ಿದೆ	-488
▁പ്ര	-489
ர்க	-490
াম	-491
বে	-492
▁मु	-493
▁वा	-494
റ്റ	-495
▁de	-496
▁थ	-497
पा	-498
▁ఉ	-499
▁ದ	-500
યા	-501
రి	-502
ிற	-503
▁मा	-504
▁ఎ	-505
નો	-506
▁ఇ	-507
ation	-508
ంట	-509
्री	-510
ेत	-511
▁ना	-512
ಕ್ಕ	-513
ின்	-514
ter	-515
▁ਬ	-516
▁ര	-517
یں	-518
્યા	-519
से	-520
ండ	-521
▁""	-522
▁மு	-523
ിക്ക	-524
▁ମ	-525
▁ਇ	-526
▁ભ	-527
▁-	-528
▁గ	-529
▁বি	-530
▁വി	-531
্ব	-532
..	-533
ड़	-534
▁س	-535
ಂದು	-536
ig	-537
্ট	-538
▁that	-539
୍ୟ	-540
▁ভ	-541
ਾਲ	-542
ിച്ച	-543
িল	-544
हि	-545
▁આવ	-546
▁3	-547
▁यां	-548
രു	-549
के	-550
▁ਲ	-551
▁k	-552
▁इस	-553
वि	-554
ುತ್ತ	-555
▁:	-556
াক	-557
ਿਆ	-558
▁as	-559
▁j	-560
▁ജ	-561
▁ਰ	-562
ध्य	-563
ow	-564
ಿನ	-565
રા	-566
ಂಡ	-567
ಂತ	-568
లి	-569
कार	-570
▁al	-571
▁ಗ	-572
ುದ	-573
ଙ୍	-574
ুর	-575
▁ب	-576
ch	-577
▁થ	-578
లా	-579
ಾಗಿ	-580
▁रा	-581
▁ला	-582
▁दे	-583
▁कार	-584
▁ચ	-585
िय	-586
રી	-587
▁પ્ર	-588
ंग	-589
ष्	-590
ಾನ	-591
▁ബ	-592
ற்ற	-593
▁it	-594
િક	-595
▁wh	-596
ార్	-597
ବା	-598
▁एक	-599
ரா	-600
▁ಶ	-601
▁ड	-602
▁झ	-603
▁ਵਿ	-604
▁સા	-605
ith	-606
▁ट	-607
▁ని	-608
st	-609
ప్	-610
▁।	-611
ન્	-612
▁സ്	-613
ட்டு	-614
డి	-615
ంలో	-616
ில	-617
00	-618
िस	-619
টি	-620
ill	-621
ठी	-622
▁se	-623
હે	-624
णा	-625
की	-626
ति	-627
াস	-628
టు	-629
ଥି	-630
ार्	-631
ാന	-632
લી	-633
ਸ਼	-634
ટે	-635
▁ਗ	-636
▁ફ	-637
▁,	-638
తి	-639
▁sa	-640
▁પર	-641
ਤੇ	-642
▁बा	-643
ରି	-644
▁থ	-645
िया	-646
ment	-647
▁ವಿ	-648
ద్	-649
▁ਦੀ	-650
ರೆ	-651
▁with	-652
మా	-653
ର୍	-654
াত	-655
ਿੰ	-656
ੂੰ	-657
▁ନ	-658
▁மா	-659
னர்	-660
ak	-661
▁y	-662
▁کے	-663
ంగా	-664
▁ও	-665
ിക	-666
▁পর	-667
▁ਹੈ	-668
ാര്	-669
റെ	-670
▁we	-671
▁ن	-672
ിന്	-673
ଙ୍କ	-674
ତି	-675
▁વિ	-676
ള്ള	-677
দের	-678
दी	-679
ತಿ	-680
▁তা	-681
ದಲ್ಲಿ	-682
ಾರೆ	-683
▁پ	-684
ાવ	-685
ಾಯ	-686
্ষ	-687
▁भी	-688
को	-689
ील	-690
ான	-691
▁کی	-692
▁हैं	-693
াজ	-694
న్నారు	-695
▁v	-696
▁सम	-697
▁con	-698
ிக	-699
ಾವ	-700
▁at	-701
▁पु	-702
▁উ	-703
సు	-704
▁आण	-705
ಡಿ	-706
▁ଅ	-707
ந்து	-708
▁ਉ	-709
ંગ	-710
▁ਕਿ	-711
भा	-712
▁201	-713
▁ઉ	-714
સ્	-715
িত	-716
▁मि	-717
ul	-718
वी	-719
▁ખ	-720
di	-721
ಕ್ಷ	-722
▁ଏ	-723
ان	-724
కి	-725
▁ಅವ	-726
▁ଦ	-727
வு	-728
▁ನಿ	-729
▁செய	-730
ers	-731
दा	-732
िए	-733
ക്ക്	-734
▁கு	-735
ടു	-736
▁5	-737
ാണ്	-738
ুল	-739
▁এক	-740
▁ਨੂੰ	-741
▁করে	-742
▁ಚ	-743
िका	-744
▁झा	-745
▁ഉ	-746
ક્	-747
वार	-748
मी	-749
ور	-750
മ്	-751
वे	-752
ate	-753
सी	-754
യു	-755
ష్	-756
ிர	-757
साठी	-758
▁দে	-759
ंड	-760
ರುವ	-761
▁was	-762
াই	-763
ोग	-764
ag	-765
our	-766
▁राज	-767
▁com	-768
ld	-769
ାଇ	-770
▁ശ	-771
▁கா	-772
▁ല	-773
णी	-774
▁4	-775
ക്ഷ	-776
ાય	-777
मु	-778
▁ch	-779
्रा	-780
ੋਂ	-781
ಾದ	-782
্থ	-783
ഞ്	-784
టి	-785
▁सु	-786
ಟ್ಟ	-787
▁రా	-788
बा	-789
▁ت	-790
▁fr	-791
ಾಲ	-792
▁ക്ക	-793
ുന്നു	-794
▁आणि	-795
ദ്	-796
▁said	-797
্দ	-798
ঙ্	-799
పు	-800
ಿಗೆ	-801
ಂಗ	-802
▁ही	-803
▁ਕਰ	-804
▁રા	-805
▁ఈ	-806
ంగ	-807
▁ध	-808
ण्यात	-809
াব	-810
▁ಈ	-811
യ്	-812
స్తు	-813
res	-814
▁પણ	-815
स्थ	-816
and	-817
ਾਨ	-818
ಿದ್ದಾರೆ	-819
▁ହ	-820
వా	-821
apos	-822
મે	-823
द्	-824
▁પા	-825
ால்	-826
ிரு	-827
▁ج	-828
▁போ	-829
డ్	-830
ळे	-831
றி	-832
ାନ	-833
हीं	-834
▁என்	-835
▁ಮಾಡ	-836
▁જે	-837
▁ల	-838
੍ਰ	-839
ാന്	-840
യില്	-841
ತ್ತು	-842
ಕ್ಕೆ	-843
▁ಭ	-844
▁খ	-845
▁ನೀ	-846
తో	-847
ار	-848
▁pro	-849
▁કો	-850
est	-851
▁ଆ	-852
ಂಬ	-853
ain	-854
कि	-855
▁శ	-856
▁ਨੇ	-857
▁ये	-858
th	-859
െന്ന	-860
ಿಂದ	-861
▁मो	-862
નું	-863
ளை	-864
ત્ર	-865
▁നി	-866
શે	-867
సి	-868
చ్	-869
रे	-870
ri	-871
▁हु	-872
ಡೆ	-873
रो	-874
ac	-875
▁by	-876
▁अप	-877
ist	-878
ന്ന്	-879
▁ফ	-880
▁সম	-881
▁ne	-882
▁sh	-883
ಾಮ	-884
লা	-885
કા	-886
કો	-887
up	-888
▁हा	-889
ச்ச	-890
ിന	-891
த்தில்	-892
రా	-893
ായ	-894
তি	-895
▁ಉ	-896
्यां	-897
વાર	-898
oun	-899
▁స్	-900
▁హ	-901
▁छ	-902
વામાં	-903
▁કરી	-904
▁ਆ	-905
್ಮ	-906
▁ছ	-907
લ્	-908
▁భ	-909
ହି	-910
▁कु	-911
▁ટ	-912
▁has	-913
▁ha	-914
્યો	-915
ായി	-916
▁বা	-917
క్ష	-918
னை	-919
ತ್ರ	-920
టీ	-921
▁go	-922
ാര	-923
ടി	-924
ഞ്ഞ	-925
ையில்	-926
য়া	-927
▁ले	-928
વી	-929
▁د	-930
▁میں	-931
▁ಎಂದು	-932
েই	-933
ab	-934
if	-935
▁ಮು	-936
ப்பு	-937
ಲು	-938
ನೆ	-939
णार	-940
ष्ट	-941
ಾಜ	-942
▁ର	-943
▁जि	-944
श्	-945
▁ಯ	-946
her	-947
्ह	-948
▁लिए	-949
▁are	-950
্যা	-951
um	-952
▁सि	-953
ೇಶ	-954
▁ഗ	-955
op	-956
el	-957
ಗಳು	-958
ர்கள்	-959
ેશ	-960
ध्ये	-961
્યું	-962
டை	-963
র্	-964
ন্ত	-965
▁తె	-966
▁ഡ	-967
▁സം	-968
▁ഒ	-969
గు	-970
ார	-971
েকে	-972
તી	-973
యా	-974
▁ठ	-975
art	-976
దు	-977
િયા	-978
റി	-979
ത്ര	-980
▁ବି	-981
్యా	-982
నే	-983
▁दो	-984
ડી	-985
હી	-986
ঙ্গ	-987
ोज	-988
ಿತ	-989
ણી	-990
യും	-991
ది	-992
ंब	-993
धिक	-994
्रे	-995
▁ପ୍ର	-996
ছেন	-997
शी	-998
▁হয়ে	-999
▁ଜ	-1000
स्त	-1001
ਆਂ	-1002
▁नहीं	-1003
କ୍	-1004
▁ex	-1005
న్ని	-1006
ப்	-1007
ort	-1008
▁এই	-1009
▁from	-1010
▁तर	-1011
▁માટે	-1012
▁മു	-1013
▁सर	-1014
▁त्यां	-1015
गी	-1016
یا	-1017
மை	-1018
▁కా	-1019
▁கொ	-1020
స్త	-1021
ಿವ	-1022
ങ്ങള	-1023
▁6	-1024
ोल	-1025
म्	-1026
▁હો	-1027
गर	-1028
યો	-1029
▁ಸ್	-1030
▁இரு	-1031
▁ਹੋ	-1032
▁પો	-1033
ಟ್	-1034
ஸ்	-1035
ਤੀ	-1036
చ్చ	-1037
বার	-1038
କୁ	-1039
▁ஒ	-1040
▁un	-1041
▁mo	-1042
डे	-1043
▁മാ	-1044
▁കു	-1045
▁ಸಂ	-1046
▁ചെ	-1047
डी	-1048
▁না	-1049
ity	-1050
ாள	-1051
ేశ	-1052
▁و	-1053
▁வே	-1054
வர்	-1055
వు	-1056
ందు	-1057
▁have	-1058
▁பெ	-1059
রা	-1060
धी	-1061
ांग	-1062
લે	-1063
▁ദ	-1064
▁not	-1065
ારે	-1066
ారం	-1067
▁સ્	-1068
੍ਹ	-1069
വി	-1070
ாய	-1071
নে	-1072
તિ	-1073
्ष	-1074
ത്തില്	-1075
ਤਾ	-1076
▁ఏ	-1077
ல்ல	-1078
▁നട	-1079
▁ಒ	-1080
▁ਦਾ	-1081
▁ঘ	-1082
▁હતી	-1083
मध्ये	-1084
नि	-1085
ਰੀ	-1086
▁ர	-1087
ಾರ್	-1088
্ধ	-1089
▁କରି	-1090
णे	-1091
ಪ್	-1092
கு	-1093
▁থেকে	-1094
ాయి	-1095
▁आप	-1096
▁એક	-1097
▁will	-1098
▁தொ	-1099
▁किया	-1100
ಿಲ್ಲ	-1101
மி	-1102
▁ಇದ	-1103
ાન	-1104
وں	-1105
ಳ್	-1106
▁உள்ள	-1107
▁le	-1108
▁చె	-1109
ारा	-1110
▁था	-1111
ளு	-1112
▁ر	-1113
ുള്ള	-1114
లకు	-1115
▁જો	-1116
▁મો	-1117
ങ്ങള്	-1118
ळी	-1119
க்	-1120
देश	-1121
ലാ	-1122
ूर्	-1123
▁આપ	-1124
ામ	-1125
हर	-1126
▁यांनी	-1127
▁എന്ന	-1128
ిల్	-1129
ess	-1130
शा	-1131
▁तो	-1132
▁ਚ	-1133
డా	-1134
ધી	-1135
▁ते	-1136
ଛି	-1137
ଲା	-1138
▁शा	-1139
ಚ್	-1140
েশ	-1141
▁वर्	-1142
ra	-1143
जा	-1144
पी	-1145
ட்ச	-1146
ಷ್ಟ	-1147
▁સુ	-1148
വര്	-1149
▁उप	-1150
த்	-1151
▁കോ	-1152
্প	-1153
ਿੱ	-1154
▁બા	-1155
ೇಕ	-1156
ప్ప	-1157
▁தே	-1158
मुळे	-1159
ಳ್ಳ	-1160
ies	-1161
ೇಳ	-1162
se	-1163
qu	-1164
ुप	-1165
രുന്നു	-1166
త్ర	-1167
▁கூ	-1168
ਿਲ	-1169
▁10	-1170
িশ	-1171
▁आहेत	-1172
igh	-1173
ల్లో	-1174
▁गया	-1175
ామ	-1176
ലെ	-1177
ক্ষ	-1178
ારી	-1179
ive	-1180
▁अन	-1181
▁பா	-1182
▁7	-1183
கள்	-1184
▁இந்த	-1185
മായി	-1186
▁ہے	-1187
ాలు	-1188
▁कहा	-1189
ant	-1190
ूर	-1191
▁नाही	-1192
োগ	-1193
રે	-1194
▁ট	-1195
▁ഭ	-1196
▁కో	-1197
ସ୍	-1198
मे	-1199
েল	-1200
red	-1201
▁पह	-1202
ళ్	-1203
▁भार	-1204
ोक	-1205
ळा	-1206
▁सुर	-1207
રો	-1208
▁બે	-1209
pe	-1210
لی	-1211
ಾರಿ	-1212
ಮ್ಮ	-1213
▁ল	-1214
నికి	-1215
▁यह	-1216
▁indi	-1217
▁તેમ	-1218
क्र	-1219
▁his	-1220
तील	-1221
▁گ	-1222
કે	-1223
▁ଗ	-1224
▁ਅਤੇ	-1225
ரை	-1226
▁ડ	-1227
टर	-1228
▁ਇਸ	-1229
▁ಬೆ	-1230
వి	-1231
▁ഹ	-1232
▁ધ	-1233
▁निर्	-1234
▁ను	-1235
మ్	-1236
ಿಸಿ	-1237
▁లో	-1238
▁વા	-1239
ଲେ	-1240
ೊಂಡ	-1241
ற்க	-1242
त्र	-1243
രിക്ക	-1244
▁জান	-1245
ਜ਼	-1246
▁i	-1247
ம்ப	-1248
ત્	-1249
▁సం	-1250
ତା	-1251
▁ই	-1252
ટી	-1253
▁हे	-1254
ಾಗಿದೆ	-1255
্ম	-1256
▁పా	-1257
না	-1258
▁কো	-1259
য়ার	-1260
जी	-1261
▁this	-1262
▁ਕੀ	-1263
വാ	-1264
▁सो	-1265
పా	-1266
▁म्ह	-1267
જી	-1268
টা	-1269
टा	-1270
▁ஏ	-1271
com	-1272
िव	-1273
ীর	-1274
▁کر	-1275
ie	-1276
ियों	-1277
▁ଭ	-1278
িস	-1279
ભા	-1280
िर	-1281
न्ह	-1282
▁নি	-1283
▁জন	-1284
▁کہ	-1285
▁ಬಿ	-1286
▁کو	-1287
end	-1288
▁ಕಾರ	-1289
થે	-1290
ுக	-1291
െടു	-1292
oc	-1293
लेल्या	-1294
od	-1295
ப்பட்ட	-1296
▁લા	-1297
▁நட	-1298
iv	-1299
▁भा	-1300
ண்	-1301
పై	-1302
ற்ப	-1303
ുടെ	-1304
▁&	-1305
▁ના	-1306
మి	-1307
▁ము	-1308
ial	-1309
ದು	-1310
ये	-1311
లను	-1312
ould	-1313
াপ	-1314
em	-1315
▁ઘ	-1316
▁(2	-1317
▁പി	-1318
▁8	-1319
ಿದರು	-1320
▁કાર	-1321
ணி	-1322
વે	-1323
ങ്ക	-1324
ನಾ	-1325
▁(1	-1326
▁pl	-1327
▁మా	-1328
▁સં	-1329
ام	-1330
▁ಲ	-1331
க்கும்	-1332
दार	-1333
▁হয়	-1334
▁ap	-1335
മ്ബ	-1336
ಾಸ	-1337
ట్ట	-1338
ud	-1339
ன்ற	-1340
▁ad	-1341
▁ਸਿੰ	-1342
യാണ്	-1343
ంతో	-1344
સે	-1345
ust	-1346
ష్ట	-1347
ेल	-1348
▁ਤੋਂ	-1349
▁ଯ	-1350
ਹੀ	-1351
▁सरकार	-1352
▁१	-1353
േഷ	-1354
च्	-1355
▁నిర్	-1356
ించారు	-1357
▁दु	-1358
ியில்	-1359
▁મુ	-1360
▁ਸ਼	-1361
ুন	-1362
चार	-1363
▁வெ	-1364
ന്ത്	-1365
▁ਫ	-1366
port	-1367
▁af	-1368
ିକ	-1369
▁நி	-1370
ice	-1371
मान	-1372
ेट	-1373
▁ਸਿੰਘ	-1374
ின	-1375
▁سے	-1376
▁अधिक	-1377
▁ಮತ್ತು	-1378
ണ്ട്	-1379
▁కు	-1380
ಗಳನ್ನು	-1381
ാല	-1382
प्र	-1383
▁వె	-1384
ੱਚ	-1385
▁సి	-1386
চ্	-1387
▁ನೀಡ	-1388
నా	-1389
▁સાથે	-1390
ائ	-1391
▁ਖ	-1392
ast	-1393
ளில்	-1394
ણે	-1395
িনি	-1396
▁இத	-1397
ছিল	-1398
▁ag	-1399
▁আর	-1400
কার	-1401
▁ধ	-1402
▁सर्	-1403
ುದು	-1404
్వ	-1405
▁ഷ	-1406
▁اور	-1407
ണം	-1408
તે	-1409
▁অন	-1410
ाय	-1411
▁मह	-1412
▁కొ	-1413
▁कार्य	-1414
▁റ	-1415
▁ഫ	-1416
▁اس	-1417
▁பே	-1418
क्त	-1419
ડા	-1420
▁ട	-1421
▁होते	-1422
▁હતા	-1423
ধ্য	-1424
▁साथ	-1425
ತೆ	-1426
തു	-1427
▁രാ	-1428
క్క	-1429
ات	-1430
ਹਾ	-1431
▁su	-1432
ംഗ	-1433
િત	-1434
ال	-1435
ری	-1436
றை	-1437
▁tr	-1438
್ಯಾ	-1439
্ড	-1440
प्	-1441
▁కే	-1442
all	-1443
,""	-1444
▁கோ	-1445
ରୁ	-1446
ருக	-1447
▁લો	-1448
ક્ષ	-1449
▁or	-1450
ಾಣ	-1451
▁बाद	-1452
ंतर	-1453
કાર	-1454
ికి	-1455
▁পা	-1456
▁ਭ	-1457
▁स्थ	-1458
ાલ	-1459
ുന്നത്	-1460
so	-1461
ମ୍	-1462
ंत्री	-1463
வே	-1464
வில்	-1465
▁نے	-1466
ரச	-1467
स्ट	-1468
तर	-1469
▁ಹಾಗ	-1470
▁ਪ੍ਰ	-1471
▁పో	-1472
▁வழ	-1473
द्या	-1474
▁പോ	-1475
ear	-1476
ren	-1477
▁હતો	-1478
▁चा	-1479
▁ಹೆ	-1480
▁करने	-1481
▁9	-1482
ದೆ	-1483
▁19	-1484
ത്തിന്	-1485
▁ఫ	-1486
▁తీ	-1487
ளி	-1488
गे	-1489
▁ಕೆ	-1490
രാ	-1491
ोर	-1492
രെ	-1493
▁ઓ	-1494
▁പു	-1495
▁పె	-1496
ண்டு	-1497
▁તો	-1498
દી	-1499
▁കേ	-1500
▁ab	-1501
▁उन्ह	-1502
ಕರ	-1503
ಲೆ	-1504
▁தெ	-1505
▁என	-1506
ಚ್ಚ	-1507
▁व्य	-1508
ok	-1509
▁ಕು	-1510
▁उन	-1511
ଟି	-1512
ಟಿ	-1513
▁সা	-1514
▁pr	-1515
ారి	-1516
खा	-1517
▁काम	-1518
▁"	-1519
లీ	-1520
ନ୍ତି	-1521
െട്ട	-1522
സി	-1523
▁পার	-1524
▁वे	-1525
্রী	-1526
ંત	-1527
ത്ത്	-1528
जे	-1529
নি	-1530
ிறது	-1531
▁ان	-1532
▁ಹೊ	-1533
ಡ್	-1534
മ്മ	-1535
▁అధ	-1536
▁പറ	-1537
੍ਹਾਂ	-1538
ੁੱ	-1539
▁ac	-1540
कां	-1541
धान	-1542
day	-1543
▁wor	-1544
కో	-1545
▁மே	-1546
ନ୍ତ	-1547
বি	-1548
▁ଓ	-1549
▁তার	-1550
▁ar	-1551
▁મળ	-1552
▁ती	-1553
▁ଶ	-1554
▁আম	-1555
ard	-1556
ਵਾ	-1557
ich	-1558
ಧ್ಯ	-1559
ਲਾ	-1560
▁তাঁ	-1561
ಬೇಕ	-1562
▁ಸಮ	-1563
der	-1564
ான்	-1565
કી	-1566
▁સમ	-1567
▁२	-1568
ുമ	-1569
▁அதி	-1570
▁বল	-1571
▁min	-1572
ରା	-1573
ற்று	-1574
▁ਜਾ	-1575
ack	-1576
▁ড	-1577
াদ	-1578
ರಿಗೆ	-1579
र्थ	-1580
ವಾಗಿ	-1581
ுவ	-1582
...	-1583
▁ರಾಜ	-1584
),	-1585
▁ത്ത	-1586
▁নিয়ে	-1587
ात्र	-1588
ಿದ್ದು	-1589
▁केली	-1590
▁रहे	-1591
▁करण्यात	-1592
▁वर्ष	-1593
સા	-1594
േശ	-1595
బా	-1596
▁दा	-1597
పో	-1598
▁ಸಿ	-1599
ଲି	-1600
▁ਨਾਲ	-1601
▁आय	-1602
ளுக்கு	-1603
ంచి	-1604
hi	-1605
্ন	-1606
్రి	-1607
▁all	-1608
▁کا	-1609
ਦੇ	-1610
▁महि	-1611
▁സി	-1612
তা	-1613
▁തു	-1614
ਦਾ	-1615
▁also	-1616
ਦੀ	-1617
ction	-1618
gh	-1619
▁সে	-1620
রে	-1621
ವನ್ನು	-1622
ವಿ	-1623
્રે	-1624
▁વધ	-1625
▁જા	-1626
▁തി	-1627
ಬ್	-1628
ଡ଼	-1629
্রে	-1630
ద్య	-1631
▁அவ	-1632
▁ਸੀ	-1633
ંચ	-1634
ಂತೆ	-1635
ਰਾ	-1636
▁ನಡೆ	-1637
▁મે	-1638
▁off	-1639
▁રહ	-1640
▁செய்த	-1641
द्ध	-1642
ించి	-1643
ost	-1644
▁महा	-1645
ద్ద	-1646
▁অভ	-1647
ன்ன	-1648
ೆಯಲ್ಲಿ	-1649
െന്ന്	-1650
बर	-1651
▁लाग	-1652
ಕಾರ	-1653
▁but	-1654
িতে	-1655
▁১	-1656
▁no	-1657
ातील	-1658
▁had	-1659
ులు	-1660
▁their	-1661
▁നേ	-1662
क्षा	-1663
ंप	-1664
pl	-1665
ight	-1666
▁गु	-1667
▁mar	-1668
▁who	-1669
▁ਵੀ	-1670
ંદ	-1671
നം	-1672
ik	-1673
ાસ	-1674
ിവ	-1675
റ്റ്	-1676
▁பொ	-1677
ুক	-1678
▁सी	-1679
▁அரச	-1680
ಗ್	-1681
▁દિ	-1682
▁केले	-1683
▁વર્	-1684
▁परि	-1685
டிய	-1686
ால	-1687
▁per	-1688
▁pol	-1689
లే	-1690
▁பு	-1691
త్త	-1692
▁12	-1693
▁ہو	-1694
▁ଉ	-1695
ங்கள்	-1696
▁కార	-1697
ಿರುವ	-1698
▁दिया	-1699
দ্ধ	-1700
▁अभ	-1701
స్తున్న	-1702
સી	-1703
▁ਵਿੱਚ	-1704
out	-1705
▁যে	-1706
▁ता	-1707
▁man	-1708
▁whe	-1709
िल	-1710
താ	-1711
ंक	-1712
▁ಮೂ	-1713
ள்ளது	-1714
▁दी	-1715
ಿಳ	-1716
▁ای	-1717
▁बता	-1718
▁સર	-1719
▁असल्या	-1720
▁ஜ	-1721
▁കാ	-1722
ढ़	-1723
ವು	-1724
କ୍ଷ	-1725
নের	-1726
મી	-1727
त्या	-1728
▁پر	-1729
ന്ദ	-1730
▁નિ	-1731
▁15	-1732
▁آ	-1733
સ્ટ	-1734
मार	-1735
▁ಹೇಳ	-1736
▁देश	-1737
തിന	-1738
ंध	-1739
▁us	-1740
োর	-1741
ಪ್ಪ	-1742
സ്ഥ	-1743
ോഗ	-1744
బ్	-1745
ண்டும்	-1746
▁കൊ	-1747
▁ಹಾಗೂ	-1748
ாத	-1749
▁लोग	-1750
ట్లు	-1751
▁up	-1752
▁पुल	-1753
▁ନି	-1754
ବେ	-1755
one	-1756
▁কা	-1757
▁पो	-1758
యి	-1759
نے	-1760
▁which	-1761
రో	-1762
ौर	-1763
ੁਰ	-1764
ਨ੍ਹਾਂ	-1765
▁ଚ	-1766
ೇವ	-1767
ంద్ర	-1768
ਕਾਰ	-1769
▁పరి	-1770
vern	-1771
▁করা	-1772
പി	-1773
மாக	-1774
▁ಆದ	-1775
▁હતું	-1776
▁રાજ	-1777
గి	-1778
▁യ	-1779
ుత్	-1780
ില്ല	-1781
ia	-1782
द्र	-1783
्यात	-1784
సీ	-1785
▁मुख	-1786
ওয়া	-1787
स्ता	-1788
டுத்த	-1789
▁असे	-1790
ਿਸ	-1791
▁നല്	-1792
▁cl	-1793
ଥିବା	-1794
▁ఒ	-1795
ഴി	-1796
ೊಳ್ಳ	-1797
▁ગુ	-1798
▁ਵਿਚ	-1799
ge	-1800
ਟੀ	-1801
▁been	-1802
కా	-1803
▁रुप	-1804
▁उस	-1805
▁they	-1806
ress	-1807
▁সং	-1808
ത്തെ	-1809
పీ	-1810
ാല്	-1811
ther	-1812
▁મહ	-1813
ತ್ಯ	-1814
▁me	-1815
ure	-1816
▁૧	-1817
ச்	-1818
ଷ୍	-1819
▁આવી	-1820
ాలని	-1821
ரும்	-1822
ട്	-1823
▁ભા	-1824
▁যা	-1825
તો	-1826
▁am	-1827
మ్మ	-1828
▁ప్రభ	-1829
▁రె	-1830
▁వే	-1831
▁govern	-1832
▁हि	-1833
ുവ	-1834
ிட்ட	-1835
લો	-1836
▁২	-1837
▁जो	-1838
▁ح	-1839
ber	-1840
கா	-1841
യുടെ	-1842
▁కూ	-1843
▁en	-1844
െന്നും	-1845
▁india	-1846
शन	-1847
▁समा	-1848
જે	-1849
▁দেখ	-1850
ೋಗ	-1851
▁new	-1852
▁કરવા	-1853
்ய	-1854
▁बै	-1855
્યારે	-1856
▁ਹਨ	-1857
த்தை	-1858
ದ್	-1859
രം	-1860
ନା	-1861
স্থ	-1862
ಣೆ	-1863
ંધ	-1864
லா	-1865
▁जात	-1866
જા	-1867
▁ओ	-1868
▁part	-1869
ھی	-1870
યુ	-1871
ப்பட்டு	-1872
▁রাজ	-1873
▁ع	-1874
▁बी	-1875
▁சே	-1876
ong	-1877
ହା	-1878
ുകള	-1879
ழு	-1880
▁im	-1881
ans	-1882
▁గు	-1883
▁one	-1884
ിന്റെ	-1885
▁ക്ക്	-1886
ಲಿ	-1887
ry	-1888
▁dec	-1889
ore	-1890
▁उत्	-1891
ರಿಸ	-1892
ষ্ট	-1893
ాన	-1894
ue	-1895
ିତ	-1896
पास	-1897
▁comp	-1898
ন্দ	-1899
ide	-1900
डा	-1901
வை	-1902
▁ઉપ	-1903
▁ل	-1904
ଣ୍	-1905
വും	-1906
ਹਿ	-1907
▁ಅವರ	-1908
▁res	-1909
▁তিনি	-1910
▁ਲਈ	-1911
▁ಅವರು	-1912
▁ସେ	-1913
డం	-1914
▁ട്ട	-1915
▁मे	-1916
தல்	-1917
▁లే	-1918
▁यांच्या	-1919
▁மற்ற	-1920
दे	-1921
टे	-1922
ન્ટ	-1923
▁হয়েছে	-1924
▁were	-1925
ાં	-1926
ಪಿ	-1927
▁पुलिस	-1928
ଛନ୍ତି	-1929
▁सर्व	-1930
ब्	-1931
▁आले	-1932
ഞ്ച	-1933
ঙ্গে	-1934
000	-1935
▁தொட	-1936
▁ట	-1937
▁సా	-1938
▁নে	-1939
્યુ	-1940
દા	-1941
▁करण्या	-1942
ীয়	-1943
స్థ	-1944
▁ఉన్న	-1945
▁int	-1946
పి	-1947
▁தலை	-1948
ിലെ	-1949
ಾಕ	-1950
▁কি	-1951
▁বলে	-1952
▁கி	-1953
ୋଇ	-1954
तात	-1955
டும்	-1956
▁പ്പ	-1957
ైన	-1958
▁দু	-1959
▁జిల్	-1960
▁out	-1961
ାରେ	-1962
जार	-1963
ुक	-1964
ಡು	-1965
▁गा	-1966
र्म	-1967
▁प्रति	-1968
्रेस	-1969
ಶ್	-1970
వే	-1971
ऱ्या	-1972
ुल	-1973
▁you	-1974
জে	-1975
▁డ	-1976
ानी	-1977
▁year	-1978
सार	-1979
▁ਤੇ	-1980
िक्ष	-1981
ೂರು	-1982
▁ന്ന	-1983
ల్ల	-1984
ated	-1985
ட்	-1986
ध्यक्ष	-1987
ரிய	-1988
രിച്ച	-1989
▁ਕੇ	-1990
▁तक	-1991
▁রা	-1992
ary	-1993
্ক	-1994
ர்த	-1995
▁రూ	-1996
▁মা	-1997
ंह	-1998
▁बि	-1999
▁తెలి	-2000
ଥିଲେ	-2001
▁ನಿರ್	-2002
மா	-2003
▁करा	-2004
খন	-2005
▁રહે	-2006
▁te	-2007
ല്ല	-2008
ನು	-2009
▁सह	-2010
20	-2011
୍ୱ	-2012
પી	-2013
▁गई	-2014
▁ഏ	-2015
▁ش	-2016
बी	-2017
▁আগ	-2018
ime	-2019
ூர்	-2020
াড়	-2021
తం	-2022
▁11	-2023
திய	-2024
▁खा	-2025
ਣਾ	-2026
▁fe	-2027
ੀਆਂ	-2028
ance	-2029
▁ചെയ്	-2030
▁लोक	-2031
యం	-2032
ঞ্	-2033
ന്ത	-2034
▁રો	-2035
▁हुए	-2036
மிழ	-2037
ਵੇ	-2038
वड	-2039
age	-2040
லி	-2041
ంగ్	-2042
नों	-2043
▁आज	-2044
વિ	-2045
నీ	-2046
ಬ್ಬ	-2047
▁थी	-2048
▁நீ	-2049
त्य	-2050
ൂര്	-2051
▁ಕೊ	-2052
▁ಸು	-2053
ନ୍ଦ	-2054
▁நா	-2055
▁ప్రభుత్	-2056
▁చి	-2057
ിച്ചു	-2058
సుకు	-2059
▁নির	-2060
▁येथ	-2061
▁சி	-2062
▁after	-2063
▁होती	-2064
▁ব্য	-2065
യം	-2066
▁ഓ	-2067
ोंने	-2068
▁ରା	-2069
▁মু	-2070
▁रहा	-2071
▁পরি	-2072
▁ଦେ	-2073
▁ಚಿ	-2074
▁जी	-2075
▁వా	-2076
োট	-2077
્રી	-2078
പ്പോ	-2079
▁సమ	-2080
ಧಿಕ	-2081
▁ra	-2082
ড়ে	-2083
్రీ	-2084
वारी	-2085
যোগ	-2086
ಳೆ	-2087
ांनी	-2088
▁रही	-2089
▁કરવામાં	-2090
▁ତ	-2091
ಗಳಲ್ಲಿ	-2092
भी	-2093
▁op	-2094
▁म्हण	-2095
▁కార్య	-2096
मंत्री	-2097
में	-2098
ানে	-2099
▁होता	-2100
▁ஒரு	-2101
▁జిల్లా	-2102
ുകള്	-2103
▁घे	-2104
மு	-2105
▁tw	-2106
ous	-2107
ಿಕೆ	-2108
▁ହୋଇ	-2109
సిన	-2110
▁చేయ	-2111
▁തുട	-2112
▁government	-2113
▁আস	-2114
▁மற்றும்	-2115
▁क्ष	-2116
नंतर	-2117
ଙ୍କୁ	-2118
▁அத	-2119
▁चु	-2120
ూర్	-2121
നി	-2122
▁can	-2123
ठा	-2124
ভা	-2125
▁সর	-2126
ੱਲ	-2127
ദ്ധ	-2128
पर्	-2129
▁ઇ	-2130
ధి	-2131
▁কার	-2132
▁వ్య	-2133
▁pe	-2134
▁over	-2135
മായ	-2136
▁નથી	-2137
▁জন্য	-2138
ئے	-2139
ਕੇ	-2140
▁આવે	-2141
▁கட	-2142
ile	-2143
্ল	-2144
டம்	-2145
▁হবে	-2146
▁વર્ષ	-2147
▁خ	-2148
▁এব	-2149
ించిన	-2150
पुर	-2151
ಜೆ	-2152
▁comm	-2153
▁నుంచి	-2154
ందుకు	-2155
ष्ट्र	-2156
ंचा	-2157
▁केला	-2158
▁ഒരു	-2159
ांना	-2160
ake	-2161
ವರ	-2162
▁its	-2163
▁sc	-2164
ount	-2165
ough	-2166
▁200	-2167
▁state	-2168
▁भाज	-2169
ின்ற	-2170
ug	-2171
ക്ര	-2172
ین	-2173
▁অভি	-2174
▁गो	-2175
కొ	-2176
▁बे	-2177
▁ऑ	-2178
ರಿಯ	-2179
▁ಟ	-2180
ணை	-2181
▁സാ	-2182
ਕਾ	-2183
▁தமிழ	-2184
ಿಸುವ	-2185
िंग	-2186
ओं	-2187
ine	-2188
୍ୟା	-2189
▁வா	-2190
િલ્	-2191
▁मुख्य	-2192
ન્ડ	-2193
पाल	-2194
▁टी	-2195
ਨਾ	-2196
▁এবং	-2197
▁দিয়ে	-2198
▁मौ	-2199
▁കൂ	-2200
▁પોલી	-2201
மான	-2202
▁मै	-2203
▁திரு	-2204
ലീ	-2205
தாக	-2206
ंच	-2207
▁வேண்டும்	-2208
▁செய்ய	-2209
னு	-2210
িকে	-2211
ಕೆ	-2212
.""	-2213
ಾಹ	-2214
▁उन्होंने	-2215
రం	-2216
▁ಫ	-2217
ಿದ್ದರು	-2218
▁అధిక	-2219
ome	-2220
▁ಆಗ	-2221
ன்று	-2222
▁inc	-2223
പ്ര	-2224
▁cont	-2225
ಂದ್ರ	-2226
ീക	-2227
్రా	-2228
▁വീ	-2229
യില	-2230
മാണ്	-2231
ಸ್ಥ	-2232
வா	-2233
▁ಕಾ	-2234
ंत्र	-2235
াকা	-2236
জন	-2237
வட்ட	-2238
▁വാ	-2239
ണി	-2240
టర్	-2241
▁மீ	-2242
ৃত	-2243
తున్న	-2244
▁जिल्	-2245
fe	-2246
ത്തിയ	-2247
▁घेत	-2248
ಡೆಯ	-2249
వారం	-2250
▁என்ற	-2251
▁प्रा	-2252
ound	-2253
लया	-2254
▁ಮೇ	-2255
వం	-2256
▁ਡ	-2257
રૂ	-2258
लय	-2259
▁সঙ্গে	-2260
▁हजार	-2261
▁কোন	-2262
▁आरो	-2263
▁చేశ	-2264
્વાર	-2265
.1	-2266
▁ਦਿੱ	-2267
▁विभा	-2268
▁बना	-2269
త్య	-2270
र्ज	-2271
ਦਰ	-2272
ଡି	-2273
னி	-2274
▁सांग	-2275
▁पी	-2276
▁असून	-2277
ರಾ	-2278
লের	-2279
ll	-2280
▁वह	-2281
ાર્	-2282
ame	-2283
▁स्व	-2284
ക്കി	-2285
▁पू	-2286
ুরু	-2287
ମାନ	-2288
ನಿ	-2289
ಂಗಳ	-2290
एस	-2291
பு	-2292
ric	-2293
▁ঘট	-2294
▁ف	-2295
▁ભાર	-2296
্তু	-2297
ెల	-2298
▁मात्र	-2299
ident	-2300
മു	-2301
▁சு	-2302
▁शि	-2303
▁ਉਨ੍ਹਾਂ	-2304
શ્	-2305
മി	-2306
▁do	-2307
િય	-2308
▁काही	-2309
ank	-2310
কা	-2311
▁வருக	-2312
▁राज्य	-2313
▁து	-2314
▁sp	-2315
ಾಗುತ್ತ	-2316
্স	-2317
ੈਂ	-2318
ೀಯ	-2319
ूप	-2320
તાં	-2321
ish	-2322
ദ്യ	-2323
▁अनु	-2324
ାର୍	-2325
ub	-2326
▁ପାଇ	-2327
ಂಧ	-2328
থা	-2329
ികള	-2330
▁ऐ	-2331
ାମ	-2332
క్ర	-2333
▁কিন	-2334
ણા	-2335
▁மாவட்ட	-2336
୍ରୀ	-2337
▁सिंह	-2338
▁गे	-2339
िला	-2340
▁पूर्	-2341
ग्	-2342
▁લોકો	-2343
ਨੀ	-2344
ister	-2345
సం	-2346
ట్టు	-2347
ோது	-2348
▁ಆರ	-2349
య్య	-2350
್ಣ	-2351
▁ହେ	-2352
રમાં	-2353
ition	-2354
▁ಖ	-2355
சி	-2356
ತಿಯ	-2357
ಲಾ	-2358
▁ಕಾರ್ಯ	-2359
▁દ્વાર	-2360
▁வீ	-2361
▁अपने	-2362
▁महिला	-2363
মা	-2364
പ്പെട്ട	-2365
થા	-2366
▁ಸರ್	-2367
माण	-2368
ोट	-2369
▁डॉ	-2370
ண்ண	-2371
टना	-2372
▁బా	-2373
▁రో	-2374
ന്ത്രി	-2375
▁സര്	-2376
ారా	-2377
▁പരി	-2378
▁so	-2379
తే	-2380
डून	-2381
டுக	-2382
▁ro	-2383
ସି	-2384
▁அமை	-2385
▁পুল	-2386
ਾਬ	-2387
▁यु	-2388
ತು	-2389
ctor	-2390
ರಿಂದ	-2391
▁నే	-2392
कडे	-2393
ட்டி	-2394
தா	-2395
▁थे	-2396
du	-2397
ire	-2398
യായി	-2399
▁பிர	-2400
బు	-2401
किन	-2402
▁பி	-2403
ഞ്ഞു	-2404
વાની	-2405
ूल	-2406
av	-2407
og	-2408
ప్పు	-2409
▁വെ	-2410
धार	-2411
▁സെ	-2412
ays	-2413
రీ	-2414
पर	-2415
ations	-2416
ail	-2417
ase	-2418
னால்	-2419
▁ప్రా	-2420
▁মে	-2421
कारी	-2422
▁நே	-2423
ਿਆਂ	-2424
▁করতে	-2425
ताना	-2426
ंबई	-2427
ర్శ	-2428
ളി	-2429
ોડ	-2430
▁య	-2431
▁ਮੁ	-2432
ણાવ	-2433
ಬೇಕು	-2434
▁அரசு	-2435
बत	-2436
▁தெரி	-2437
ોલ	-2438
▁qu	-2439
▁बार	-2440
બા	-2441
▁അവ	-2442
▁రాష్ట	-2443
ಳಿ	-2444
▁സ്ഥ	-2445
▁झाले	-2446
▁என்று	-2447
▁সি	-2448
ଲ୍	-2449
್ರಮ	-2450
लं	-2451
▁सक	-2452
▁there	-2453
ంటు	-2454
▁উপ	-2455
▁દ્વારા	-2456
ಿಸಲ	-2457
▁ವರ್	-2458
▁కూడా	-2459
▁సీ	-2460
▁dis	-2461
لا	-2462
▁पि	-2463
▁বিশ	-2464
டன்	-2465
▁રૂ	-2466
▁more	-2467
▁25	-2468
గ్	-2469
▁मान	-2470
ip	-2471
ست	-2472
▁ઈ	-2473
▁ਰਾ	-2474
ੱਸ	-2475
க்கை	-2476
▁त्यामुळे	-2477
കള	-2478
▁چ	-2479
ंद्र	-2480
મ્	-2481
िती	-2482
30	-2483
▁दिव	-2484
▁ಜನ	-2485
▁चौ	-2486
▁acc	-2487
▁fir	-2488
-1	-2489
▁பய	-2490
జు	-2491
পি	-2492
ിട്ട	-2493
▁sec	-2494
▁હોય	-2495
ang	-2496
ದಿ	-2497
வும்	-2498
▁ഈ	-2499
চ্ছে	-2500
ందని	-2501
▁जन	-2502
▁সেই	-2503
ence	-2504
तो	-2505
▁હા	-2506
షన్	-2507
ટા	-2508
ಗಳಿಗೆ	-2509
జీ	-2510
মন	-2511
▁ਐ	-2512
ace	-2513
ంధ	-2514
ிகள்	-2515
▁സ്വ	-2516
ven	-2517
▁সু	-2518
▁நில	-2519
ign	-2520
বর	-2521
డ్డి	-2522
▁૨	-2523
for	-2524
▁30	-2525
ಗ್ಗೆ	-2526
ান্ত	-2527
ೆಗೆ	-2528
▁cent	-2529
▁ছিল	-2530
▁ی	-2531
వహ	-2532
ಸಿ	-2533
▁ग्रा	-2534
▁લે	-2535
▁she	-2536
▁ਸਮ	-2537
▁would	-2538
▁other	-2539
▁જી	-2540
வது	-2541
▁అవ	-2542
యన	-2543
രുന്ന	-2544
the	-2545
ത്തില	-2546
▁her	-2547
ାତ	-2548
ెం	-2549
▁लेकिन	-2550
we	-2551
▁ہیں	-2552
▁ന്	-2553
लाई	-2554
ರೂ	-2555
▁लाख	-2556
ാവ	-2557
▁ಸ್ಥ	-2558
▁ಅಭ	-2559
▁સે	-2560
நில	-2561
ত্ত	-2562
▁sour	-2563
▁|	-2564
િંગ	-2565
▁मार्	-2566
દ્	-2567
্যান	-2568
धा	-2569
▁minister	-2570
ಿಕೊಂಡ	-2571
िन	-2572
સ્ત	-2573
মে	-2574
ಜಿ	-2575
▁ത്തി	-2576
దా	-2577
▁ಎಂಬ	-2578
स्था	-2579
दर्	-2580
▁पार्	-2581
ਟਰ	-2582
ल्ली	-2583
ep	-2584
ਗਾ	-2585
ଧ୍ୟ	-2586
▁സു	-2587
▁યુ	-2588
▁मुंबई	-2589
ળા	-2590
▁সব	-2591
▁పే	-2592
▁ಮುಖ	-2593
కర	-2594
ികള്	-2595
ியு	-2596
ئی	-2597
▁পুলিশ	-2598
▁ച്ച	-2599
ople	-2600
▁दर	-2601
ical	-2602
ুষ	-2603
▁দিন	-2604
▁ಹೆಚ್ಚ	-2605
▁लगा	-2606
്യാ	-2607
ையும்	-2608
ree	-2609
ెక్	-2610
ിച്ച്	-2611
▁फि	-2612
டுத்து	-2613
▁gr	-2614
ോട്ട	-2615
নার	-2616
▁ಹಿ	-2617
▁ಗು	-2618
ದ್ಧ	-2619
த்தி	-2620
िम	-2621
.5	-2622
▁মান	-2623
▁ಡ	-2624
▁ভার	-2625
▁কিন্তু	-2626
િં	-2627
▁ಮಹ	-2628
ದಿಂದ	-2629
▁ಏ	-2630
பி	-2631
▁ಸಾ	-2632
્રા	-2633
ગી	-2634
र्ट	-2635
ੱਕ	-2636
▁ತಿಳ	-2637
very	-2638
्रीय	-2639
▁અન	-2640
▁रो	-2641
▁बताया	-2642
ியா	-2643
▁નો	-2644
నం	-2645
▁मी	-2646
ult	-2647
ਲੀ	-2648
▁गां	-2649
▁স্ব	-2650
▁गए	-2651
▁14	-2652
▁people	-2653
▁പ്രതി	-2654
▁साम	-2655
ಿಸಿದ	-2656
▁സമ	-2657
▁പൊ	-2658
ాడు	-2659
▁ਬਾ	-2660
দিন	-2661
▁અમ	-2662
▁भारत	-2663
▁ఓ	-2664
."	-2665
▁মধ্য	-2666
▁നിര്	-2667
▁संघ	-2668
▁യു	-2669
ാട	-2670
▁about	-2671
ന്ധ	-2672
ওয়ার	-2673
ിലും	-2674
वाई	-2675
▁ਸਰ	-2676
▁ସମ	-2677
▁శా	-2678
వర	-2679
▁आली	-2680
ंज	-2681
ड़ी	-2682
▁क्षेत	-2683
▁लोगों	-2684
▁again	-2685
▁घर	-2686
ന്ദ്ര	-2687
ose	-2688
ket	-2689
ന്റെ	-2690
ચ્	-2691
ંત્ર	-2692
ాలను	-2693
നു	-2694
▁ಜಿಲ್ಲ	-2695
ತ್ರಿ	-2696
▁கே	-2697
▁వచ్చ	-2698
▁வை	-2699
▁மூ	-2700
▁विद्या	-2701
▁ட	-2702
ତ୍	-2703
▁ಕೋ	-2704
व्	-2705
ારો	-2706
▁होने	-2707
▁অব	-2708
▁रि	-2709
▁જણાવ	-2710
ಗರ	-2711
ગર	-2712
▁ரா	-2713
▁প্রতি	-2714
ಲೀ	-2715
ਲੇ	-2716
▁18	-2717
▁हम	-2718
▁પોતા	-2719
اہ	-2720
রি	-2721
ding	-2722
पूर्	-2723
तीय	-2724
▁शिक्ष	-2725
ంటి	-2726
▁जाए	-2727
ah	-2728
ड़ा	-2729
ज्	-2730
ୋଗ	-2731
▁దీ	-2732
▁तीन	-2733
▁ଲ	-2734
ದ್ದ	-2735
▁ਮੰ	-2736
▁ଏହି	-2737
்கு	-2738
▁రాష్ట్ర	-2739
ike	-2740
▁ਹੀ	-2741
પા	-2742
್ರೆ	-2743
▁முதல்	-2744
int	-2745
નાં	-2746
बंध	-2747
▁ಮೊ	-2748
▁থাক	-2749
▁मत	-2750
▁ಕೆಲ	-2751
ण्यासाठी	-2752
স্ত	-2753
ଯାଇ	-2754
▁न्या	-2755
ಂಗ್	-2756
एम	-2757
▁ਕੀਤਾ	-2758
ப்பி	-2759
ऱ्यां	-2760
తీ	-2761
ook	-2762
ദ്ദ	-2763
▁ವ್ಯ	-2764
ಿರ	-2765
ലി	-2766
▁വേ	-2767
▁બાદ	-2768
▁सू	-2769
▁जिस	-2770
▁ق	-2771
ீர்	-2772
ವಾ	-2773
ਸੀ	-2774
▁two	-2775
পুর	-2776
റ്റി	-2777
▁when	-2778
्त	-2779
▁2016	-2780
રાત	-2781
ational	-2782
ੱਖ	-2783
ാം	-2784
ಕ್ತ	-2785
vel	-2786
ర్య	-2787
▁தெரிவி	-2788
▁देख	-2789
ित्र	-2790
িয়	-2791
ਾਈ	-2792
ய்	-2793
▁ஏற்ப	-2794
શન	-2795
कर्	-2796
▁बात	-2797
பா	-2798
▁കെ	-2799
▁राह	-2800
▁பல	-2801
ட்சி	-2802
▁बु	-2803
یر	-2804
▁pres	-2805
ಂಕ	-2806
اب	-2807
सन	-2808
▁pre	-2809
▁ਆਪ	-2810
▁rec	-2811
ash	-2812
▁br	-2813
ਾਮ	-2814
▁ಸೇ	-2815
జా	-2816
▁సమా	-2817
▁பண	-2818
सर	-2819
▁அறி	-2820
▁এর	-2821
''	-2822
க்கள்	-2823
ਡੀ	-2824
▁குறி	-2825
▁একটি	-2826
▁સુધી	-2827
യ്യ	-2828
▁બી	-2829
اد	-2830
▁বাড়	-2831
ેલા	-2832
▁இது	-2833
యో	-2834
▁पहले	-2835
ऊन	-2836
▁may	-2837
,000	-2838
ass	-2839
▁शे	-2840
▁ਇਹ	-2841
था	-2842
▁డి	-2843
ਹੀਂ	-2844
ર્ટ	-2845
▁ക്	-2846
▁ਕਿਹਾ	-2847
▁आम	-2848
▁दिल्ली	-2849
लो	-2850
ளின்	-2851
జ్	-2852
▁ನಡೆಸ	-2853
സം	-2854
ಿಸಿದರು	-2855
are	-2856
▁अव	-2857
ूक	-2858
েষ	-2859
able	-2860
ళ్ల	-2861
ೊಂದ	-2862
ଥିଲା	-2863
ಚಾರ	-2864
▁કા	-2865
▁દિવ	-2866
▁सुरू	-2867
▁પડ	-2868
ையை	-2869
রের	-2870
▁fin	-2871
ade	-2872
पूर	-2873
ంత్రి	-2874
ions	-2875
ുപ	-2876
▁દે	-2877
▁निवड	-2878
ിനെ	-2879
▁ఆయన	-2880
ಧಾನ	-2881
્યાં	-2882
▁त्यांनी	-2883
▁રહી	-2884
pt	-2885
களை	-2886
ండి	-2887
▁બના	-2888
ুম	-2889
▁मिळ	-2890
ক্ত	-2891
ach	-2892
ഫ്	-2893
াহ	-2894
▁आर	-2895
▁చేశారు	-2896
িম	-2897
ாம	-2898
ುನ	-2899
▁करून	-2900
সে	-2901
यी	-2902
▁నా	-2903
▁जान	-2904
ಪ್ರ	-2905
రే	-2906
▁গিয়ে	-2907
ବାର	-2908
▁अध्यक्ष	-2909
ଡ଼ି	-2910
▁தொடர்	-2911
▁ರಾಜ್ಯ	-2912
▁గా	-2913
ంటే	-2914
രണ	-2915
ഷ്	-2916
▁ପାଇଁ	-2917
తా	-2918
ib	-2919
ୁର	-2920
▁થઈ	-2921
▁गर्	-2922
കള്	-2923
▁પૂ	-2924
▁16	-2925
ांच्या	-2926
ரம்	-2927
ாளர்	-2928
▁ಮೂಲ	-2929
▁माम	-2930
ਾਇ	-2931
పారు	-2932
▁ਕਰਨ	-2933
ળી	-2934
બી	-2935
▁করেন	-2936
ांच	-2937
▁पोल	-2938
మే	-2939
லீ	-2940
▁इसके	-2941
ವೆ	-2942
చి	-2943
▁ਗਿਆ	-2944
▁বির	-2945
▁mon	-2946
्यू	-2947
▁आता	-2948
ెట్	-2949
▁তাঁর	-2950
ాలి	-2951
న్య	-2952
▁ரூ	-2953
▁ದಿನ	-2954
हन	-2955
▁ಪರಿ	-2956
િટ	-2957
cted	-2958
▁क्र	-2959
ੰਜ	-2960
▁13	-2961
ند	-2962
ೇಂದ್ರ	-2963
▁जब	-2964
hed	-2965
▁వై	-2966
பெ	-2967
▁ਜ਼	-2968
▁പാ	-2969
നാ	-2970
▁స్థ	-2971
▁रे	-2972
কের	-2973
ెస్	-2974
ुरु	-2975
▁ser	-2976
▁del	-2977
ಮಾ	-2978
ಿಸುತ್ತ	-2979
▁ને	-2980
ಿತಿ	-2981
▁50	-2982
ప్ర	-2983
▁शक	-2984
▁భార	-2985
▁বে	-2986
▁att	-2987
സ്ഥാന	-2988
▁क्षेत्र	-2989
▁sup	-2990
▁ஆக	-2991
ధ్య	-2992
▁ಭಾರ	-2993
ಿಯಲ್ಲಿ	-2994
વું	-2995
नु	-2996
गत	-2997
▁निय	-2998
te	-2999
യിലെ	-3000
▁ಬಗ್ಗೆ	-3001
ത്തിന്റെ	-3002
▁বলেন	-3003
প্র	-3004
.2	-3005
▁work	-3006
▁પોલીસ	-3007
▁अब	-3008
▁പേ	-3009
▁source	-3010
▁ଖ	-3011
்கள்	-3012
ుల	-3013
▁ಆದರೆ	-3014
കു	-3015
ത്തു	-3016
ಎಸ್	-3017
▁ബി	-3018
पासून	-3019
▁शहर	-3020
దే	-3021
▁first	-3022
शे	-3023
जर	-3024
బాద్	-3025
ವರು	-3026
▁पहु	-3027
▁माहि	-3028
▁माग	-3029
द्य	-3030
ধান	-3031
▁તા	-3032
▁દર	-3033
ારા	-3034
ছু	-3035
ஞ்ச	-3036
ेंद्र	-3037
▁ಅದ	-3038
▁ಬಳ	-3039
▁যায়	-3040
ुन	-3041
▁વે	-3042
▁''	-3043
ਣੇ	-3044
▁कम	-3045
ੁਲ	-3046
ിക്കുന്ന	-3047
▁rs	-3048
ଳି	-3049
డీ	-3050
ந்தது	-3051
కే	-3052
ണമ	-3053
லம்	-3054
▁ખા	-3055
వీ	-3056
વો	-3057
ോടെ	-3058
▁इन	-3059
▁સામે	-3060
ಣ್ಣ	-3061
▁પુ	-3062
▁ਨਹੀਂ	-3063
సా	-3064
ಕಾ	-3065
ट्	-3066
▁মো	-3067
▁ಗ್ರ	-3068
▁વધુ	-3069
▁माहिती	-3070
ંક	-3071
હો	-3072
ಂಟ	-3073
ାୟ	-3074
▁ಗೆ	-3075
▁మొ	-3076
પો	-3077
▁दाख	-3078
▁ତା	-3079
ാഗ	-3080
▁ਸਕ	-3081
▁ગુજ	-3082
▁बद	-3083
▁কে	-3084
▁inter	-3085
▁inv	-3086
जन	-3087
▁কম	-3088
ಿಸಿದ್ದಾರೆ	-3089
୍ଚ	-3090
▁എം	-3091
ంప	-3092
▁them	-3093
▁मोदी	-3094
▁ಅಧಿಕ	-3095
▁নাম	-3096
▁पै	-3097
য়ের	-3098
▁असा	-3099
oss	-3100
▁అభ	-3101
च्छ	-3102
চার	-3103
▁আপ	-3104
ശ്	-3105
▁झाली	-3106
▁સ્ટ	-3107
ੋਕ	-3108
▁how	-3109
▁add	-3110
वं	-3111
▁చెప్ప	-3112
दर	-3113
शि	-3114
दि	-3115
▁count	-3116
जय	-3117
▁തീ	-3118
▁lead	-3119
▁పార్	-3120
▁രാജ	-3121
▁કહ	-3122
▁પહે	-3123
▁रह	-3124
▁ਪਰ	-3125
ન્દ	-3126
वाल	-3127
▁काय	-3128
କା	-3129
ंगा	-3130
க்கி	-3131
▁ਸੰ	-3132
▁ஓ	-3133
▁ਕੋ	-3134
▁ہے۔	-3135
▁பகு	-3136
ండా	-3137
▁अशी	-3138
▁वाढ	-3139
ally	-3140
कडून	-3141
▁ସ୍	-3142
ांत	-3143
▁રી	-3144
▁फिल्	-3145
వర్	-3146
▁તમા	-3147
ಾರು	-3148
▁কেন	-3149
ଦ୍	-3150
▁ಬಂದ	-3151
▁ওই	-3152
▁under	-3153
▁মুখ	-3154
ക്കുന്ന	-3155
▁வழங்க	-3156
▁ચૂ	-3157
ंना	-3158
क्रम	-3159
യെ	-3160
▁अने	-3161
▁बस	-3162
वर्	-3163
▁शेत	-3164
▁ভারত	-3165
ಕು	-3166
▁वाले	-3167
പ്പ്	-3168
▁oct	-3169
▁સો	-3170
▁"(	-3171
▁ಕ್	-3172
ന്നെ	-3173
માન	-3174
मुख	-3175
▁पोलिस	-3176
old	-3177
ಧ್ಯಕ್ಷ	-3178
ai	-3179
▁स्ट	-3180
▁ଘ	-3181
ંડ	-3182
दान	-3183
ండ్	-3184
▁against	-3185
▁ഗ്ര	-3186
▁લી	-3187
▁ಚಿತ್ರ	-3188
ांची	-3189
ഡ്	-3190
▁ਉਸ	-3191
▁बंद	-3192
▁ਕੀਤੀ	-3193
▁തെ	-3194
ట్ల	-3195
form	-3196
▁ନେ	-3197
▁কাজ	-3198
▁cr	-3199
▁రై	-3200
வத	-3201
ിയുടെ	-3202
ाजी	-3203
াঁ	-3204
ധി	-3205
▁नव	-3206
మె	-3207
த்திய	-3208
▁കി	-3209
▁বেশ	-3210
▁ஊ	-3211
ನೆಯ	-3212
▁نہ	-3213
han	-3214
ूस	-3215
ષ્ટ	-3216
ਤਰ	-3217
முக	-3218
కోవ	-3219
▁దా	-3220
▁लेकर	-3221
କାର	-3222
ഡി	-3223
াতে	-3224
▁exp	-3225
ക്കു	-3226
aw	-3227
▁অভিযোগ	-3228
ite	-3229
মন্ত	-3230
ছিলেন	-3231
നെ	-3232
ोष	-3233
▁like	-3234
ங்கு	-3235
▁వీ	-3236
▁कै	-3237
▁नगर	-3238
▁జరి	-3239
▁بھی	-3240
▁ಮುಂದ	-3241
ள்ளார்	-3242
▁app	-3243
োল	-3244
▁ಎಂದ	-3245
પ્ર	-3246
▁ઝ	-3247
ईल	-3248
ુલ	-3249
টে	-3250
▁कॉ	-3251
ਣੀ	-3252
વાદ	-3253
ूम	-3254
ഷ്ട	-3255
▁தி	-3256
▁റി	-3257
▁time	-3258
▁ଟ	-3259
यंत	-3260
▁आला	-3261
ates	-3262
णाऱ्या	-3263
▁నిర్వహ	-3264
▁offic	-3265
ଭା	-3266
ല്ലാ	-3267
വ്	-3268
ಜ್	-3269
▁खु	-3270
▁हर	-3271
ચે	-3272
ੌਰ	-3273
▁भारतीय	-3274
▁some	-3275
ற்கு	-3276
ಂತರ	-3277
▁एका	-3278
வர	-3279
ാമ	-3280
▁भर	-3281
াত্র	-3282
▁ની	-3283
▁୧	-3284
▁योज	-3285
▁reg	-3286
▁ವರ್ಷ	-3287
▁સરકાર	-3288
▁विका	-3289
▁दिली	-3290
ેટ	-3291
▁play	-3292
▁कुछ	-3293
▁17	-3294
ण्याची	-3295
ैन	-3296
▁କରା	-3297
▁होत	-3298
▁പറഞ്ഞു	-3299
ਮੀ	-3300
▁0	-3301
ਸ਼ਨ	-3302
ఆర్	-3303
▁মহ	-3304
ल्याने	-3305
സ്റ്റ	-3306
▁ind	-3307
ંતુ	-3308
▁दिन	-3309
▁বছ	-3310
ವಾಗ	-3311
वेळी	-3312
ેર	-3313
▁रुपये	-3314
▁কথা	-3315
పాటు	-3316
▁कारण	-3317
ಪು	-3318
▁వర	-3319
▁ಧ	-3320
▁ति	-3321
ଥା	-3322
▁ఏర్	-3323
▁সরকার	-3324
▁યો	-3325
own	-3326
▁హై	-3327
▁शिव	-3328
▁విద్య	-3329
च्च	-3330
ൂപ	-3331
मध	-3332
ँग	-3333
▁व्यव	-3334
ಸ್ಯ	-3335
▁any	-3336
ुरू	-3337
्ल	-3338
نا	-3339
ھا	-3340
▁तसे	-3341
▁कंप	-3342
खे	-3343
▁शु	-3344
सि	-3345
ન્સ	-3346
▁him	-3347
▁त्यांच्या	-3348
▁तु	-3349
ାରି	-3350
▁কিছু	-3351
▁ಮಾತ	-3352
.,	-3353
▁ശ്ര	-3354
▁റെ	-3355
▁വര്	-3356
▁বিজে	-3357
ದೇಶ	-3358
▁કામ	-3359
iss	-3360
ಲೇ	-3361
लक	-3362
িয়া	-3363
▁মধ্যে	-3364
▁நடை	-3365
ંટ	-3366
ஸ்ட	-3367
▁ਵਾਲ	-3368
▁ಸರ್ಕಾರ	-3369
જપ	-3370
▁ਸਾ	-3371
স্ট	-3372
సే	-3373
▁పోలీ	-3374
▁సు	-3375
▁24	-3376
▁ಸಹ	-3377
ବି	-3378
രോ	-3379
▁સી	-3380
ond	-3381
ুব	-3382
वाद	-3383
▁लग	-3384
▁if	-3385
▁మహ	-3386
▁పు	-3387
▁ದಾ	-3388
▁শুরু	-3389
ces	-3390
రుగు	-3391
▁পে	-3392
க்கப்பட்ட	-3393
ശ്യ	-3394
▁ਘ	-3395
ଣା	-3396
می	-3397
▁बैठ	-3398
ാര്യ	-3399
ఖ్య	-3400
▁தமிழக	-3401
ٹی	-3402
ുണ്ട്	-3403
చే	-3404
માંથી	-3405
▁श्री	-3406
▁ல	-3407
▁दोन	-3408
ജി	-3409
▁करते	-3410
▁୨	-3411
▁ठा	-3412
वळ	-3413
ల్లి	-3414
ারা	-3415
वन	-3416
man	-3417
હીં	-3418
ಂಚ	-3419
▁विक	-3420
டைய	-3421
सं	-3422
▁jan	-3423
ಷ್	-3424
ಿಕೊಳ್ಳ	-3425
▁ass	-3426
ின்றனர்	-3427
**	-3428
▁fil	-3429
घा	-3430
▁అధికారు	-3431
ਜੀ	-3432
▁വ്യ	-3433
▁खे	-3434
ించే	-3435
രുടെ	-3436
▁നിന്ന	-3437
ளிய	-3438
▁కేంద్ర	-3439
ారని	-3440
▁తెలిపారు	-3441
▁झाला	-3442
▁ബാ	-3443
ங்களில்	-3444
நா	-3445
▁తన	-3446
▁કોઈ	-3447
वरी	-3448
▁जाने	-3449
ূল	-3450
▁রয়ে	-3451
वास	-3452
ട്ടി	-3453
োক	-3454
ೋಜ	-3455
▁પરંતુ	-3456
യര്	-3457
পর	-3458
▁ਉਹ	-3459
▁spe	-3460
ധ്യ	-3461
ଭି	-3462
▁ಕೂ	-3463
पे	-3464
ંગ્રે	-3465
▁என்ப	-3466
▁നാ	-3467
ಂಭ	-3468
▁સ્થ	-3469
▁ଫ	-3470
▁સમય	-3471
ೇಶ್	-3472
▁గ్ర	-3473
▁ବା	-3474
ધા	-3475
ாய்	-3476
ருத்து	-3477
್ರೀ	-3478
ழை	-3479
ंची	-3480
ff	-3481
▁சா	-3482
▁മൂ	-3483
வாக	-3484
▁बो	-3485
▁co	-3486
iz	-3487
▁ਰਿ	-3488
▁ఐ	-3489
▁मिल	-3490
ities	-3491
▁2015	-3492
▁ಭಾರತ	-3493
▁મહિ	-3494
▁लि	-3495
▁போலீ	-3496
ೊಳ	-3497
▁अधिकारी	-3498
िके	-3499
▁करी	-3500
▁आरोप	-3501
▁get	-3502
लीस	-3503
▁साल	-3504
ks	-3505
▁घटना	-3506
ங்கள	-3507
▁हुई	-3508
low	-3509
ne	-3510
ুক্ত	-3511
▁ರೂ	-3512
ون	-3513
வர்கள்	-3514
બર	-3515
▁রাজ্য	-3516
▁द्	-3517
డంతో	-3518
▁ગુજરાત	-3519
▁भाग	-3520
कों	-3521
▁చూ	-3522
▁બો	-3523
▁પરિ	-3524
ସ୍ତ	-3525
aj	-3526
▁while	-3527
ning	-3528
▁மாண	-3529
▁last	-3530
▁ठे	-3531
కులు	-3532
▁ટી	-3533
▁cour	-3534
▁આગ	-3535
ious	-3536
▁राष्ट्र	-3537
ക്ത	-3538
रोध	-3539
▁ത്	-3540
▁ಪೊ	-3541
▁ಎಲ್ಲ	-3542
▁फिल्म	-3543
ரில்	-3544
കര്	-3545
न्न	-3546
▁সম্প	-3547
മാന	-3548
ଙ୍ଗ	-3549
ೂರ್	-3550
▁ప్రతి	-3551
act	-3552
▁ಘ	-3553
છી	-3554
ਗੀ	-3555
▁police	-3556
▁ఆర్	-3557
▁હોવા	-3558
દેશ	-3559
નમાં	-3560
దేశ	-3561
▁మీ	-3562
▁३	-3563
▁ক্ষ	-3564
▁अनेक	-3565
▁ત્યારે	-3566
▁२०	-3567
ંપ	-3568
ఎస్	-3569
▁তবে	-3570
▁સિ	-3571
▁ജോ	-3572
▁നില	-3573
▁सब	-3574
ୋଲି	-3575
▁ਕਾਰ	-3576
দি	-3577
▁ମଧ୍ୟ	-3578
ens	-3579
फी	-3580
▁ഡി	-3581
▁चार	-3582
ట్లా	-3583
ঞ্চ	-3584
▁கொண்ட	-3585
ंट	-3586
▁ప్రభుత్వం	-3587
नाव	-3588
▁அதிக	-3589
ड़े	-3590
തെ	-3591
லும்	-3592
ப்பா	-3593
கி	-3594
▁तसेच	-3595
▁21	-3596
▁पण	-3597
ಷ್ಟು	-3598
േക്ക്	-3599
▁କେ	-3600
▁ભારત	-3601
গুল	-3602
▁our	-3603
▁ಬಿಜೆ	-3604
ர்ந்த	-3605
তো	-3606
▁ભાજપ	-3607
दन	-3608
je	-3609
वान	-3610
▁विभाग	-3611
▁ਪਹ	-3612
▁গ্র	-3613
ನೇ	-3614
▁दिवस	-3615
ന്ത്യ	-3616
శా	-3617
ಡಿಯ	-3618
▁ఖ	-3619
ਿਕ	-3620
ಟ್ಟು	-3621
▁नाम	-3622
ూరు	-3623
ೂರ	-3624
▁em	-3625
amp	-3626
▁રે	-3627
വന	-3628
▁एस	-3629
வ்	-3630
▁ధ	-3631
দেশ	-3632
್ರೆಸ್	-3633
ুদ্ধ	-3634
ബ്	-3635
▁मन	-3636
মান	-3637
ਗਰ	-3638
▁தா	-3639
▁आपल्या	-3640
हत	-3641
▁এল	-3642
▁இய	-3643
ಪಡ	-3644
▁ایک	-3645
▁ಪಾ	-3646
▁डा	-3647
▁act	-3648
▁प्रदेश	-3649
▁aug	-3650
ਉਣ	-3651
हार	-3652
टक	-3653
ಮಾನ	-3654
સો	-3655
▁ط	-3656
ਿਰ	-3657
हु	-3658
वारा	-3659
▁ਦਿ	-3660
ृत	-3661
▁ভা	-3662
▁സംഘ	-3663
▁पोलीस	-3664
స్తున్నారు	-3665
▁ଦି	-3666
▁అంద	-3667
▁କି	-3668
ವಾದ	-3669
తోంది	-3670
ુક	-3671
uring	-3672
▁ನೋ	-3673
ଣ୍ଡ	-3674
પ્	-3675
ਹੇ	-3676
▁செய்து	-3677
▁जु	-3678
वादी	-3679
▁ਪੰਜ	-3680
यत	-3681
▁निवडण	-3682
▁કાર્ય	-3683
▁ചെയ്യ	-3684
સ્તા	-3685
ੁੰ	-3686
േഹ	-3687
▁કહ્યું	-3688
ದ್ಯ	-3689
ध्या	-3690
▁માં	-3691
ಿತು	-3692
ುವುದು	-3693
కర్	-3694
▁report	-3695
ர்த்த	-3696
▁ఒక	-3697
اک	-3698
▁یہ	-3699
▁வந்த	-3700
्यान	-3701
क्स	-3702
ಂಗ್ರೆಸ್	-3703
▁रूप	-3704
గొ	-3705
োপ	-3706
▁మార్	-3707
த்தின்	-3708
▁ਪਾ	-3709
▁ವಿದ	-3710
ଷ୍ଟ	-3711
িট	-3712
சா	-3713
▁ପା	-3714
▁ರೈ	-3715
▁ಪೊಲೀ	-3716
▁ಯಾವ	-3717
ind	-3718
▁सांगित	-3719
ru	-3720
▁ରାଜ	-3721
▁ఎస్	-3722
▁உட	-3723
▁అను	-3724
ஷ்	-3725
ರೀ	-3726
▁రాజ	-3727
▁সময়	-3728
▁మాట్లా	-3729
▁మండ	-3730
ಲಾಗಿದೆ	-3731
▁न्याया	-3732
▁உய	-3733
▁विकास	-3734
ము	-3735
ন্ধ	-3736
▁निर्ण	-3737
ాలకు	-3738
▁சிற	-3739
▁फे	-3740
▁टा	-3741
▁आई	-3742
తూ	-3743
ാക്ക	-3744
ater	-3745
▁எதி	-3746
▁দেশ	-3747
▁کیا	-3748
▁لی	-3749
▁ചി	-3750
▁દી	-3751
वेश	-3752
▁رہ	-3753
େଶ	-3754
र्चा	-3755
ణా	-3756
▁कोई	-3757
ಗೂ	-3758
▁ಆಯ	-3759
▁दौर	-3760
ਵੀ	-3761
▁ನಲ್ಲಿ	-3762
▁अपनी	-3763
▁कई	-3764
▁राम	-3765
াকে	-3766
বেন	-3767
্ঠ	-3768
▁शेतक	-3769
▁এখন	-3770
▁पद	-3771
▁۔	-3772
लों	-3773
▁நடைபெ	-3774
എസ്	-3775
▁व्या	-3776
லக	-3777
rent	-3778
वून	-3779
బ్బ	-3780
▁രൂപ	-3781
▁ರಾ	-3782
▁રાખ	-3783
ারে	-3784
▁દેશ	-3785
வர்க	-3786
▁बन	-3787
▁સહ	-3788
వేశ	-3789
▁into	-3790
▁bl	-3791
▁मार	-3792
▁కి	-3793
▁ମୁ	-3794
ood	-3795
ವೇ	-3796
ଯ୍ୟ	-3797
ుకు	-3798
▁વ્ય	-3799
▁നിയ	-3800
ತರ	-3801
ഴ്	-3802
▁శ్రీ	-3803
ന്റ്	-3804
ദേശ	-3805
▁ব্যা	-3806
ob	-3807
ਬਰ	-3808
▁नस	-3809
▁കഴി	-3810
▁खिला	-3811
▁कुमार	-3812
▁ব্যব	-3813
▁ಪಕ್ಷ	-3814
▁कर्म	-3815
▁कह	-3816
▁తా	-3817
மே	-3818
కుండా	-3819
ರಿನ	-3820
पो	-3821
▁ट्र	-3822
ise	-3823
▁அல	-3824
મો	-3825
▁విష	-3826
▁ఉండ	-3827
▁হল	-3828
లతో	-3829
ோர்	-3830
▁जे	-3831
▁विश्	-3832
▁ਟ	-3833
▁અધ	-3834
li	-3835
ியை	-3836
▁ಕಾಂಗ್ರೆಸ್	-3837
تی	-3838
্যাল	-3839
േഖ	-3840
▁কর্ম	-3841
har	-3842
▁భా	-3843
indi	-3844
oint	-3845
▁வெளிய	-3846
िता	-3847
ુર	-3848
ത്യ	-3849
row	-3850
▁पास	-3851
▁ಮಾತನಾ	-3852
ائی	-3853
ெய	-3854
चं	-3855
▁ಮೇಲೆ	-3856
ற்றி	-3857
ുമായി	-3858
ன்ப	-3859
▁టీ	-3860
ುವುದ	-3861
▁చేసి	-3862
यर	-3863
ളം	-3864
ன்னை	-3865
નિ	-3866
াদের	-3867
▁ಕೈ	-3868
িক্ষ	-3869
▁बाज	-3870
లంగా	-3871
తులు	-3872
▁કોંગ્રે	-3873
▁அந்த	-3874
▁ص	-3875
ടിയ	-3876
ানো	-3877
▁அவர்	-3878
▁जिल्हा	-3879
ായിരുന്നു	-3880
▁ജന	-3881
ମା	-3882
▁ಮುಖ್ಯ	-3883
▁हुआ	-3884
ವಾರ	-3885
▁பொது	-3886
▁પી	-3887
మైన	-3888
ced	-3889
सह	-3890
▁bet	-3891
லு	-3892
▁imp	-3893
ಗಿ	-3894
▁চে	-3895
▁పార్టీ	-3896
ലീസ്	-3897
ath	-3898
تے	-3899
▁ഇന്ത്യ	-3900
चना	-3901
ಿಸಲು	-3902
▁लक्ष	-3903
▁હવે	-3904
▁நிறு	-3905
ાવી	-3906
न्हा	-3907
▁పాల్	-3908
▁bo	-3909
▁रु	-3910
▁अन्य	-3911
ರುತ್ತ	-3912
▁22	-3913
ழி	-3914
▁શક	-3915
ल्प	-3916
▁কোনও	-3917
▁just	-3918
ved	-3919
▁શા	-3920
▁ണ	-3921
ज्ञ	-3922
▁100	-3923
▁રહ્યા	-3924
▁അഭ	-3925
▁ટે	-3926
्यातील	-3927
▁మే	-3928
ઓને	-3929
cial	-3930
▁পড়	-3931
▁লা	-3932
ఎం	-3933
ಸ್ತ	-3934
ਰੇ	-3935
▁येत	-3936
ਿੰਦਰ	-3937
ert	-3938
▁ਯ	-3939
▁ਮੌ	-3940
ീയ	-3941
ருக்கு	-3942
கர்	-3943
മന്ത്രി	-3944
ೆಯನ್ನು	-3945
ेशन	-3946
▁ਲੋਕ	-3947
▁बढ़	-3948
ुक्त	-3949
வன	-3950
▁పోలీసు	-3951
க்கப்பட்டு	-3952
▁ప్రక	-3953
லில்	-3954
▁now	-3955
▁ਇਕ	-3956
▁മോ	-3957
▁લગ	-3958
vers	-3959
ದಲ	-3960
▁टीम	-3961
ജ്	-3962
ian	-3963
▁તેના	-3964
▁২০	-3965
▁મળી	-3966
▁म्हणून	-3967
▁આજે	-3968
▁ಸಚ	-3969
राव	-3970
ರ್ಥ	-3971
ంబ	-3972
তার	-3973
ಬಹ	-3974
র্ত	-3975
यार	-3976
▁చేసిన	-3977
▁nov	-3978
▁ಬೆಂಗಳ	-3979
▁டி	-3980
ட்டை	-3981
▁पड	-3982
▁શકે	-3983
▁ಮೂಲಕ	-3984
पर्यंत	-3985
ातून	-3986
ବାକୁ	-3987
▁चल	-3988
▁ஆகிய	-3989
▁समय	-3990
▁दिस	-3991
ਵਾਰ	-3992
▁only	-3993
▁ସଂ	-3994
▁येथील	-3995
▁ଅନ	-3996
▁പ്രവര്	-3997
नात	-3998
▁கடந்த	-3999
▁মানুষ	-4000
ത്സ	-4001
િલ	-4002
▁సిని	-4003
▁ര്	-4004
app	-4005
▁what	-4006
▁ସା	-4007
▁કર્યો	-4008
ਫ਼	-4009
▁ಐ	-4010
ंबर	-4011
ક્ટ	-4012
ating	-4013
▁येथे	-4014
▁கூற	-4015
▁জানিয়ে	-4016
▁இட	-4017
▁form	-4018
தால்	-4019
ਗੇ	-4020
क्ट	-4021
बाबत	-4022
ೆರ	-4023
ানের	-4024
▁my	-4025
ief	-4026
ম্ব	-4027
▁तरी	-4028
િકા	-4029
▁ய	-4030
ਇਆ	-4031
▁लिया	-4032
▁ష	-4033
িজ	-4034
ധാന	-4035
▁ಬೇ	-4036
ందర్	-4037
▁മെ	-4038
ول	-4039
ments	-4040
ിന്ന്	-4041
োধ	-4042
क्टर	-4043
ಕರಣ	-4044
▁ଜି	-4045
▁ਸਰਕਾਰ	-4046
வச	-4047
▁എസ്	-4048
▁বিশ্ব	-4049
പാ	-4050
క్కు	-4051
હેર	-4052
▁பட	-4053
▁असल्याचे	-4054
▁ਤਾਂ	-4055
ద్ధ	-4056
రాబాద్	-4057
▁پی	-4058
শি	-4059
▁sep	-4060
ಟಕ	-4061
▁आयोज	-4062
ப்பட	-4063
ட்டம்	-4064
▁cons	-4065
lud	-4066
ഭവ	-4067
ધાન	-4068
ಬಿ	-4069
াচ	-4070
ர்க்க	-4071
ଣି	-4072
▁अम	-4073
▁ಶಿ	-4074
▁ਪੰਜਾਬ	-4075
ివ	-4076
▁నీ	-4077
▁ಸ್ವ	-4078
ామని	-4079
▁ମି	-4080
▁ਧ	-4081
ണ്ണ	-4082
▁उनके	-4083
▁world	-4084
इन	-4085
தை	-4086
்த்த	-4087
▁ele	-4088
▁दौरान	-4089
ked	-4090
▁వర్	-4091
োন	-4092
aus	-4093
▁রাখ	-4094
ोन	-4095
▁કારણે	-4096
▁ପରି	-4097
▁তৃ	-4098
▁প্রশ	-4099
▁પાસે	-4100
ിനി	-4101
▁रोज	-4102
▁ਦੱਸ	-4103
ടതി	-4104
▁indian	-4105
▁இர	-4106
ન્દ્ર	-4107
ृत्	-4108
▁ਗਈ	-4109
ப்படும்	-4110
▁ಅಧ್ಯಕ್ಷ	-4111
▁చెంద	-4112
▁সাম	-4113
ఫ్	-4114
ிருந்த	-4115
ండు	-4116
യിച്ച	-4117
ర్చ	-4118
▁തന്നെ	-4119
▁ફિલ્	-4120
ted	-4121
سی	-4122
ುನಾವ	-4123
ക്കാ	-4124
मत	-4125
▁ಸಚಿವ	-4126
డే	-4127
ंनी	-4128
▁થઇ	-4129
▁വൈ	-4130
▁मुख्यमंत्री	-4131
▁রয়েছে	-4132
र्स	-4133
▁نہیں	-4134
વાનો	-4135
▁पुर	-4136
ory	-4137
▁ಪ್ರತಿ	-4138
als	-4139
ोध	-4140
ents	-4141
▁प्रय	-4142
▁पत्र	-4143
মন্ত্রী	-4144
ಗೊಂಡ	-4145
ors	-4146
ಳು	-4147
క్రమ	-4148
सान	-4149
റിയ	-4150
▁मिळा	-4151
ত্র	-4152
تا	-4153
करण	-4154
▁دی	-4155
▁ଉପ	-4156
▁पक्ष	-4157
▁થાય	-4158
▁यांना	-4159
आई	-4160
▁கல	-4161
▁ಒಂದು	-4162
ராம	-4163
াতা	-4164
▁ବିଜ	-4165
्ड	-4166
دی	-4167
cess	-4168
نگ	-4169
രും	-4170
▁முன்ன	-4171
ंच्या	-4172
പ്	-4173
▁కోసం	-4174
▁अग	-4175
▁than	-4176
स्थित	-4177
ণম	-4178
ಕರ್	-4179
ୀୟ	-4180
జి	-4181
▁ಮಾಡಿ	-4182
లం	-4183
ર્ણ	-4184
▁કરે	-4185
ting	-4186
.4	-4187
▁ମା	-4188
▁col	-4189
▁ആവ	-4190
urn	-4191
सभा	-4192
▁film	-4193
खी	-4194
aking	-4195
स्प	-4196
▁ज्या	-4197
ଳେ	-4198
ಷೇ	-4199
▁ಪು	-4200
▁പുറ	-4201
ங்கி	-4202
ഴ്ച	-4203
ଜି	-4204
▁ચો	-4205
ರಿದ	-4206
દે	-4207
▁ਜਾਂ	-4208
▁केल्या	-4209
യായിരുന്നു	-4210
ಿಸ್	-4211
ख्या	-4212
▁years	-4213
களில்	-4214
▁আগে	-4215
త్స	-4216
▁హైద	-4217
▁మె	-4218
▁പെ	-4219
▁સમા	-4220
ચા	-4221
▁एवं	-4222
ാക	-4223
▁ਅੱ	-4224
uc	-4225
▁ਦੋ	-4226
ില്ലാ	-4227
ਿਤ	-4228
▁કરોડ	-4229
किस्ता	-4230
ँग्रेस	-4231
पु	-4232
ष्ठ	-4233
▁ല്	-4234
▁केंद्र	-4235
ગે	-4236
থম	-4237
▁ಮನ	-4238
▁দেওয়া	-4239
మో	-4240
▁सद	-4241
ंचे	-4242
ಂಪ	-4243
▁वै	-4244
▁jun	-4245
▁ਸੁ	-4246
▁மருத்து	-4247
▁court	-4248
▁प्रशा	-4249
ડો	-4250
িব	-4251
▁विचार	-4252
▁சேர்ந்த	-4253
▁अध	-4254
ಿನಿ	-4255
ष्ट्रीय	-4256
ନି	-4257
▁ஈ	-4258
ార్థ	-4259
▁sing	-4260
▁ധ	-4261
▁మూ	-4262
த்திற	-4263
वात	-4264
▁मंत्री	-4265
स्थान	-4266
ged	-4267
▁भाजप	-4268
ರ್ಶ	-4269
▁भाजपा	-4270
▁સૌ	-4271
यक	-4272
ങ്ങളില്	-4273
▁किसी	-4274
▁এমন	-4275
▁தீ	-4276
ರಲ್ಲಿ	-4277
▁ਵੱਲ	-4278
தியில்	-4279
▁ear	-4280
▁বাং	-4281
▁ନିର୍	-4282
ನ್ಯ	-4283
▁আল	-4284
ങ്ങിയ	-4285
▁शाम	-4286
▁ഉപ	-4287
क्षण	-4288
దని	-4289
▁ಚುನಾವ	-4290
ಂಜ	-4291
▁विद्यार्थ	-4292
वक	-4293
▁അന	-4294
▁বিষ	-4295
ারের	-4296
▁আজ	-4297
▁फिर	-4298
▁mat	-4299
ள்ளனர்	-4300
▁சொ	-4301
ಸೆ	-4302
▁ತಮ್ಮ	-4303
ഖ്യ	-4304
శ్	-4305
ந்தி	-4306
▁सभी	-4307
રફ	-4308
▁ph	-4309
ರಣ	-4310
രള	-4311
ਾਰੀ	-4312
कीय	-4313
▁त्यांना	-4314
▁ఎం	-4315
▁യാ	-4316
વારે	-4317
▁આપી	-4318
▁निर्माण	-4319
▁गर	-4320
ದುಕ	-4321
▁ପୁ	-4322
▁নিজ	-4323
ons	-4324
▁*	-4325
बाद	-4326
ள்ளி	-4327
ক্র	-4328
▁ప్రజ	-4329
▁કોંગ્રેસ	-4330
ുണ്ട	-4331
▁നിന്ന്	-4332
▁اپ	-4333
▁తెలు	-4334
▁இருந்து	-4335
തല്	-4336
▁ବେ	-4337
▁ന്ന്	-4338
▁rem	-4339
▁तरह	-4340
ಲಿದೆ	-4341
▁should	-4342
ங்களை	-4343
యంలో	-4344
सना	-4345
▁सांगितले	-4346
ীব	-4347
மைய	-4348
▁ഐ	-4349
▁जर	-4350
ited	-4351
ధాన	-4352
▁ત્ર	-4353
ிலும்	-4354
ંગે	-4355
▁dire	-4356
ത്രി	-4357
ಿವೆ	-4358
ਨਾਂ	-4359
▁રીતે	-4360
▁योजना	-4361
▁ter	-4362
ward	-4363
▁your	-4364
োষ	-4365
▁तथा	-4366
▁ફર	-4367
▁கை	-4368
▁पार्टी	-4369
▁తెలంగా	-4370
র্থ	-4371
▁నగ	-4372
▁তৃণম	-4373
टील	-4374
ues	-4375
▁હે	-4376
▁సినిమా	-4377
▁আই	-4378
▁உள்ளது	-4379
▁उन्हें	-4380
ટલા	-4381
▁అయి	-4382
▁med	-4383
▁તેની	-4384
గిన	-4385
▁जग	-4386
rest	-4387
িং	-4388
ંટણી	-4389
▁23	-4390
ਤਰੀ	-4391
▁being	-4392
▁ಕೇಂದ್ರ	-4393
वत	-4394
▁ಕಾಲ	-4395
ണ്ടി	-4396
▁పూర్	-4397
▁ખે	-4398
▁ലഭ	-4399
▁चित्र	-4400
▁high	-4401
▁डि	-4402
▁country	-4403
▁హైదరాబాద్	-4404
▁পারে	-4405
▁પહેલા	-4406
▁apr	-4407
▁இருந்த	-4408
▁করার	-4409
▁વાત	-4410
లోని	-4411
ased	-4412
▁अशा	-4413
▁compan	-4414
్యూ	-4415
▁తీసుకు	-4416
ాని	-4417
▁নয়	-4418
ভাবে	-4419
▁यात	-4420
▁ಈಗ	-4421
ಎಂ	-4422
▁स्वा	-4423
▁ਜਾਣ	-4424
டுக்க	-4425
▁வரு	-4426
▁ಉತ್ತ	-4427
దీ	-4428
50	-4429
ोड़	-4430
▁ସହ	-4431
fore	-4432
શા	-4433
ପି	-4434
▁feb	-4435
▁वी	-4436
लि	-4437
రిక	-4438
ীদের	-4439
▁काँग्रेस	-4440
▁৩	-4441
▁द्वारा	-4442
स्य	-4443
▁झाल्या	-4444
▁ನಾಯ	-4445
india	-4446
વર	-4447
ांचा	-4448
ମି	-4449
வடி	-4450
▁पाकिस्ता	-4451
বাদ	-4452
गाव	-4453
പു	-4454
▁ସମ୍	-4455
▁कार्या	-4456
வில்லை	-4457
▁team	-4458
▁40	-4459
मार्	-4460
▁முடி	-4461
പ്പെടു	-4462
ण्याचा	-4463
ell	-4464
▁কল	-4465
ेंगे	-4466
ుడు	-4467
▁bank	-4468
યું	-4469
▁निर्णय	-4470
തിരെ	-4471
प्त	-4472
▁दिले	-4473
▁delhi	-4474
ٹر	-4475
▁back	-4476
▁घा	-4477
▁తెలంగాణ	-4478
స్తే	-4479
▁बां	-4480
▁ಕಾರಣ	-4481
▁par	-4482
ੂਰ	-4483
▁पाणी	-4484
▁president	-4485
▁ಅನ	-4486
सो	-4487
ୋକ	-4488
சிய	-4489
▁রে	-4490
▁అని	-4491
▁ଏକ	-4492
▁होणार	-4493
▁എന്നാല്	-4494
▁শু	-4495
▁ಅನು	-4496
▁তাদের	-4497
▁ચૂંટણી	-4498
▁જ્યારે	-4499
▁dem	-4500
ಿನಲ್ಲಿ	-4501
ેશન	-4502
ଶା	-4503
▁even	-4504
▁ನಗರ	-4505
▁मामले	-4506
▁invest	-4507
▁ನಡೆಯ	-4508
ించింది	-4509
▁शुरू	-4510
amil	-4511
▁ରହି	-4512
▁ನಡೆದ	-4513
▁ਸਨ	-4514
▁হচ্ছে	-4515
మీ	-4516
▁ସୁ	-4517
சார	-4518
▁म्हणा	-4519
त्ता	-4520
ೋಪ	-4521
व्हा	-4522
▁चि	-4523
▁வர	-4524
▁જણાવ્યું	-4525
▁அப்ப	-4526
▁पे	-4527
▁ಗ್ರಾಮ	-4528
lic	-4529
air	-4530
▁அனு	-4531
ോര്	-4532
▁includ	-4533
्स	-4534
▁ട്ര	-4535
પાસ	-4536
▁తో	-4537
▁ആവശ്യ	-4538
▁iss	-4539
તર	-4540
نی	-4541
▁dep	-4542
જુ	-4543
रण	-4544
▁26	-4545
▁પછી	-4546
▁জে	-4547
ড়া	-4548
ச்சி	-4549
▁याद	-4550
▁தன	-4551
ரண	-4552
▁அளி	-4553
▁cap	-4554
ോട്	-4555
▁सुरु	-4556
ભાઈ	-4557
্ভ	-4558
▁ഥ	-4559
ത്വ	-4560
૦૦	-4561
▁संबंध	-4562
સર	-4563
▁చిత్ర	-4564
ਭਾ	-4565
ಾಪ	-4566
वासी	-4567
▁दिला	-4568
▁അറി	-4569
▁మంది	-4570
▁কারণ	-4571
ೀವ	-4572
▁kn	-4573
▁ڈ	-4574
▁28	-4575
▁দাব	-4576
▁বার	-4577
ਮਾ	-4578
્ષ	-4579
ளும்	-4580
പ്പോള്	-4581
.3	-4582
▁மாநில	-4583
▁పొ	-4584
▁vis	-4585
esh	-4586
▁ke	-4587
▁काढ	-4588
ખા	-4589
▁રિ	-4590
ুলে	-4591
த்தார்	-4592
▁സഹ	-4593
த்துக்கு	-4594
▁५	-4595
▁બનાવ	-4596
ెడ్డి	-4597
▁कमी	-4598
▁অনে	-4599
એસ	-4600
▁நடி	-4601
▁कार्यक्रम	-4602
▁స్ట	-4603
भाव	-4604
ନ୍ଦ୍ର	-4605
യ്ക്ക	-4606
ധിക	-4607
▁स्थान	-4608
▁চাল	-4609
▁मां	-4610
▁chief	-4611
ృష్	-4612
▁চল	-4613
ટના	-4614
િન	-4615
ક્ર	-4616
▁গে	-4617
மன்ற	-4618
ूद	-4619
ಾಟ	-4620
ക്രമ	-4621
▁ଧ	-4622
ପା	-4623
▁ಹಿಂದ	-4624
ரோ	-4625
▁കണ്ട	-4626
▁પાણી	-4627
▁தேர்த	-4628
▁sm	-4629
ર્સ	-4630
▁thr	-4631
ચાર	-4632
খানে	-4633
ଳା	-4634
▁three	-4635
oup	-4636
കാ	-4637
▁नागर	-4638
▁નહીં	-4639
ংশ	-4640
▁ಬಿಜೆಪಿ	-4641
▁அலுவ	-4642
▁દિવસ	-4643
▁ਜਿਸ	-4644
െട	-4645
reat	-4646
▁day	-4647
▁ವಿದ್ಯ	-4648
ন্ত্র	-4649
▁సె	-4650
▁ಸ್ಪ	-4651
ப்படுக	-4652
ওয়	-4653
▁?	-4654
न्द	-4655
▁গত	-4656
▁ਕੰ	-4657
--	-4658
▁మో	-4659
▁ગયા	-4660
▁रात	-4661
▁విజ	-4662
ிறார்	-4663
▁ಉಪ	-4664
ft	-4665
▁திட்ட	-4666
get	-4667
▁पर्	-4668
▁fl	-4669
ಡುವ	-4670
െങ്ക	-4671
▁बहु	-4672
पट	-4673
ek	-4674
ಮಿ	-4675
▁party	-4676
প্ত	-4677
▁ಜಿಲ್ಲಾ	-4678
▁ವಿರು	-4679
▁कृ	-4680
▁कंपनी	-4681
اری	-4682
மார்	-4683
▁होगा	-4684
▁টাকা	-4685
્સ	-4686
▁మంత్రి	-4687
फा	-4688
▁ਰਹੇ	-4689
▁ز	-4690
தம்	-4691
▁ಹು	-4692
▁తమ	-4693
▁made	-4694
भर	-4695
▁చెందిన	-4696
▁महारा	-4697
▁here	-4698
ied	-4699
▁during	-4700
▁হাস	-4701
وم	-4702
▁प्रत्य	-4703
▁কাছে	-4704
മാര്	-4705
शेष	-4706
गार	-4707
▁मद	-4708
ટર	-4709
▁start	-4710
▁ಕೂಡ	-4711
চে	-4712
हित	-4713
▁சென்னை	-4714
ழ்	-4715
▁സംസ്ഥാന	-4716
ંત્રી	-4717
ানা	-4718
cy	-4719
▁ent	-4720
ുകയും	-4721
ಗಾಗಿ	-4722
▁ਰਹੀ	-4723
▁وہ	-4724
▁രണ്ട	-4725
ਅਦ	-4726
▁పై	-4727
▁need	-4728
▁rel	-4729
ices	-4730
▁गांव	-4731
▁ફો	-4732
▁વર	-4733
▁des	-4734
ట్టి	-4735
▁these	-4736
मो	-4737
▁তো	-4738
▁లక్ష	-4739
▁खास	-4740
▁व्	-4741
▁ತಿ	-4742
▁ବୋଲି	-4743
▁న్య	-4744
ಶ್ವ	-4745
▁પહો	-4746
▁কেন্দ	-4747
▁ਕੁ	-4748
▁দল	-4749
ढे	-4750
▁बोल	-4751
▁ਵੱਲੋਂ	-4752
ঞ্জ	-4753
▁ఏర్పాటు	-4754
గ్ర	-4755
▁inst	-4756
velop	-4757
.)	-4758
▁ಮತ್ತ	-4759
con	-4760
▁గ్రామ	-4761
ಡಿದ	-4762
ital	-4763
દાવાદ	-4764
▁ਪਹਿਲ	-4765
▁पूर्व	-4766
▁শেষ	-4767
▁ડિ	-4768
istan	-4769
ଦି	-4770
టిక	-4771
لہ	-4772
▁प्रकार	-4773
▁विरोध	-4774
▁જવા	-4775
தும்	-4776
▁મોદી	-4777
▁മല	-4778
▁27	-4779
द्द	-4780
एको	-4781
▁car	-4782
ਸੇ	-4783
దర్శ	-4784
ಕ್ರಮ	-4785
ুদ্ধে	-4786
▁બેઠ	-4787
▁ಸೂ	-4788
▁കഴിഞ്ഞ	-4789
▁ചിത്ര	-4790
▁पाल	-4791
ദ്ദേഹ	-4792
എം	-4793
▁தலைவர்	-4794
▁प्रधान	-4795
र्ड	-4796
▁ટકા	-4797
▁ಹೊರ	-4798
▁দেখা	-4799
ଟ୍	-4800
ੰਧ	-4801
▁ಮೋ	-4802
रु	-4803
तिक	-4804
▁కార్	-4805
▁2014	-4806
amm	-4807
ന്റ	-4808
ಿಯನ್ನು	-4809
▁రి	-4810
▁കേരള	-4811
▁অন্য	-4812
▁તેઓ	-4813
▁करत	-4814
ଞ୍ଚ	-4815
▁४	-4816
▁ഇട	-4817
ദ്യാ	-4818
▁બહ	-4819
▁प्रे	-4820
▁କହି	-4821
▁ഡ്	-4822
▁વિસ્ત	-4823
▁કરતા	-4824
▁ଦେଇ	-4825
▁સુર	-4826
బంధ	-4827
▁പ്രസി	-4828
▁କାର୍	-4829
▁नी	-4830
▁असलेल्या	-4831
▁தேதி	-4832
▁తి	-4833
ாமல்	-4834
ியல்	-4835
▁well	-4836
▁ജീ	-4837
িড	-4838
▁૩	-4839
▁ಪಡೆ	-4840
विध	-4841
▁సభ	-4842
ಾಲ್	-4843
▁ভোট	-4844
▁सात	-4845
▁సర్	-4846
▁மருத்துவ	-4847
ेक	-4848
മേ	-4849
▁dist	-4850
▁દરમ	-4851
▁అంత	-4852
ગ્ર	-4853
▁sub	-4854
੍ਰੀ	-4855
▁ಇಲ್ಲ	-4856
▁पाटील	-4857
oy	-4858
ଦ୍ଧ	-4859
ડે	-4860
▁దేశ	-4861
▁തുടര്	-4862
ட்சிய	-4863
▁પે	-4864
ಯ್ಯ	-4865
▁official	-4866
▁टक्	-4867
▁ગો	-4868
ha	-4869
▁সহ	-4870
ings	-4871
▁அனை	-4872
▁వ్యా	-4873
▁bu	-4874
▁వ్యక్	-4875
▁कोटी	-4876
ised	-4877
ാരം	-4878
କ୍ତ	-4879
▁উত্ত	-4880
ਥੇ	-4881
त्री	-4882
▁بی	-4883
▁ಎರ	-4884
▁ਪੁਲ	-4885
▁ಹಾಕ	-4886
▁could	-4887
▁नागरिक	-4888
▁ben	-4889
▁ബന്ധ	-4890
gress	-4891
▁బీ	-4892
▁જેમાં	-4893
▁വിജ	-4894
▁develop	-4895
201	-4896
ંપની	-4897
▁కల	-4898
દાર	-4899
▁হলে	-4900
ियो	-4901
▁રૂપ	-4902
▁તેને	-4903
▁ജി	-4904
▁ଭା	-4905
▁ભાવ	-4906
▁పాల్గొ	-4907
▁അന്	-4908
िट	-4909
▁प्रश्	-4910
ಾರ್ಥ	-4911
গ্র	-4912
▁set	-4913
▁তাই	-4914
▁இருக்க	-4915
ോള്	-4916
ುಂಬ	-4917
▁మి	-4918
ঠে	-4919
▁तै	-4920
▁ली	-4921
▁ടി	-4922
hes	-4923
▁ಸೆ	-4924
▁ভাল	-4925
ગા	-4926
ांचे	-4927
ict	-4928
▁ਗੁਰ	-4929
જન	-4930
▁લાખ	-4931
▁পুর	-4932
▁दाखल	-4933
▁અમે	-4934
टने	-4935
▁अंत	-4936
▁ముఖ్య	-4937
▁ವಿರುದ್ಧ	-4938
াড়া	-4939
ప్పుడు	-4940
ംഗ്	-4941
ിച്ചത്	-4942
శాల	-4943
मिक	-4944
▁डी	-4945
▁மோ	-4946
▁নির্ব	-4947
▁उपस्थित	-4948
▁सम्	-4949
ower	-4950
▁यहां	-4951
▁తర	-4952
▁నాయ	-4953
మార్	-4954
തിന്	-4955
ంలోని	-4956
▁పి	-4957
▁ಅಧಿಕಾರಿ	-4958
▁ફિલ્મ	-4959
▁স্থ	-4960
वले	-4961
▁इंड	-4962
ಲ್ಲೂ	-4963
▁ಹೋ	-4964
▁અંગે	-4965
ंस	-4966
ரிக்க	-4967
சு	-4968
▁where	-4969
હિ	-4970
▁आठ	-4971
ುದ್ದ	-4972
ಮೆ	-4973
▁mu	-4974
▁ਬਾਅਦ	-4975
ತನ	-4976
াট	-4977
▁जानकारी	-4978
▁મી	-4979
▁विशेष	-4980
ത്തിലെ	-4981
ிக்	-4982
▁பின்	-4983
▁ವೈ	-4984
▁पहि	-4985
க்கம்	-4986
▁നടത്ത	-4987
▁অনেক	-4988
ବଂ	-4989
▁કંપની	-4990
▁પટે	-4991
▁நக	-4992
▁सच	-4993
ਾਰੇ	-4994
▁সো	-4995
▁dr	-4996
സില്	-4997
आर	-4998
▁ಸದ	-4999
েস	-5000
ೊಂದಿಗೆ	-5001
▁રાજ્ય	-5002
▁અમદાવાદ	-5003
േര്	-5004
▁ପରେ	-5005
ക്ഷേ	-5006
െന്നാണ്	-5007
ತ್ವ	-5008
▁നീ	-5009
▁സ്റ്റ	-5010
▁மேலும்	-5011
்சி	-5012
യുള്ള	-5013
▁বিরুদ্ধে	-5014
ause	-5015
▁कांग	-5016
▁योग	-5017
▁bus	-5018
▁உள்ளிட்ட	-5019
▁అన	-5020
▁नेता	-5021
मेर	-5022
িকা	-5023
ੋਰ	-5024
టన	-5025
ષ્	-5026
▁நடவடி	-5027
ಗೊಳ	-5028
▁most	-5029
க்கிய	-5030
▁pers	-5031
ટો	-5032
லாம்	-5033
▁जिल्ह	-5034
ಟನೆ	-5035
▁మరో	-5036
▁prov	-5037
▁జా	-5038
▁આવ્યો	-5039
వాత	-5040
▁రోజు	-5041
▁मुला	-5042
▁દુ	-5043
కపో	-5044
▁କରାଯାଇ	-5045
▁യി	-5046
▁महत्	-5047
▁ସର	-5048
▁দিল	-5049
▁కలి	-5050
▁ଏବଂ	-5051
illion	-5052
र्फ	-5053
▁before	-5054
▁উদ	-5055
▁వారి	-5056
▁જાણ	-5057
ദി	-5058
▁such	-5059
▁జీ	-5060
▁આવ્યા	-5061
ত্	-5062
▁यावेळी	-5063
▁ଅଧ	-5064
▁बीच	-5065
▁ठर	-5066
▁அருக	-5067
ছি	-5068
लत	-5069
ಿಸಿದೆ	-5070
▁ନେଇ	-5071
▁বৃ	-5072
▁ଚା	-5073
▁भूम	-5074
ंदा	-5075
্চ	-5076
▁କୁ	-5077
▁ਮਿਲ	-5078
▁take	-5079
തൃ	-5080
▁look	-5081
▁کہا	-5082
▁പരാ	-5083
▁প্রধান	-5084
જબ	-5085
▁মৃত	-5086
▁31	-5087
▁ప్రత్య	-5088
▁மணி	-5089
▁പാര്	-5090
▁ताल	-5091
▁ದೇಶ	-5092
ராஜ	-5093
ಕರು	-5094
▁ക്കാ	-5095
▁ची	-5096
గే	-5097
வின்	-5098
വേഷ	-5099
▁व्यक्	-5100
స్య	-5101
യ്ക്ക്	-5102
▁कोण	-5103
hip	-5104
దల	-5105
િયાન	-5106
ವಹ	-5107
▁ప్రాంత	-5108
▁മാത്ര	-5109
▁நீதி	-5110
gr	-5111
▁পর্য	-5112
্রেস	-5113
▁दोनों	-5114
▁പറയ	-5115
ക്ട	-5116
േറ്റ	-5117
▁ಸೋ	-5118
▁ஹ	-5119
▁produ	-5120
▁धा	-5121
ന്നു	-5122
લમાં	-5123
▁ନା	-5124
▁రెడ్డి	-5125
തിയ	-5126
▁అధికారులు	-5127
▁येणार	-5128
xt	-5129
▁ਲੈ	-5130
സ്റ്റ്	-5131
ंदी	-5132
ಸಭ	-5133
▁घोष	-5134
▁gu	-5135
▁खिलाफ	-5136
লেন	-5137
▁2017	-5138
▁market	-5139
িকার	-5140
चित	-5141
ata	-5142
বা	-5143
▁അദ്ദേഹ	-5144
▁విద్యార్థ	-5145
ేక	-5146
వ్వ	-5147
▁கட்ட	-5148
ಗಾರ	-5149
▁હાલ	-5150
▁கொண்டு	-5151
▁കുറ	-5152
യായ	-5153
ਕੀ	-5154
▁ಸರ	-5155
▁ਦੀਆਂ	-5156
▁cro	-5157
▁સર્	-5158
▁sy	-5159
▁சில	-5160
സാ	-5161
ढा	-5162
▁આરો	-5163
▁str	-5164
ীন	-5165
ంపు	-5166
▁বছর	-5167
▁स्प	-5168
▁বাস	-5169
▁ਦਿੱਤਾ	-5170
▁hel	-5171
सम	-5172
મિ	-5173
▁கண	-5174
▁z	-5175
ராக	-5176
▁நேற்று	-5177
मधील	-5178
ਵਾਂ	-5179
▁প্রথম	-5180
▁കേന്ദ്ര	-5181
▁फै	-5182
ంక	-5183
ुकी	-5184
त्म	-5185
▁सां	-5186
▁ఇచ్చ	-5187
ಕ್ಷಣ	-5188
ಂದಿ	-5189
▁ಸಂಬ	-5190
▁month	-5191
ার্থ	-5192
ത്തിന	-5193
▁mem	-5194
▁che	-5195
ந்	-5196
▁आव	-5197
▁through	-5198
▁மத்திய	-5199
ிருக்க	-5200
▁પહોંચ	-5201
ങ്ങളും	-5202
▁মার	-5203
ಾಯಿ	-5204
▁তৈ	-5205
కూ	-5206
ર્ડ	-5207
हो	-5208
कु	-5209
▁स्थित	-5210
لم	-5211
▁அதிகா	-5212
ନ୍ୟ	-5213
▁மக்கள்	-5214
▁जिला	-5215
▁നിയമ	-5216
ಬಹುದು	-5217
म्यान	-5218
▁అయితే	-5219
ವಾಗಿದೆ	-5220
ামী	-5221
▁ಕ್ಷೇ	-5222
ബി	-5223
▁నెల	-5224
ୂର୍	-5225
ହୁ	-5226
▁হতে	-5227
एं	-5228
▁bec	-5229
▁പ്രസിഡ	-5230
ியாக	-5231
▁ನೇ	-5232
ত্য	-5233
▁दूस	-5234
દ્ધ	-5235
ংগ	-5236
▁ছবি	-5237
▁ஆனால்	-5238
▁ଏହା	-5239
▁देण्यात	-5240
▁ലോ	-5241
డుతూ	-5242
).	-5243
ோம்	-5244
મુ	-5245
ਾਲੀ	-5246
భా	-5247
▁serv	-5248
▁செயல	-5249
▁ev	-5250
କ୍ର	-5251
▁stud	-5252
ങ്ങി	-5253
ૂર	-5254
▁ଜଣ	-5255
ਿੰਗ	-5256
ೊಂದು	-5257
▁चुनाव	-5258
▁ধর	-5259
▁पार	-5260
രഞ്ഞ	-5261
ince	-5262
▁શરૂ	-5263
యిన	-5264
▁ಮೈ	-5265
▁ಹೊಸ	-5266
.6	-5267
▁ക്കാര്	-5268
ంటూ	-5269
▁स्क	-5270
▁अभि	-5271
▁ಎಸ್	-5272
▁परिष	-5273
ક્સ	-5274
▁ಯೋಜ	-5275
▁इं	-5276
ੈਕ	-5277
arm	-5278
▁કહે	-5279
oth	-5280
স্থা	-5281
▁مو	-5282
▁pub	-5283
▁national	-5284
િલ્લા	-5285
▁வரும்	-5286
யில்	-5287
▁make	-5288
▁భూ	-5289
▁અધિક	-5290
ild	-5291
▁ద్వ	-5292
▁নেই	-5293
▁আরও	-5294
umb	-5295
ாது	-5296
▁తీసు	-5297
▁ಕ್ಷೇತ್ರ	-5298
▁পড়ে	-5299
▁பதி	-5300
▁సో	-5301
▁la	-5302
▁લઈ	-5303
▁सहा	-5304
ever	-5305
▁స్ప	-5306
मेद	-5307
▁ಸಾವ	-5308
ક્ષા	-5309
থে	-5310
▁రెండు	-5311
ণ্ড	-5312
▁gen	-5313
▁കൈ	-5314
▁ਹਰ	-5315
வசாய	-5316
ణం	-5317
డానికి	-5318
ਧਾਨ	-5319
▁করেছে	-5320
▁कांग्रेस	-5321
નગર	-5322
▁পরে	-5323
▁খবর	-5324
▁ആശ	-5325
ಕ್ರ	-5326
▁मोठ	-5327
▁ಡಿ	-5328
les	-5329
▁તેમણે	-5330
भार	-5331
▁ঠ	-5332
জ্	-5333
ର୍ଷ	-5334
ர்வு	-5335
ర్కొ	-5336
und	-5337
▁અભ	-5338
▁എന്	-5339
ାତ୍ର	-5340
pect	-5341
▁এলাক	-5342
કિ	-5343
▁ಹೋಗ	-5344
▁ई	-5345
▁ക്കു	-5346
ಗಳಿಂದ	-5347
ution	-5348
ya	-5349
rib	-5350
ിപ്പ	-5351
▁సమావేశ	-5352
▁चर्चा	-5353
لے	-5354
▁समिती	-5355
▁বাংলা	-5356
▁పని	-5357
ട്ട്	-5358
ರೆಗೆ	-5359
▁परिस	-5360
▁തോ	-5361
ಮಾಣ	-5362
▁ਜੋ	-5363
▁वर	-5364
স্য	-5365
▁भे	-5366
▁मंड	-5367
▁ਅੰ	-5368
▁ਵਾ	-5369
ലം	-5370
▁വിദ്യാ	-5371
▁ઉત્	-5372
িন্দ	-5373
▁मागणी	-5374
▁29	-5375
षी	-5376
ાઈ	-5377
▁wom	-5378
▁समाज	-5379
▁बॉ	-5380
ଯୋଗ	-5381
ರಾಜ	-5382
eral	-5383
ಾಗುತ್ತದೆ	-5384
ಾನು	-5385
▁ਨਾ	-5386
▁पाठ	-5387
▁यादव	-5388
▁गिर	-5389
▁ನಮ್ಮ	-5390
▁ഉണ്ട	-5391
▁જુ	-5392
▁અનુ	-5393
▁বিজেপি	-5394
ताल	-5395
▁cor	-5396
விட்ட	-5397
फ्	-5398
▁മുഖ്യ	-5399
▁ଛ	-5400
▁मंग	-5401
▁ಕೆಲಸ	-5402
స్ట	-5403
രീ	-5404
▁every	-5405
▁ਆਪਣੇ	-5406
▁బి	-5407
▁বু	-5408
सु	-5409
▁शिवसे	-5410
▁మాత్ర	-5411
୍ରେ	-5412
▁விவசாய	-5413
ਨੇ	-5414
▁meet	-5415
▁ಶಾಸ	-5416
▁दर्ज	-5417
▁குறித்து	-5418
▁जारी	-5419
▁ਭਾਰ	-5420
▁ಮಾಡುತ್ತ	-5421
▁యా	-5422
ink	-5423
ত্রে	-5424
शत	-5425
.7	-5426
्यांनी	-5427
▁ગાં	-5428
▁મુખ	-5429
நி	-5430
▁call	-5431
▁ಕರ್	-5432
▁തിരു	-5433
▁ಶ್ರೀ	-5434
iew	-5435
▁pak	-5436
▁தொழ	-5437
ದೇ	-5438
രഞ്ഞെടു	-5439
ूत	-5440
▁নির্বাচ	-5441
▁intern	-5442
ೀರ್	-5443
ಷ್ಟ್ರ	-5444
ick	-5445
▁ಬಹ	-5446
▁चे	-5447
▁माल	-5448
▁તથા	-5449
▁ਰਿਹਾ	-5450
▁ಬೆಂಗಳೂರು	-5451
ಫ್	-5452
ந்திர	-5453
▁प्रमुख	-5454
ಕಿ	-5455
స్తూ	-5456
వ్	-5457
▁ed	-5458
▁দাবি	-5459
▁air	-5460
ਬਾ	-5461
▁স্ট	-5462
▁sur	-5463
▁जै	-5464
த்திற்கு	-5465
▁पाकिस्तान	-5466
▁आदेश	-5467
▁बैठक	-5468
▁ക്കും	-5469
▁பிற	-5470
ಾಂ	-5471
ಲಾಖ	-5472
▁post	-5473
ಾಲಯ	-5474
▁good	-5475
ುದೇ	-5476
▁उत्तर	-5477
▁rep	-5478
other	-5479
ജെ	-5480
क्षक	-5481
▁മുന്ന	-5482
ட்ப	-5483
▁முடிய	-5484
▁न्यायालया	-5485
▁रख	-5486
▁મિ	-5487
▁जांच	-5488
ूट	-5489
▁مس	-5490
-2	-5491
ନ୍ତ୍ରୀ	-5492
ife	-5493
ମାନେ	-5494
്യാപ	-5495
▁परी	-5496
ग्र	-5497
▁दर्	-5498
▁જિલ્લા	-5499
▁say	-5500
▁நிர்	-5501
▁ದೇವ	-5502
ಮಾರ್	-5503
▁போரா	-5504
ଖି	-5505
કર	-5506
▁అన్నారు	-5507
ിയും	-5508
డ్డ	-5509
▁पूर्ण	-5510
▁ਸਾਲ	-5511
▁want	-5512
▁ال	-5513
িসে	-5514
▁تھا	-5515
হার	-5516
▁করেছেন	-5517
ానికి	-5518
▁సూ	-5519
▁अधिकार	-5520
राम	-5521
▁ସି	-5522
ful	-5523
ങ്ങളുടെ	-5524
જો	-5525
▁/	-5526
ଥାନ	-5527
తున్నారు	-5528
ட்டில்	-5529
▁ಕಳೆ	-5530
its	-5531
ழா	-5532
▁many	-5533
▁चाल	-5534
ਜੇ	-5535
ject	-5536
▁দুই	-5537
▁സംഭവ	-5538
ೇವೆ	-5539
त्न	-5540
രണം	-5541
য়েক	-5542
▁వరకు	-5543
াজার	-5544
▁आरोपी	-5545
▁అధ్య	-5546
ાલુ	-5547
▁તેમજ	-5548
ಗು	-5549
▁lo	-5550
तीने	-5551
▁end	-5552
ర్యా	-5553
र्मा	-5554
യോഗ	-5555
ேன்	-5556
▁ಪ್ರಕರಣ	-5557
▁ବ୍ୟ	-5558
▁ದಾಖ	-5559
▁મહિલા	-5560
▁show	-5561
▁ઉપર	-5562
જાર	-5563
న్స్	-5564
ೀರ	-5565
ূর	-5566
▁नर	-5567
▁તરફ	-5568
▁सदस्य	-5569
ழமை	-5570
▁cur	-5571
wn	-5572
▁సందర్	-5573
▁પોતાના	-5574
▁help	-5575
▁ది	-5576
ર્મ	-5577
▁ਨਿ	-5578
▁today	-5579
ল্প	-5580
றைய	-5581
ಸರು	-5582
▁ಇಲಾಖ	-5583
▁નામ	-5584
▁કરીને	-5585
▁ಪರ	-5586
انی	-5587
▁ਇੱਕ	-5588
ക്കും	-5589
▁ਕਮ	-5590
▁బ్యా	-5591
ax	-5592
▁(3	-5593
ல்ப	-5594
▁తొ	-5595
▁उपल	-5596
▁ঝ	-5597
▁శాఖ	-5598
ಷ್ಠ	-5599
लग	-5600
ix	-5601
पूर्ण	-5602
▁చేప	-5603
ിക്കാന്	-5604
▁गेल्या	-5605
യൂ	-5606
▁చేసుకు	-5607
ঁচ	-5608
▁ಸಾಧ್ಯ	-5609
▁పాటు	-5610
led	-5611
عد	-5612
ేషన్	-5613
▁ଅନୁ	-5614
▁ਮੰਤਰੀ	-5615
িন্ন	-5616
▁ಅಂತ	-5617
કારી	-5618
▁बाजार	-5619
▁करना	-5620
▁കോണ്	-5621
ving	-5622
കെ	-5623
▁ग्राम	-5624
▁ಬೆಳ	-5625
▁କରିଥିଲେ	-5626
ಿಸಿದ್ದ	-5627
▁sen	-5628
யா	-5629
▁பூ	-5630
ब्ध	-5631
▁ప్రభుత్వ	-5632
િંહ	-5633
र्च	-5634
▁গো	-5635
▁റോ	-5636
ణి	-5637
ുകയായിരുന്നു	-5638
▁निका	-5639
رو	-5640
▁సంఘ	-5641
▁മന്ത്രി	-5642
ళ్లు	-5643
ਕਰ	-5644
▁জানা	-5645
▁उसके	-5646
از	-5647
▁नवी	-5648
▁ಭಾಗ	-5649
ters	-5650
▁அடி	-5651
▁এসে	-5652
▁જોવા	-5653
▁చంద్ర	-5654
▁இதனால்	-5655
નાર	-5656
▁കുട്ട	-5657
રુ	-5658
▁वाली	-5659
જના	-5660
ತಾ	-5661
▁জানান	-5662
▁ಕಿ	-5663
கவ	-5664
▁अह	-5665
▁அதிகாரி	-5666
▁ଡ	-5667
▁ലക്ഷ	-5668
ിച്ചി	-5669
▁அறிவி	-5670
▁ನಂತರ	-5671
वल	-5672
ाते	-5673
▁trans	-5674
ட்க	-5675
▁def	-5676
▁विधान	-5677
ెంట్	-5678
▁நெ	-5679
▁അഭി	-5680
▁ઠ	-5681
म्ही	-5682
▁ଇ	-5683
▁किं	-5684
▁சார்	-5685
▁ద్వారా	-5686
▁ദിവ	-5687
▁যদি	-5688
▁ആര്	-5689
▁മുന്	-5690
▁ਦੱਸਿਆ	-5691
▁વિક	-5692
.30	-5693
▁व्यक्त	-5694
वरील	-5695
কাশ	-5696
ange	-5697
ેલ	-5698
▁அமைச்ச	-5699
ચ્ચે	-5700
▁ପ୍ରତି	-5701
ंगे	-5702
▁ఉద్య	-5703
्यांना	-5704
પર	-5705
েন্ট	-5706
▁eng	-5707
▁অস	-5708
▁ನೆ	-5709
ளாக	-5710
▁ఘ	-5711
കൂ	-5712
▁செல்ல	-5713
ীরা	-5714
डक	-5715
ব্য	-5716
▁ret	-5717
ப்பட்டது	-5718
▁म्हणजे	-5719
▁تو	-5720
▁മേ	-5721
▁बांध	-5722
▁गरे	-5723
▁তিন	-5724
খে	-5725
▁తే	-5726
▁ಓ	-5727
▁ಸಂಬಂಧ	-5728
ર્વ	-5729
ୁବ	-5730
gan	-5731
સ્થ	-5732
ೃಷ	-5733
न्द्र	-5734
தவி	-5735
ility	-5736
▁আদ	-5737
▁நிறுவன	-5738
ார்த்த	-5739
িপ	-5740
తలు	-5741
▁બાળ	-5742
▁પગ	-5743
▁उनकी	-5744
▁ସରକାର	-5745
पोर्ट	-5746
ിയെ	-5747
ਸਾ	-5748
▁ਗਏ	-5749
▁win	-5750
▁ತಂಡ	-5751
▁ob	-5752
▁વચ્ચે	-5753
▁उपलब्ध	-5754
▁उसे	-5755
▁down	-5756
ലും	-5757
▁ನ್ಯ	-5758
▁ओर	-5759
▁सोम	-5760
वली	-5761
ारे	-5762
ನ್ನೂ	-5763
▁did	-5764
jp	-5765
▁புக	-5766
▁છો	-5767
▁मरा	-5768
▁பொரு	-5769
▁বেশি	-5770
ral	-5771
▁ଦୁ	-5772
▁ప్రత్యేక	-5773
▁ವಿಚಾರ	-5774
ani	-5775
ন্ট	-5776
▁అనే	-5777
▁गांधी	-5778
ween	-5779
▁व्यवस्था	-5780
ण्याचे	-5781
▁pakistan	-5782
▁আশ	-5783
ல்லை	-5784
pos	-5785
▁நடவடிக்கை	-5786
ered	-5787
▁চলে	-5788
ടക്ക	-5789
▁পাশ	-5790
کی	-5791
▁aut	-5792
▁news	-5793
▁கரு	-5794
▁ট্র	-5795
లాంటి	-5796
ించాలని	-5797
સભા	-5798
नुसार	-5799
▁असताना	-5800
▁एम	-5801
टन	-5802
▁சம	-5803
▁ગાંધી	-5804
▁ଯେ	-5805
▁ক্র	-5806
ೋಧ	-5807
▁ہیں۔	-5808
▁ವೇಳ	-5809
ക്രട്ട	-5810
രില്	-5811
▁સહિત	-5812
র্ম	-5813
▁പിന്ന	-5814
ൊരു	-5815
▁રહ્યો	-5816
ବର	-5817
▁ਇੰ	-5818
▁ఇప్ప	-5819
ரின்	-5820
ರನ್ನು	-5821
नाथ	-5822
શી	-5823
▁কংগ	-5824
▁वाट	-5825
ায়ের	-5826
▁ଅଭି	-5827
▁ಎಂದರು	-5828
க்கான	-5829
▁between	-5830
નની	-5831
மும்	-5832
▁ફે	-5833
▁टे	-5834
த்தர	-5835
▁કિ	-5836
▁എന്നിവ	-5837
▁આવશે	-5838
▁ஆண்டு	-5839
▁તપાસ	-5840
▁सभा	-5841
ുകയാണ്	-5842
റു	-5843
▁சீ	-5844
▁சட்ட	-5845
▁એમ	-5846
श्य	-5847
iness	-5848
▁کرنے	-5849
ైనా	-5850
ctions	-5851
▁करता	-5852
ಮಂ	-5853
▁યા	-5854
▁చేస్తున్న	-5855
কাল	-5856
▁आधार	-5857
ission	-5858
▁डे	-5859
▁ছে	-5860
बे	-5861
षण	-5862
▁खान	-5863
ियां	-5864
പ്പു	-5865
▁കോടതി	-5866
दर्श	-5867
▁ਹੋਣ	-5868
.8	-5869
▁महाराष्ट्र	-5870
काश	-5871
▁ম্যা	-5872
▁group	-5873
ାରୀ	-5874
▁માર્	-5875
യിട്ട	-5876
▁നടപ	-5877
▁ડે	-5878
▁very	-5879
ool	-5880
▁परिसर	-5881
▁देने	-5882
▁म्हणाले	-5883
ಟ್ಟಿ	-5884
டுப	-5885
▁सुरक्षा	-5886
శం	-5887
▁അപ	-5888
▁رو	-5889
▁ବିଜେ	-5890
स्ते	-5891
ಾಮಿ	-5892
▁દરમિયાન	-5893
▁अमेर	-5894
▁మాట్లాడుతూ	-5895
मि	-5896
▁ട്ട്	-5897
બે	-5898
▁ടെ	-5899
स्क	-5900
ಮು	-5901
▁મુખ્ય	-5902
▁வருகிறது	-5903
வீ	-5904
▁ਹੋਏ	-5905
ಟರ್	-5906
▁ಪ್ರಯ	-5907
▁रवि	-5908
▁കാണ	-5909
योग	-5910
▁எம்	-5911
▁રૂપિયા	-5912
ಡ್ಡ	-5913
▁પાર	-5914
తుల	-5915
▁ಹಣ	-5916
▁fol	-5917
লার	-5918
ழந்த	-5919
ಮ್	-5920
িত্	-5921
▁विभागा	-5922
তুন	-5923
▁વખ	-5924
ਪੀ	-5925
▁modi	-5926
वाय	-5927
▁ગામ	-5928
▁কী	-5929
्यावर	-5930
ms	-5931
्रम	-5932
দে	-5933
▁told	-5934
મત	-5935
ুট	-5936
हरु	-5937
▁ରାଜ୍ୟ	-5938
▁কয়েক	-5939
▁ప్రారం	-5940
ific	-5941
ார்கள்	-5942
ક્તિ	-5943
ೇಷ	-5944
▁৫	-5945
बल	-5946
▁gl	-5947
തോടെ	-5948
▁ins	-5949
▁जाते	-5950
वण	-5951
ಸು	-5952
▁போட்ட	-5953
▁ಸಂಘ	-5954
▁ಸಭ	-5955
▁ಸಾಮ	-5956
ારીઓ	-5957
ائے	-5958
ics	-5959
▁ঢ	-5960
39	-5961
▁৪	-5962
ಸ್ವ	-5963
▁సందర్భ	-5964
బాబు	-5965
ంజ	-5966
▁കമ്മ	-5967
তির	-5968
انے	-5969
▁four	-5970
▁কলক	-5971
▁বিভ	-5972
ty	-5973
▁विष	-5974
▁તમામ	-5975
व्य	-5976
▁শিক্ষ	-5977
್ಧ	-5978
▁ಸ್ಥಳ	-5979
▁வரை	-5980
క్కడ	-5981
▁కార్యక్రమ	-5982
▁प्रमाण	-5983
▁आंद	-5984
લ્લા	-5985
▁થયા	-5986
▁ਦਰ	-5987
▁ann	-5988
▁مل	-5989
▁କରିବା	-5990
ಲ್ಯ	-5991
▁సహ	-5992
▁పరిశ	-5993
କି	-5994
▁কংগ্রেস	-5995
▁വല	-5996
▁२०१	-5997
▁நோ	-5998
േഷം	-5999
▁loc	-6000
கை	-6001
▁એટ	-6002
ପୁର	-6003
ାରୁ	-6004
▁ખુ	-6005
ഞ്ചായ	-6006
▁పూర్తి	-6007
▁விள	-6008
▁अर्थ	-6009
ल्ला	-6010
▁ഡോ	-6011
▁ਛ	-6012
ative	-6013
▁उपा	-6014
▁ଲୋକ	-6015
▁मंद	-6016
▁सूचना	-6017
▁മാര്	-6018
▁ਵੱ	-6019
▁!	-6020
▁झालेल्या	-6021
ord	-6022
తంగా	-6023
▁দিতে	-6024
ત્રી	-6025
ೋಷ	-6026
گر	-6027
స్థి	-6028
▁then	-6029
▁தின	-6030
▁माध्य	-6031
્યાર	-6032
ph	-6033
▁ദേശ	-6034
ப்படுகிறது	-6035
ार्थ	-6036
▁സെക്രട്ട	-6037
▁ಬ್ಯಾ	-6038
▁ప్రారంభ	-6039
भे	-6040
▁जाता	-6041
ाती	-6042
ণের	-6043
ੁੱਖ	-6044
ृह	-6045
▁ചെയ്തു	-6046
▁ਉੱ	-6047
▁নতুন	-6048
▁মনে	-6049
పే	-6050
▁however	-6051
▁చెప్పారు	-6052
▁ఆధ	-6053
ared	-6054
▁মতো	-6055
▁ಸಂದ	-6056
पन	-6057
▁তারা	-6058
ೃತ	-6059
തില്	-6060
▁शामिल	-6061
ಹಾರ	-6062
▁विध	-6063
ಿಸಲಾಗಿದೆ	-6064
mber	-6065
ಪುರ	-6066
দা	-6067
న్నా	-6068
নায়	-6069
▁ವಿಶ್ವ	-6070
▁ಇದ್ದ	-6071
।""	-6072
દો	-6073
▁సంస్థ	-6074
▁વી	-6075
▁giv	-6076
▁தெரிவித்து	-6077
',	-6078
▁દા	-6079
rict	-6080
▁سی	-6081
पूर्वी	-6082
શો	-6083
ਬੰਧ	-6084
▁कार्यकर्	-6085
హి	-6086
▁महापाल	-6087
▁स्वत	-6088
▁ઓફ	-6089
▁करण्यासाठी	-6090
▁குறை	-6091
ాలా	-6092
લિ	-6093
▁କାର୍ଯ୍ୟ	-6094
▁ఉంది	-6095
▁dif	-6096
▁अनुसार	-6097
▁ಮಾಹ	-6098
▁attack	-6099
▁ఎమ్మ	-6100
▁નોંધ	-6101
ording	-6102
मन	-6103
्व	-6104
▁ಇದು	-6105
▁राष्ट्रीय	-6106
▁అధ్యక్ష	-6107
ਸ਼ੀ	-6108
ರೆಯ	-6109
▁चौक	-6110
ચી	-6111
▁आंदोल	-6112
ন্ড	-6113
கம்	-6114
▁विविध	-6115
ual	-6116
▁వద్ద	-6117
ଷ୍ଠ	-6118
ൂടെ	-6119
▁प्रयत्न	-6120
▁ಮತ	-6121
▁এবার	-6122
তিক	-6123
▁પટેલ	-6124
ोड	-6125
▁मार्ग	-6126
▁tal	-6127
▁मज	-6128
িও	-6129
ାଉ	-6130
పె	-6131
▁ಲಕ್ಷ	-6132
▁सेवा	-6133
▁ચા	-6134
▁నిర్మా	-6135
اس	-6136
▁বন্ধ	-6137
▁பாதி	-6138
▁అందు	-6139
way	-6140
▁ಮಹಿಳ	-6141
▁ಕುರಿ	-6142
▁चाहि	-6143
ച്ച്	-6144
சார்	-6145
▁वहीं	-6146
▁തൊ	-6147
▁काळ	-6148
નના	-6149
▁मांग	-6150
స్తోంది	-6151
▁ಹಲ	-6152
▁பகுதி	-6153
ಕ್ಕೂ	-6154
▁पत्	-6155
▁निक	-6156
ଧାନ	-6157
▁দুর	-6158
ಾಸ್	-6159
ಿಗಳು	-6160
▁കട	-6161
▁అమ	-6162
olog	-6163
താണ്	-6164
▁इससे	-6165
ೌಡ	-6166
▁गण	-6167
म्म	-6168
ਜੀਤ	-6169
हरा	-6170
ণা	-6171
▁disc	-6172
▁கூட்ட	-6173
▁199	-6174
▁গ্রাম	-6175
धिकारी	-6176
ும்ப	-6177
પે	-6178
▁added	-6179
▁অধ	-6180
னா	-6181
కీ	-6182
ason	-6183
▁follow	-6184
▁சங்க	-6185
▁തീരു	-6186
ടുത്ത	-6187
ീപ	-6188
▁،	-6189
▁फा	-6190
म्प	-6191
▁ఎన్ని	-6192
▁ಕನ್ನ	-6193
uss	-6194
ತೆಗೆ	-6195
▁ಜೊ	-6196
काळी	-6197
తీయ	-6198
▁प्रक	-6199
▁അന്വേഷ	-6200
▁पुणे	-6201
▁since	-6202
▁ಮಕ್ಕ	-6203
▁હાથ	-6204
....	-6205
ড়িয়ে	-6206
▁ಆಸ್	-6207
രിച്ചു	-6208
▁right	-6209
▁தொடர்ந்து	-6210
▁ದು	-6211
ையா	-6212
కాల	-6213
▁ஜெய	-6214
▁వార	-6215
▁કર્યા	-6216
▁થયો	-6217
▁60	-6218
▁polit	-6219
एन	-6220
ിക്കും	-6221
ੜ੍ਹ	-6222
▁ജില്ലാ	-6223
▁টি	-6224
▁పేర్కొ	-6225
▁આવ્યું	-6226
▁केंद	-6227
▁મૂ	-6228
ୃତ	-6229
ভার	-6230
▁समाचार	-6231
▁ਹੁ	-6232
▁ನಿಮ್ಮ	-6233
ൃത	-6234
▁जाएगा	-6235
▁ಹೇಳಿದರು	-6236
▁ത്ഥ	-6237
▁جو	-6238
▁நிலையில்	-6239
▁because	-6240
▁పట్ట	-6241
▁असल्याने	-6242
▁ನೀಡಿ	-6243
▁పెద్ద	-6244
▁ஐ	-6245
ular	-6246
▁1,	-6247
ret	-6248
▁இதில்	-6249
▁singh	-6250
▁हत्या	-6251
▁గత	-6252
▁ઘટના	-6253
ਅਰ	-6254
ana	-6255
▁നടത്തിയ	-6256
▁सकता	-6257
போ	-6258
િતિ	-6259
▁ആദ്യ	-6260
▁त्यात	-6261
ેલી	-6262
্যু	-6263
▁அருகே	-6264
తర	-6265
எஸ்	-6266
ਬੀ	-6267
▁முன்	-6268
ures	-6269
▁ಕಾರ್ಯಕ್ರಮ	-6270
ھے	-6271
▁বড়	-6272
▁point	-6273
▁થશે	-6274
▁नोट	-6275
ీల	-6276
▁ಅರ್	-6277
.0	-6278
ੁਪ	-6279
▁സ്ഥാന	-6280
ണു	-6281
ഴു	-6282
ંભ	-6283
▁कर्	-6284
conom	-6285
▁அம	-6286
▁किए	-6287
▁ત્રણ	-6288
▁ದೊ	-6289
▁देव	-6290
▁ਜਾਵੇ	-6291
્ટી	-6292
▁500	-6293
మంత్రి	-6294
▁ஆய	-6295
ंतु	-6296
▁ब्र	-6297
್ರಹ	-6298
▁ಹೀ	-6299
▁కొత్త	-6300
▁नेत	-6301
▁திர	-6302
▁char	-6303
▁ਲੋਕਾਂ	-6304
▁ஆர்	-6305
ினார்	-6306
ോധ	-6307
▁ಯಾವುದೇ	-6308
▁कारवाई	-6309
▁congress	-6310
▁മ്	-6311
▁କୋ	-6312
▁சென்ற	-6313
▁যোগ	-6314
এস	-6315
ல்க	-6316
ಲ್ಲೇ	-6317
▁जय	-6318
▁company	-6319
ਵਾਈ	-6320
સાર	-6321
▁બન	-6322
ദ്ധതി	-6323
▁খে	-6324
▁வழக்கு	-6325
▁కమి	-6326
▁ऑफ	-6327
क्ता	-6328
दर्शन	-6329
ರವ	-6330
▁సే	-6331
▁आत	-6332
நிலையில்	-6333
ದರ್ಶ	-6334
షి	-6335
▁ഭാഗ	-6336
▁பெற்ற	-6337
वरून	-6338
▁গিয়েছে	-6339
▁बैंक	-6340
▁crore	-6341
न्स	-6342
ള്ളി	-6343
▁ક્ર	-6344
ర్మ	-6345
▁ਦਿੱਤੀ	-6346
▁సై	-6347
▁వెళ్	-6348
▁ଗୁ	-6349
▁दुर्	-6350
ੋਗ	-6351
▁পারেন	-6352
▁સૌથી	-6353
▁স্ক	-6354
ച്ചി	-6355
ക്കള	-6356
▁তৃণমূল	-6357
کہ	-6358
नगर	-6359
ಾನ್	-6360
▁sal	-6361
▁ராஜ	-6362
▁पढ़	-6363
▁সূ	-6364
ಲಾಗ	-6365
▁ঘোষ	-6366
▁ಆರಂಭ	-6367
▁निर्देश	-6368
▁ചെയ്ത	-6369
▁आल्या	-6370
াস্ত	-6371
ચ્છ	-6372
بر	-6373
▁ಪ್ರಧಾನ	-6374
बार	-6375
ரே	-6376
ক্ষে	-6377
▁సందర్భంగా	-6378
▁second	-6379
▁घेऊन	-6380
જૂ	-6381
med	-6382
▁ठिका	-6383
ందే	-6384
▁ಸದಸ್ಯ	-6385
ರಾಮ	-6386
ision	-6387
▁బు	-6388
▁தற்ப	-6389
ീഷ	-6390
्यता	-6391
ഷ്ട്ര	-6392
▁raj	-6393
▁બંધ	-6394
▁ఆమె	-6395
പ്പോര്	-6396
▁ہی	-6397
▁ട്ടി	-6398
az	-6399
ಂತ್ರ	-6400
ात्	-6401
▁ఆరో	-6402
ালের	-6403
▁पाच	-6404
▁మృ	-6405
ಡುಗ	-6406
િવ	-6407
▁अति	-6408
्ला	-6409
▁करोड़	-6410
ାସ	-6411
▁তৈরি	-6412
▁సాధ	-6413
▁उमेद	-6414
ಿಸಿಕೊಂಡ	-6415
▁विश्व	-6416
ঙ্ক	-6417
ాన్ని	-6418
▁read	-6419
▁grow	-6420
▁தான்	-6421
ਉਂ	-6422
▁২০১	-6423
నున్న	-6424
▁दुस	-6425
രവ	-6426
ാരണ	-6427
▁పను	-6428
▁ಸಂಸ್ಥ	-6429
আই	-6430
▁ਮੋ	-6431
स्ती	-6432
▁मैं	-6433
▁എന്നി	-6434
ংস	-6435
▁ਸਮੇ	-6436
બંધ	-6437
gal	-6438
ಗೊಳ್ಳ	-6439
न्या	-6440
िरी	-6441
▁काफी	-6442
सद	-6443
രേ	-6444
ంత్ర	-6445
தில்	-6446
▁మండల	-6447
▁വ്യക്ത	-6448
িগ	-6449
▁ہوئے	-6450
ما	-6451
లపై	-6452
▁case	-6453
ાઇ	-6454
ివృ	-6455
دہ	-6456
▁നിന്നും	-6457
▁६	-6458
ിക്കാ	-6459
સાદ	-6460
▁ಅಪ	-6461
ina	-6462
आय	-6463
▁તેમના	-6464
▁पं	-6465
मित	-6466
▁2018	-6467
વાના	-6468
▁त्यानंतर	-6469
ियन	-6470
▁సమస్య	-6471
▁యు	-6472
▁விசார	-6473
ତ୍ତ	-6474
▁नो	-6475
▁दिए	-6476
ke	-6477
▁૪	-6478
ત્વ	-6479
▁)	-6480
▁மீது	-6481
▁இன்று	-6482
▁ഹി	-6483
ನಾಟಕ	-6484
▁વિસ્તાર	-6485
त्त	-6486
▁करणार	-6487
▁असले	-6488
ृत्य	-6489
ಳ್ಳಿ	-6490
▁அள	-6491
▁सबसे	-6492
▁గో	-6493
▁പരിശ	-6494
ాయని	-6495
হা	-6496
▁லட்ச	-6497
▁മറ്റ	-6498
াধ্য	-6499
ங்கே	-6500
▁দলের	-6501
▁எழு	-6502
▁చర్య	-6503
▁காரண	-6504
▁అవకా	-6505
▁وا	-6506
▁దీంతో	-6507
▁சம்ப	-6508
ਸਰ	-6509
സഭ	-6510
▁મત	-6511
ிருந்து	-6512
એમ	-6513
▁നേതാ	-6514
▁वन	-6515
भव	-6516
▁അത	-6517
▁ଯୋଗ	-6518
▁റിപ്പോര്	-6519
▁முத	-6520
ద్ధి	-6521
line	-6522
▁ஈடுப	-6523
ਤਾਂ	-6524
ହିଁ	-6525
▁मौत	-6526
▁ਵਰ	-6527
▁కె	-6528
ಿಯಾ	-6529
▁নিয়	-6530
▁పోలీసులు	-6531
த்தனர்	-6532
ையம்	-6533
ോഷ	-6534
▁உறு	-6535
▁வருகின்றனர்	-6536
ુમ	-6537
▁కాల	-6538
▁બની	-6539
▁மூலம்	-6540
▁याच	-6541
ಡುತ್ತ	-6542
ಾವು	-6543
▁econom	-6544
▁క్	-6545
કિસ્તા	-6546
வுக்கு	-6547
▁దు	-6548
▁गं	-6549
▁चाहिए	-6550
ହାର	-6551
व्ह	-6552
▁ਦੌਰ	-6553
यन	-6554
ਾਸ	-6555
▁city	-6556
▁says	-6557
लन	-6558
▁run	-6559
▁यू	-6560
ക്കാന്	-6561
▁അദ്ദേഹം	-6562
▁ಇಲ್ಲಿ	-6563
ought	-6564
▁बदल	-6565
read	-6566
ல்வ	-6567
▁૨૦	-6568
▁ભારતી	-6569
▁இந்திய	-6570
alth	-6571
▁గుర్	-6572
▁உத்தர	-6573
▁ಎನ್ನು	-6574
▁ಮೊದಲ	-6575
గం	-6576
▁business	-6577
ాం	-6578
.9	-6579
स्या	-6580
പ്പെട	-6581
▁संख्या	-6582
▁கூறி	-6583
▁கால	-6584
▁୩	-6585
▁મેળ	-6586
▁വാര്	-6587
▁పరిస్థి	-6588
ner	-6589
▁ce	-6590
▁పలు	-6591
త్రి	-6592
▁সদ	-6593
ਾਹ	-6594
्रो	-6595
യാള	-6596
▁ਮੈ	-6597
▁પોલીસે	-6598
भीर	-6599
▁rele	-6600
اتھ	-6601
ாளர்கள்	-6602
াধ	-6603
▁ఉంటు	-6604
▁const	-6605
ोरी	-6606
▁பெய	-6607
ண்டி	-6608
▁ਅਮ	-6609
ನ್ನೆ	-6610
▁વિદ	-6611
▁হাসপ	-6612
ുകളില്	-6613
ക്കിയ	-6614
▁நிர்வாக	-6615
র্ণ	-6616
ાયો	-6617
▁বিভিন্ন	-6618
▁ള	-6619
నూ	-6620
▁according	-6621
▁தகவ	-6622
▁ଅଧିକ	-6623
▁ରେ	-6624
▁ಮೆ	-6625
યોગ	-6626
ੋਟ	-6627
▁অনু	-6628
થમ	-6629
ാപ	-6630
ವರ್	-6631
▁come	-6632
▁ವಿದ್ಯಾರ್ಥ	-6633
ടും	-6634
در	-6635
▁next	-6636
▁ਅਧ	-6637
▁ಸಲ್ಲ	-6638
చారం	-6639
ರ್ಭ	-6640
▁নিজের	-6641
ೀಲ	-6642
▁घड	-6643
രക്ഷ	-6644
▁আছে	-6645
ಕಾರಿ	-6646
▁ਕੈ	-6647
▁ગ્ર	-6648
मीण	-6649
দী	-6650
ists	-6651
▁ಜೆ	-6652
ਿੰਡ	-6653
ೋಕ	-6654
▁इला	-6655
▁tak	-6656
ti	-6657
▁മുഖ്യമന്ത്രി	-6658
▁گیا	-6659
▁bjp	-6660
ૃત	-6661
▁ಮಾತ್ರ	-6662
గో	-6663
തായി	-6664
▁ঘটনা	-6665
▁head	-6666
ble	-6667
രന്	-6668
▁നേതൃ	-6669
ೃದ್ಧ	-6670
▁भाव	-6671
▁ಮುಖ್ಯಮಂ	-6672
▁pri	-6673
్యం	-6674
േരി	-6675
फ्त	-6676
▁ಇದೆ	-6677
cc	-6678
▁अस्प	-6679
▁ഏറ്റ	-6680
▁ಹೆಚ್ಚು	-6681
ணம்	-6682
▁ખાતે	-6683
▁ટીમ	-6684
▁બદ	-6685
me	-6686
▁hand	-6687
▁શો	-6688
ಿಗಳ	-6689
▁ಹೊಂದ	-6690
▁..	-6691
ద్ర	-6692
▁నిర్ణ	-6693
ळ्या	-6694
▁alle	-6695
▁సంబంధ	-6696
സര്	-6697
క్కువ	-6698
▁માન	-6699
▁সভ	-6700
▁see	-6701
ପ୍ର	-6702
▁ଶି	-6703
▁போலீசார்	-6704
ুজ	-6705
▁आदि	-6706
▁#	-6707
थे	-6708
▁35	-6709
▁લાગ	-6710
വിടെ	-6711
▁soc	-6712
▁من	-6713
ೇನೆ	-6714
िश	-6715
▁دو	-6716
▁અન્ય	-6717
▁പദ്ധതി	-6718
▁रुग्	-6719
హ్	-6720
ਕਾਰੀ	-6721
▁ಬಳಿಕ	-6722
▁including	-6723
ங்களுக்கு	-6724
ര്യ	-6725
రాలు	-6726
ೊಬ್ಬ	-6727
شن	-6728
▁आए	-6729
▁প্রায়	-6730
▁লোক	-6731
ின்றன	-6732
▁পর্যন্ত	-6733
▁करीब	-6734
▁അംഗ	-6735
जूद	-6736
ಂಡ್	-6737
▁both	-6738
झा	-6739
▁বো	-6740
െങ്കിലും	-6741
▁ਜਿ	-6742
ஜி	-6743
▁പങ്ക	-6744
▁மது	-6745
సర	-6746
▁मध्ये	-6747
▁ऐसे	-6748
ாம்	-6749
▁જોઈ	-6750
▁ফের	-6751
****	-6752
▁കിയ	-6753
▁ਸਿੱ	-6754
വരെ	-6755
ନ୍ନ	-6756
▁सौ	-6757
સમાં	-6758
▁tech	-6759
کن	-6760
▁१०	-6761
ற்கொ	-6762
▁மக	-6763
▁ಶಿವ	-6764
राज	-6765
▁tra	-6766
▁रुपया	-6767
త్తి	-6768
कांना	-6769
ೆಯಿಂದ	-6770
▁తర్	-6771
▁होगी	-6772
▁inte	-6773
▁ਵਾਲੇ	-6774
▁একটা	-6775
▁ग्रामीण	-6776
▁jul	-6777
▁କରିଛନ୍ତି	-6778
▁ವೇಳೆ	-6779
ப்பை	-6780
▁വില	-6781
▁கிராம	-6782
േഷന്	-6783
▁contin	-6784
ಲ್ಪ	-6785
▁பழ	-6786
▁પોતાની	-6787
▁অপ	-6788
▁రూప	-6789
▁രാജ്യ	-6790
▁লক্ষ	-6791
▁टक्के	-6792
▁કોઇ	-6793
▁ধরে	-6794
▁पिछ	-6795
▁இப்ப	-6796
▁പുതിയ	-6797
▁રોજ	-6798
മുള്ള	-6799
▁டெ	-6800
▁আমাদের	-6801
▁ଗ୍ର	-6802
ल्ले	-6803
▁પાકિસ્તા	-6804
▁பர	-6805
▁ಮನೆ	-6806
▁open	-6807
▁ஆத	-6808
oot	-6809
రావు	-6810
ತ್ನ	-6811
▁ਪ੍ਰਧਾਨ	-6812
குதி	-6813
▁तयार	-6814
ନୀ	-6815
▁bel	-6816
▁ಕರ್ನಾಟಕ	-6817
▁દિલ્	-6818
▁ਪਾਰ	-6819
▁કેટલા	-6820
তেই	-6821
▁यांची	-6822
▁cre	-6823
ೇರಿ	-6824
▁परंतु	-6825
▁इत	-6826
▁ય	-6827
▁ಗಳ	-6828
ర్టు	-6829
डिया	-6830
▁way	-6831
જય	-6832
▁ତେ	-6833
గర్	-6834
▁જાય	-6835
ல்வே	-6836
▁प्रस्ता	-6837
െതിരെ	-6838
▁around	-6839
োপাধ্য	-6840
▁பேர்	-6841
▁रोजी	-6842
ूं	-6843
▁মি	-6844
▁don	-6845
▁संक	-6846
লেও	-6847
▁நடத்த	-6848
ల్సి	-6849
ారీ	-6850
▁కేసు	-6851
ோத	-6852
ute	-6853
▁सध्या	-6854
▁know	-6855
▁இந்	-6856
▁public	-6857
▁ਚੋ	-6858
▁মুখ্য	-6859
▁चांग	-6860
▁ਮਾਮ	-6861
▁ਲੱ	-6862
ଖ୍ୟ	-6863
ിട	-6864
▁মাস	-6865
▁commit	-6866
▁পাল	-6867
ars	-6868
▁big	-6869
मारे	-6870
▁ತನ್ನ	-6871
यला	-6872
▁അധിക	-6873
▁गुरु	-6874
▁സൂ	-6875
ोप	-6876
▁बँ	-6877
ಕಾಶ	-6878
▁मध्य	-6879
▁আপনার	-6880
ੇਸ਼	-6881
▁ಸ್ಥಾನ	-6882
ங்	-6883
▁ଜିଲ୍	-6884
ल्ड	-6885
▁ಸಂಪ	-6886
▁നടന്ന	-6887
▁विजय	-6888
▁लाभ	-6889
જર	-6890
▁ಪ್ರವ	-6891
ೂರಿನ	-6892
पक	-6893
▁long	-6894
▁secur	-6895
्यों	-6896
▁ಸಿನಿ	-6897
▁inf	-6898
▁वापर	-6899
▁conf	-6900
ാനുള്ള	-6901
▁বৈ	-6902
▁நிற	-6903
▁वो	-6904
▁किंवा	-6905
વન	-6906
▁కల్	-6907
▁power	-6908
▁مع	-6909
ર્થ	-6910
▁ચે	-6911
▁गाव	-6912
▁ഗു	-6913
▁बजे	-6914
षा	-6915
▁person	-6916
ivers	-6917
▁പോലീസ്	-6918
;&	-6919
ോള	-6920
▁ಸೇರಿದ	-6921
▁top	-6922
come	-6923
▁शुक्र	-6924
▁support	-6925
▁தர	-6926
▁ఎన్నిక	-6927
িস্ত	-6928
க்கல்	-6929
वसा	-6930
વાય	-6931
▁प्रश	-6932
নী	-6933
▁লাগ	-6934
▁ਤਰ	-6935
▁അറിയിച്ച	-6936
▁জেলা	-6937
▁পেয়ে	-6938
▁ತೆ	-6939
▁ಕೋಟಿ	-6940
▁అస	-6941
▁حک	-6942
▁ಡಾ	-6943
▁আমি	-6944
రణ	-6945
▁ছিলেন	-6946
ines	-6947
ୋଜ	-6948
ांमध्ये	-6949
▁મુજબ	-6950
▁ಕ್ರಮ	-6951
▁ਜਦ	-6952
বাস	-6953
ଚନା	-6954
ানি	-6955
રના	-6956
▁విధ	-6957
▁আমরা	-6958
▁നേതൃത്വ	-6959
▁न्यू	-6960
▁पनि	-6961
▁કર્યું	-6962
িনে	-6963
▁ಮಾಡುವ	-6964
ડિયા	-6965
वला	-6966
മെ	-6967
ಾನೆ	-6968
▁परिवार	-6969
▁दरम्यान	-6970
▁പ്രധാന	-6971
▁می	-6972
ర్థ	-6973
▁তাঁদের	-6974
కం	-6975
▁તેમની	-6976
▁सामने	-6977
▁అనంత	-6978
ర్లు	-6979
▁फी	-6980
ત્રો	-6981
▁ಸಮಸ್ಯ	-6982
▁बुध	-6983
▁અપ	-6984
▁పాల్గొన్నారు	-6985
▁મામ	-6986
▁તૈ	-6987
▁पोलिसांनी	-6988
ष्टी	-6989
▁மக்க	-6990
మని	-6991
▁ಶಾಲ	-6992
▁सकते	-6993
ੋਲ	-6994
േണ്ട	-6995
▁താ	-6996
നങ്ങള്	-6997
▁చేసే	-6998
▁ಬಾ	-6999
ಾಗಿತ್ತು	-7000
▁وال	-7001
कान	-7002
▁డీ	-7003
▁દિલ્હી	-7004
▁ଲା	-7005
▁ସ୍ୱ	-7006
▁bh	-7007
ସା	-7008
କ୍ଷା	-7009
ళా	-7010
▁home	-7011
ரிச	-7012
▁ಕನ್ನಡ	-7013
▁சார்ப	-7014
▁ام	-7015
ੋੜ	-7016
ಕ್ತಿ	-7017
ପ୍	-7018
cent	-7019
త్తు	-7020
▁தற்போது	-7021
ક્ત	-7022
▁ಮಾಹಿತಿ	-7023
ಾಗಿದ್ದ	-7024
▁district	-7025
శాఖ	-7026
এম	-7027
व्या	-7028
ਕਿ	-7029
▁રાહ	-7030
ભાઇ	-7031
▁ಅವರನ್ನು	-7032
▁पांच	-7033
▁નેતા	-7034
ರೀಕ್ಷ	-7035
▁those	-7036
▁હિ	-7037
ଗି	-7038
ताब	-7039
▁ദു	-7040
▁హా	-7041
मक	-7042
▁পাক	-7043
ೋಟ	-7044
▁கிடை	-7045
▁ಅವರಿಗೆ	-7046
হত	-7047
ম্বর	-7048
▁ನನ್ನ	-7049
▁தேர்தல்	-7050
▁நிக	-7051
രിക്കുന്നത്	-7052
చార	-7053
▁(4	-7054
▁நடைபெற்ற	-7055
ામી	-7056
▁ગા	-7057
▁ನ್ಯಾಯ	-7058
ೋರ್	-7059
▁হার	-7060
▁ಚುನಾವಣ	-7061
▁ಆರೋಪ	-7062
▁ડી	-7063
▁७	-7064
ouse	-7065
▁ഞ	-7066
▁स्कूल	-7067
पत्र	-7068
▁अज	-7069
▁वाज	-7070
ਿਆਰ	-7071
▁प्रश्न	-7072
▁విజయ	-7073
▁आग	-7074
▁ट्रे	-7075
జే	-7076
ಾಗುತ್ತಿದೆ	-7077
▁નવી	-7078
નુ	-7079
ੰਦ	-7080
uk	-7081
ants	-7082
પુર	-7083
▁राहुल	-7084
▁૫	-7085
दारी	-7086
▁લોક	-7087
▁sch	-7088
ann	-7089
ਸਟ	-7090
▁शेतकऱ्यां	-7091
▁બં	-7092
▁vi	-7093
ਿਲਮ	-7094
▁2019	-7095
▁दल	-7096
துகா	-7097
ர்களுக்கு	-7098
।''	-7099
▁ಕ್ರ	-7100
▁మన	-7101
▁ప్రధాన	-7102
▁माध्यम	-7103
ாலும்	-7104
▁மிக	-7105
িরে	-7106
্দেশ	-7107
▁లా	-7108
▁ಅಲ್ಲ	-7109
ழ்ச	-7110
▁બેઠક	-7111
▁લઇ	-7112
യിരുന്നു	-7113
▁शनि	-7114
क्क	-7115
urs	-7116
കട	-7117
▁visit	-7118
▁mus	-7119
▁പരാതി	-7120
ਲੋਂ	-7121
کھ	-7122
க்கொ	-7123
▁स्पर्	-7124
▁famil	-7125
डू	-7126
ಧಿಕಾರಿ	-7127
టో	-7128
हां	-7129
▁പഞ്ചായ	-7130
▁ನೀರು	-7131
ஸ்த	-7132
▁बारे	-7133
ody	-7134
▁ఒక్క	-7135
▁ചോ	-7136
gest	-7137
▁પ્રા	-7138
▁கொள்ள	-7139
اں	-7140
▁ਬਣਾ	-7141
ism	-7142
▁det	-7143
র্শ	-7144
▁ज्यादा	-7145
▁आर्थ	-7146
▁जल	-7147
▁ଭାର	-7148
ందో	-7149
വിധ	-7150
▁ഒന്ന	-7151
▁യോഗ	-7152
મેન્ટ	-7153
▁ਏ	-7154
ারি	-7155
ాన్	-7156
ಮನ	-7157
ਵਰ	-7158
▁તમે	-7159
கையில்	-7160
▁ഖ	-7161
ries	-7162
ராட்சி	-7163
ves	-7164
▁क्या	-7165
।'	-7166
▁സെക്രട്ടറി	-7167
▁एन	-7168
ेंबर	-7169
▁नाग	-7170
▁पट	-7171
▁अपना	-7172
▁તેમને	-7173
▁ਲਾ	-7174
▁پہ	-7175
▁test	-7176
जिक	-7177
ినీ	-7178
ഗ്	-7179
▁हिंद	-7180
▁मंदिर	-7181
▁हाला	-7182
▁ప్రస్తు	-7183
▁இல்ல	-7184
▁av	-7185
▁ಪ್ರದೇಶ	-7186
▁ચી	-7187
▁law	-7188
cer	-7189
▁ತಾ	-7190
બ્	-7191
బర్	-7192
▁ਦੌਰਾਨ	-7193
ible	-7194
ഭാഗ	-7195
▁માત્ર	-7196
പുരം	-7197
ెక్టర్	-7198
ull	-7199
వరి	-7200
▁sun	-7201
▁প্রস	-7202
▁வந்து	-7203
▁காவ	-7204
▁பாதுகா	-7205
▁କରୁ	-7206
ੂਲ	-7207
▁বাংলাদেশ	-7208
▁na	-7209
్వర	-7210
য়ো	-7211
▁करीत	-7212
▁करें	-7213
க்காக	-7214
্যান্ড	-7215
સ્પ	-7216
വില്	-7217
ાર્થી	-7218
▁resp	-7219
ಾಯಿತು	-7220
પોર્ટ	-7221
▁cle	-7222
ೇಜ	-7223
్రెస్	-7224
▁ಶು	-7225
વાનું	-7226
▁جس	-7227
డిన	-7228
ീസ്	-7229
▁फु	-7230
▁ਰਾਜ	-7231
▁फाय	-7232
▁ফে	-7233
▁ರೀ	-7234
▁ಸಿದ್ದ	-7235
खंड	-7236
▁બહાર	-7237
জ্ঞ	-7238
▁fore	-7239
ানোর	-7240
▁international	-7241
▁থাকে	-7242
▁ભૂ	-7243
▁തുടങ്ങിയ	-7244
▁ਜੇ	-7245
▁বিজেপ	-7246
ंचायत	-7247
టం	-7248
ror	-7249
▁அண	-7250
▁ന്നു	-7251
▁ବେଳେ	-7252
ण्ड	-7253
धन	-7254
▁మహి	-7255
్యే	-7256
▁જાહેર	-7257
▁sl	-7258
▁ખેડ	-7259
▁निवडणुकी	-7260
▁క్ర	-7261
കന്	-7262
ained	-7263
▁ext	-7264
▁ಕಳೆದ	-7265
▁તરી	-7266
্যাম	-7267
▁आर्थिक	-7268
▁adv	-7269
ഹി	-7270
▁pay	-7271
▁भारता	-7272
▁ઊ	-7273
ேச	-7274
▁women	-7275
றும்	-7276
ବୁ	-7277
):	-7278
▁வச	-7279
റാ	-7280
▁sign	-7281
▁अस्पताल	-7282
▁सुब	-7283
▁bat	-7284
▁ভে	-7285
▁ਟੀ	-7286
ಾತ	-7287
ोंद	-7288
▁रेल्	-7289
▁తర్వాత	-7290
▁ବର୍ଷ	-7291
▁ફરી	-7292
▁ನಿರ್ದೇಶ	-7293
▁তুলে	-7294
▁આપવામાં	-7295
▁आमदार	-7296
▁ਪੁਲਿਸ	-7297
ांवर	-7298
▁કલા	-7299
ಣಿ	-7300
▁இந்தியா	-7301
▁चाह	-7302
ધો	-7303
▁ગયો	-7304
▁ਮੌਕੇ	-7305
▁আমার	-7306
▁ଦଳ	-7307
▁യൂ	-7308
▁ഓഫ	-7309
▁ఉద్యో	-7310
▁शर्मा	-7311
▁മി	-7312
▁గుర	-7313
▁पाह	-7314
ബന്ധ	-7315
াগ	-7316
स्थिती	-7317
▁कुल	-7318
▁oper	-7319
▁नई	-7320
▁கல்ல	-7321
র্ক	-7322
▁घेतला	-7323
ുകൊ	-7324
ಜ್ಞ	-7325
▁കൃ	-7326
ળો	-7327
ಿತ್ತು	-7328
▁sw	-7329
সি	-7330
▁પ્રો	-7331
▁security	-7332
▁సభ్య	-7333
▁pass	-7334
▁ਗੱਲ	-7335
▁പ്രസിഡന്റ്	-7336
▁మధ్య	-7337
▁ವಿಶ	-7338
▁समस्या	-7339
▁വിവ	-7340
মতা	-7341
ਡੇ	-7342
aim	-7343
▁ତାଙ୍କ	-7344
તમાં	-7345
▁ମୋ	-7346
▁તરીકે	-7347
▁पवार	-7348
తుంది	-7349
▁गंभीर	-7350
▁दूर	-7351
▁incre	-7352
ാനും	-7353
ెల్యే	-7354
ంకు	-7355
▁സിനി	-7356
▁ગઈ	-7357
▁ಮಾಡಿದ	-7358
▁भूमिका	-7359
ps	-7360
▁ஆண்ட	-7361
▁ಸಂಗ	-7362
विष	-7363
▁नुक	-7364
▁પ્રતિ	-7365
ತ್ಮ	-7366
▁ഫോ	-7367
ंदर	-7368
▁বস	-7369
▁১০	-7370
▁आने	-7371
▁तालुक	-7372
अर	-7373
▁आवा	-7374
▁ਪੀ	-7375
▁ભારતીય	-7376
land	-7377
▁தலைமை	-7378
કડ	-7379
્લા	-7380
▁ശ്രമ	-7381
மதி	-7382
▁লে	-7383
▁ಸ್ಟ	-7384
निधी	-7385
یت	-7386
▁संग	-7387
ത്തര	-7388
▁ਸੂ	-7389
▁அலுவலக	-7390
▁விழா	-7391
ର୍ମ	-7392
ef	-7393
ਵਾਲ	-7394
▁ரூப	-7395
▁कप	-7396
▁മത്സ	-7397
ர்களை	-7398
સ્થા	-7399
ాయం	-7400
മാണ	-7401
ंकि	-7402
▁ಕೇಳ	-7403
▁prom	-7404
েলার	-7405
▁colle	-7406
ರಿಕ	-7407
ોર	-7408
▁बच्च	-7409
▁দেন	-7410
▁स्पष्ट	-7411
श्यक	-7412
ନ୍ତୁ	-7413
▁বিষয়	-7414
▁રહ્યું	-7415
డ్డు	-7416
ায়ে	-7417
ಧಾರ	-7418
▁యూ	-7419
▁jo	-7420
▁प्रवेश	-7421
ୟରେ	-7422
▁ఎమ్మెల్యే	-7423
▁खो	-7424
ीय	-7425
ଯି	-7426
മാക്കി	-7427
▁पहुंच	-7428
▁சூ	-7429
▁मिले	-7430
▁વરસાદ	-7431
ಭವ	-7432
▁prime	-7433
▁చంద్రబాబు	-7434
▁എല്ലാ	-7435
ود	-7436
را	-7437
▁కాంగ	-7438
ષ્ટ્ર	-7439
▁അറ	-7440
ण्यास	-7441
▁হয়েছিল	-7442
▁বাব	-7443
▁পরিবার	-7444
िकेट	-7445
ியது	-7446
▁ਪੈ	-7447
▁ऊ	-7448
জি	-7449
ুঁ	-7450
▁કરવાની	-7451
▁খুব	-7452
▁रेल्वे	-7453
▁ଭାରତ	-7454
బి	-7455
▁રૃ	-7456
ુંબ	-7457
per	-7458
ించుకు	-7459
min	-7460
▁घोषणा	-7461
bi	-7462
તું	-7463
▁हॉ	-7464
ধার	-7465
▁مح	-7466
10	-7467
▁ஒன்ற	-7468
▁फर	-7469
▁वाह	-7470
▁ઉમે	-7471
ਦਿਆਂ	-7472
िये	-7473
▁വിദ്യാര്	-7474
▁പൊലീസ്	-7475
മാനം	-7476
विद्या	-7477
ப்பில்	-7478
હા	-7479
▁अर्	-7480
▁మరి	-7481
▁techn	-7482
▁प्रस्ताव	-7483
▁तत्	-7484
▁எடுக்க	-7485
▁சென்று	-7486
▁ref	-7487
hing	-7488
ोस	-7489
▁आयोजित	-7490
▁স্থান	-7491
▁ಯುವ	-7492
year	-7493
ांड	-7494
ন্ন	-7495
▁கலந்து	-7496
ભાગ	-7497
്വ	-7498
▁ਹੋਰ	-7499
▁রো	-7500
ങ്ങളെ	-7501
युक्त	-7502
▁తది	-7503
▁ਸਿ	-7504
▁মাম	-7505
▁former	-7506
▁इसी	-7507
▁উত্তর	-7508
િક્ષ	-7509
▁অর্থ	-7510
▁मृत्य	-7511
▁ત્યાં	-7512
ock	-7513
▁കോള	-7514
▁രി	-7515
లోకి	-7516
▁development	-7517
ରୀ	-7518
▁അനു	-7519
▁found	-7520
▁राष्ट्रवादी	-7521
▁त्याला	-7522
▁ലി	-7523
▁ಪಡೆಯ	-7524
টাই	-7525
▁கைது	-7526
इल	-7527
स्कार	-7528
▁छात्र	-7529
▁অফ	-7530
ରରେ	-7531
▁पत्नी	-7532
પુ	-7533
▁లు	-7534
দন্ত	-7535
▁শহ	-7536
▁met	-7537
▁ಕೃಷ	-7538
ভাব	-7539
ari	-7540
▁उच्च	-7541
चारी	-7542
▁laun	-7543
▁child	-7544
રની	-7545
▁ఫో	-7546
▁पानी	-7547
▁project	-7548
జన	-7549
ানার	-7550
▁যাবে	-7551
▁மருத்துவம	-7552
▁ਤੱਕ	-7553
▁అభివృ	-7554
▁ಎಂ	-7555
વાસ	-7556
हीर	-7557
▁சார்பில்	-7558
சிர	-7559
▁week	-7560
▁ಇರುವ	-7561
રાંત	-7562
▁ಪಿ	-7563
▁ਕਾਰਨ	-7564
ages	-7565
▁দিকে	-7566
నర్	-7567
▁అన్ని	-7568
ency	-7569
▁खेल	-7570
വനന്ത	-7571
oor	-7572
ഷ്ണ	-7573
നില്	-7574
▁ਮੀ	-7575
▁भु	-7576
▁ପୂର୍	-7577
▁ભર	-7578
र्गत	-7579
પૂ	-7580
▁ವರ	-7581
▁गाय	-7582
▁انہ	-7583
મને	-7584
▁হাত	-7585
▁તૈય	-7586
▁કારણ	-7587
नो	-7588
▁પાંચ	-7589
ਸਾਨ	-7590
ിക്കുന്നത്	-7591
▁70	-7592
▁happ	-7593
▁ਸੋ	-7594
▁wr	-7595
#39	-7596
ମୁ	-7597
ബു	-7598
au	-7599
▁న్యూ	-7600
ಲಿಲ್ಲ	-7601
ద్దు	-7602
▁मंज	-7603
▁వివర	-7604
▁புதிய	-7605
▁same	-7606
▁ایس	-7607
▁કર્	-7608
मेंट	-7609
▁চার	-7610
▁recent	-7611
▁face	-7612
▁ఉప	-7613
തീ	-7614
▁தோ	-7615
▁मतदार	-7616
▁କା	-7617
▁துறை	-7618
▁కాంగ్రెస్	-7619
▁బో	-7620
▁ರಾಷ್ಟ್ರ	-7621
▁ਖੇ	-7622
ക്കള്	-7623
▁ವೆ	-7624
▁ফলে	-7625
साद	-7626
▁ਜੀ	-7627
▁പിന്	-7628
▁പല	-7629
▁ಆರ್	-7630
ମନ୍ତ୍ରୀ	-7631
▁ढ	-7632
▁দ্ব	-7633
▁kill	-7634
റില്	-7635
ଟା	-7636
"".	-7637
ধু	-7638
നും	-7639
▁ಗಾ	-7640
▁వారు	-7641
▁अफ	-7642
▁মন	-7643
▁ve	-7644
▁ଥିବା	-7645
وی	-7646
एल	-7647
▁வாக	-7648
వో	-7649
▁ಮುಖ್ಯಮಂತ್ರಿ	-7650
বর্ত	-7651
ಿಸಿರುವ	-7652
▁ਫ਼	-7653
▁ವಿಷ	-7654
ಿಕೆಟ್	-7655
▁पुन्हा	-7656
-0	-7657
ல்வேறு	-7658
▁பகுதியில்	-7659
शल	-7660
▁నో	-7661
sel	-7662
▁వ్యవ	-7663
ives	-7664
ஸ்ப	-7665
▁संप	-7666
▁દર્	-7667
▁ਹੋਈ	-7668
త్మ	-7669
▁८	-7670
కె	-7671
દાન	-7672
▁ஆய்	-7673
▁ਪਹਿਲਾਂ	-7674
▁क्यों	-7675
▁जनता	-7676
వ్ర	-7677
▁بعد	-7678
ందన్నారు	-7679
द्योग	-7680
മുണ്ട	-7681
▁প্রকাশ	-7682
ಮಾರ	-7683
లేదు	-7684
దన	-7685
▁कला	-7686
▁num	-7687
ण्याच्या	-7688
এর	-7689
ਦਾਰ	-7690
▁ಬರ	-7691
▁கோரி	-7692
▁സീ	-7693
▁രു	-7694
▁திற	-7695
▁pos	-7696
▁വിവാ	-7697
▁குடி	-7698
ന്ത്ര	-7699
▁ವೇ	-7700
▁శి	-7701
▁much	-7702
▁ಒಂದ	-7703
▁കഴ	-7704
▁पदा	-7705
धे	-7706
टले	-7707
ல்லி	-7708
▁ವಿಧಾನ	-7709
େଇ	-7710
▁দি	-7711
▁முதல்வர்	-7712
ലോ	-7713
▁प्रधानमंत्री	-7714
▁జరిగిన	-7715
▁பல்வேறு	-7716
▁হিসে	-7717
ক্ষা	-7718
▁ಬೀ	-7719
▁ಗೋ	-7720
लयात	-7721
ত্ব	-7722
iger	-7723
▁लो	-7724
ിലാ	-7725
▁ಮಂಡ	-7726
▁health	-7727
झे	-7728
▁നടത്തി	-7729
▁இந்நிலையில்	-7730
▁जिले	-7731
▁माजी	-7732
▁ମୁଖ୍ୟ	-7733
▁ਇਲਾ	-7734
▁സൗ	-7735
ਮਾਰ	-7736
▁విడు	-7737
ளா	-7738
▁అం	-7739
ियर	-7740
▁ಭೇ	-7741
▁fac	-7742
▁प्रशासन	-7743
रिक	-7744
▁own	-7745
ெட்	-7746
▁प्रक्र	-7747
ਿਲਾ	-7748
ಂತಹ	-7749
पती	-7750
ക്കാര്	-7751
oney	-7752
▁बहुत	-7753
ਵਾਨ	-7754
▁வள	-7755
ரித்து	-7756
▁ঠিক	-7757
▁camp	-7758
▁ଗୋ	-7759
▁ആരോ	-7760
▁नरेंद्र	-7761
ସନ	-7762
യാണ	-7763
▁जबकि	-7764
▁pat	-7765
▁ठिकाणी	-7766
▁বিশেষ	-7767
▁त्याच्या	-7768
▁ఫి	-7769
رف	-7770
്യൂ	-7771
ರಾದ	-7772
▁వెంక	-7773
▁अगर	-7774
▁ધર	-7775
▁indust	-7776
▁സ്കൂ	-7777
हान	-7778
▁হাজার	-7779
▁పీ	-7780
▁அணி	-7781
ುತ್ತಿರುವ	-7782
రుకు	-7783
▁छा	-7784
▁2013	-7785
▁ಕಾಣ	-7786
▁inform	-7787
▁ہم	-7788
ಿವೃದ್ಧ	-7789
▁ಎರಡು	-7790
▁കാര്	-7791
ਹੁ	-7792
▁புது	-7793
▁కావ	-7794
▁director	-7795
▁days	-7796
▁തിരുവനന്ത	-7797
▁படி	-7798
തും	-7799
ச்சை	-7800
▁ଶ୍ରୀ	-7801
▁ਬੀ	-7802
ക്കാര	-7803
▁ভাবে	-7804
ستان	-7805
▁organ	-7806
▁आत्म	-7807
हेर	-7808
ினர்	-7809
ಜನ	-7810
ತ್ಸ	-7811
▁জানিয়েছেন	-7812
▁comple	-7813
▁ಅಭ್ಯ	-7814
▁ಜೀವ	-7815
ബാ	-7816
▁अं	-7817
મંત્રી	-7818
▁another	-7819
▁ഹാ	-7820
▁নেত	-7821
ખી	-7822
▁చేపట్ట	-7823
्यांच्या	-7824
▁পি	-7825
രിക്കുന്ന	-7826
▁ପି	-7827
▁తీవ్ర	-7828
ദ്ഘ	-7829
राब	-7830
▁ಮಂಗಳ	-7831
▁five	-7832
लावा	-7833
▁ನಾನು	-7834
▁কোনো	-7835
▁sol	-7836
▁ണ്	-7837
েক	-7838
ided	-7839
ృష్ణ	-7840
▁जाणार	-7841
▁வாகன	-7842
ior	-7843
श्च	-7844
ਥਾ	-7845
▁নেতা	-7846
▁चला	-7847
▁৬	-7848
▁પરિવાર	-7849
ಗ್ರ	-7850
▁અં	-7851
▁ഷം	-7852
लब	-7853
▁ഉള്	-7854
▁उम्	-7855
▁मौके	-7856
▁ഇത്	-7857
▁హె	-7858
▁ઉપરાંત	-7859
▁ಹೇಳಿದ್ದಾರೆ	-7860
യാന്	-7861
▁commun	-7862
തം	-7863
ଦେଶ	-7864
▁इतर	-7865
▁గంట	-7866
ಗೌಡ	-7867
▁అత	-7868
कांनी	-7869
▁ముందు	-7870
▁संचा	-7871
ിനു	-7872
▁ব্র	-7873
▁விசாரணை	-7874
বেশ	-7875
▁ಯೋಜನೆ	-7876
சிக	-7877
▁সার	-7878
▁नौ	-7879
▁୨୦	-7880
দিকে	-7881
▁બાબ	-7882
▁सरकारी	-7883
▁ಮೀ	-7884
▁गिरफ्त	-7885
▁தமிழ்	-7886
ಳಿತ	-7887
▁ஆயிர	-7888
ాల్లో	-7889
▁sit	-7890
ନ୍ଧ	-7891
▁চিক	-7892
పల్లి	-7893
▁বন্দ	-7894
▁ಕಲ	-7895
▁जमा	-7896
▁सामना	-7897
▁വീട്ട	-7898
ଚନ	-7899
▁best	-7900
▁তখন	-7901
▁થય	-7902
▁mil	-7903
▁ਕੋਈ	-7904
ியின்	-7905
▁यासाठी	-7906
▁तपास	-7907
ಂಟ್	-7908
ઓની	-7909
▁இல	-7910
▁കാര്യ	-7911
भि	-7912
▁रस्त	-7913
▁അവസ	-7914
கள	-7915
▁import	-7916
ಸ್ಟ್	-7917
ड़क	-7918
ying	-7919
▁ಸಾಲ	-7920
మై	-7921
outh	-7922
▁நேர	-7923
رک	-7924
▁real	-7925
▁என்பது	-7926
▁पाहि	-7927
કરી	-7928
)-	-7929
▁ବିଶ	-7930
సారి	-7931
ିକା	-7932
▁তাঁকে	-7933
▁ਪੱ	-7934
ंत्रा	-7935
ଳରେ	-7936
ગ્ય	-7937
ദ്യോഗ	-7938
ટલી	-7939
ਟੇ	-7940
പ്പം	-7941
लेज	-7942
टु	-7943
స్టు	-7944
▁వచ్చిన	-7945
▁பொதும	-7946
▁ડો	-7947
▁असेल	-7948
▁परिषद	-7949
ਰੋ	-7950
ಾಗಿರುವ	-7951
ದುಕೊಂಡ	-7952
▁સાં	-7953
ger	-7954
▁વિદ્ય	-7955
▁house	-7956
▁এস	-7957
▁मोबा	-7958
▁leaders	-7959
▁गै	-7960
▁பட்ட	-7961
▁खर्च	-7962
ென	-7963
ல்வி	-7964
▁ਅੱਜ	-7965
ரன்	-7966
▁life	-7967
ಕೀಯ	-7968
▁எதிர்	-7969
▁జరుగు	-7970
▁প্রশ্ন	-7971
bers	-7972
▁स्था	-7973
▁ਤੁ	-7974
▁ટ્ર	-7975
▁अड	-7976
▁రే	-7977
▁कान	-7978
▁ਕਾਂ	-7979
▁उत्पा	-7980
▁sim	-7981
▁नाहीत	-7982
▁মন্ত	-7983
▁రు	-7984
निया	-7985
దారు	-7986
ುತ್ತಿದ್ದ	-7987
ured	-7988
▁उद्	-7989
लर	-7990
ರ್ಚ	-7991
పంచ	-7992
सिक	-7993
▁ചാ	-7994
انہ	-7995
യോ	-7996
▁सचिव	-7997
▁ಸೇರಿದಂತೆ	-7998
▁ಮೋದಿ	-7999
▁ટ્રે	-8000
କାଶ	-8001
টার	-8002
্যে	-8003
सोबत	-8004
▁தெரிய	-8005
▁मैच	-8006
▁संजय	-8007
▁ఇవ్వ	-8008
▁బె	-8009
▁थाना	-8010
▁കൂടു	-8011
▁ਅਕ	-8012
గ్గ	-8013
▁ಪೊಲೀಸರು	-8014
▁બંને	-8015
ப்படுத்த	-8016
ਸਪ	-8017
▁থেকেই	-8018
▁જય	-8019
কি	-8020
▁असते	-8021
▁പൂര്	-8022
▁शासना	-8023
ம்பி	-8024
▁आवश्यक	-8025
ेंट	-8026
▁ଦିନ	-8027
भाग	-8028
▁హో	-8029
েরে	-8030
ింది	-8031
থায়	-8032
fect	-8033
▁ಶೇ	-8034
वीर	-8035
▁32	-8036
ତ୍ର	-8037
▁prof	-8038
க்ட	-8039
ুণ	-8040
▁பணி	-8041
▁చాలా	-8042
▁ਹੁਣ	-8043
പ്രായ	-8044
क्षित	-8045
▁आन	-8046
▁ముఖ్యమంత్రి	-8047
▁చర్యలు	-8048
वाह	-8049
वती	-8050
▁പിട	-8051
▁ನಾ	-8052
▁இல்லை	-8053
▁जहां	-8054
ಟ್ರ	-8055
ೆಯೇ	-8056
▁தொடர்ப	-8057
▁ग्र	-8058
లలో	-8059
▁दौ	-8060
பதி	-8061
▁घेतली	-8062
എഫ്	-8063
▁કુ	-8064
▁वेग	-8065
▁mal	-8066
ਵੇਂ	-8067
▁નિર્ણ	-8068
গর	-8069
োচ	-8070
▁સ્વ	-8071
▁பள்ளி	-8072
▁இருக்கும்	-8073
െന്നു	-8074
▁పాఠ	-8075
▁ಅಥ	-8076
▁બિ	-8077
▁சந்தி	-8078
arn	-8079
▁diffe	-8080
▁தூ	-8081
फल	-8082
்ப்ப	-8083
▁अभी	-8084
ೋಗ್ಯ	-8085
ਖੇ	-8086
▁চাই	-8087
#39;	-8088
▁بن	-8089
▁পরিচ	-8090
▁இருப்ப	-8091
्याने	-8092
imes	-8093
ଙ୍କା	-8094
▁maj	-8095
క్షణ	-8096
▁असं	-8097
ించు	-8098
▁अश	-8099
কর	-8100
ಿಸಿದ್ದರು	-8101
▁ಜಿ	-8102
க்கோ	-8103
य़	-8104
▁ವ್ಯಕ್ತ	-8105
ling	-8106
ump	-8107
▁ساتھ	-8108
▁ફરિયા	-8109
▁80	-8110
ഷേ	-8111
▁আন	-8112
▁ആരോപ	-8113
akh	-8114
▁విడుదల	-8115
▁કરશે	-8116
▁વો	-8117
▁ਬਿ	-8118
▁ഉപയോഗ	-8119
ిల్లీ	-8120
ੁਰੂ	-8121
▁હું	-8122
▁મહે	-8123
ച്ചു	-8124
▁శు	-8125
▁रंग	-8126
▁अच्छ	-8127
▁अधिका	-8128
ப்பட்டுள்ளது	-8129
▁அனைத்து	-8130
േള	-8131
▁তর	-8132
▁ખેડૂ	-8133
▁गयी	-8134
▁पूरी	-8135
▁lar	-8136
▁মাল	-8137
▁നെ	-8138
ਪਰ	-8139
ুষ্ঠ	-8140
ସ୍ଥ	-8141
াক্ত	-8142
र्ष	-8143
ించడం	-8144
▁ହେଉ	-8145
विधा	-8146
▁અલ	-8147
▁മുതല്	-8148
▁பேச	-8149
ather	-8150
டைந்த	-8151
▁यश	-8152
▁দেশের	-8153
▁അഞ്ച	-8154
களுக்கு	-8155
ডি	-8156
▁तक्र	-8157
▁પ્રમા	-8158
▁ಪ್ರತ	-8159
شت	-8160
▁किसान	-8161
▁अनि	-8162
േക്ക	-8163
mi	-8164
▁इसमें	-8165
ம்ம	-8166
▁put	-8167
നോ	-8168
കം	-8169
▁ਰੱਖ	-8170
भू	-8171
▁वेळ	-8172
ায়গ	-8173
ঙ্গল	-8174
▁இணை	-8175
સિંહ	-8176
▁ਰੁਪ	-8177
▁చేయాలని	-8178
ल्याचे	-8179
ys	-8180
ଞ୍	-8181
ಿಸಿಕೊಳ್ಳ	-8182
▁വരെ	-8183
▁निवासी	-8184
▁బాల	-8185
पति	-8186
▁‘	-8187
કારે	-8188
▁ਮੈਂ	-8189
▁ചേര്	-8190
ুড়	-8191
್ವ	-8192
▁कहना	-8193
▁ಇಂದು	-8194
ुस्थान	-8195
▁ಪೊಲೀಸ್	-8196
▁क्रिकेट	-8197
▁nor	-8198
സ്ത	-8199
ांब	-8200
▁asked	-8201
মের	-8202
▁ਹੁੰ	-8203
नं	-8204
▁కుటు	-8205
▁આધ	-8206
నాలు	-8207
▁વડા	-8208
▁துணை	-8209
▁इंडिया	-8210
മര്	-8211
ரவ	-8212
▁आपण	-8213
આઈ	-8214
▁குழந்த	-8215
▁আবার	-8216
▁सुबह	-8217
ேய	-8218
▁ഇതിന	-8219
▁உண	-8220
दीप	-8221
ನಲ್ಲಿ	-8222
▁ચાર	-8223
▁மின்	-8224
▁জীব	-8225
▁নার	-8226
گی	-8227
▁interest	-8228
▁ଓଡ଼ି	-8229
▁ਪਿੰਡ	-8230
वेदन	-8231
por	-8232
▁still	-8233
▁ನಿಯ	-8234
▁going	-8235
▁નવા	-8236
▁જરૂ	-8237
▁ಕಂಡ	-8238
▁കണ്ടെ	-8239
னார்	-8240
▁ਖ਼	-8241
ାରଣ	-8242
▁અનેક	-8243
▁number	-8244
used	-8245
ರ್ಮ	-8246
▁ନିଜ	-8247
▁अभिया	-8248
▁अर	-8249
▁ਫਿਲਮ	-8250
▁મોટા	-8251
▁पिछले	-8252
▁മറ	-8253
▁దర్శ	-8254
लाव	-8255
▁হিসেবে	-8256
েনে	-8257
টের	-8258
पणे	-8259
ொரு	-8260
▁pm	-8261
▁തട	-8262
▁pa	-8263
काळ	-8264
▁धर	-8265
▁రైతు	-8266
▁चित्रपट	-8267
▁नजर	-8268
▁અર	-8269
▁ভালো	-8270
ament	-8271
రకు	-8272
▁पंत	-8273
▁जवा	-8274
be	-8275
ధిక	-8276
▁கடை	-8277
▁నీటి	-8278
▁ತೆರ	-8279
ମାନଙ୍କ	-8280
▁வாய	-8281
ുപത്രി	-8282
माल	-8283
્યૂ	-8284
▁place	-8285
ਤਾਰ	-8286
▁ಮಾಜಿ	-8287
▁ಮಕ್ಕಳ	-8288
ంటర్	-8289
ക്ടര്	-8290
तम	-8291
▁மொ	-8292
ಮುಖ	-8293
મુખ	-8294
▁ਬੇ	-8295
▁মহিল	-8296
ದ್ದು	-8297
ੱਟ	-8298
▁ರೈತ	-8299
▁कौ	-8300
ையடுத்து	-8301
▁తప్ప	-8302
▁ਹੋਵੇ	-8303
ബര്	-8304
▁হাতে	-8305
.'	-8306
జెక్	-8307
ूण	-8308
▁പറഞ്ഞ	-8309
▁లేదు	-8310
சிரிய	-8311
▁ಸೂಚ	-8312
చ్చు	-8313
▁केलेल्या	-8314
▁ಪ್ರತಿಭ	-8315
ाने	-8316
ಆರ್	-8317
▁അഭിപ്രായ	-8318
ପତି	-8319
றிய	-8320
કોટ	-8321
সভা	-8322
▁વિદ્યાર્થી	-8323
▁"(1	-8324
हरू	-8325
ାରା	-8326
▁পৌ	-8327
ளிடம்	-8328
বেদ	-8329
▁ਮੁੱਖ	-8330
ிட	-8331
▁ఎన్	-8332
▁million	-8333
ষ্ট্র	-8334
▁ಬಿಡುಗ	-8335
போது	-8336
लू	-8337
दम	-8338
▁చేస్త	-8339
ിലേക്ക്	-8340
▁જગ	-8341
▁ഹൈ	-8342
িউ	-8343
▁ਲਿਆ	-8344
வ்வ	-8345
▁ਪਾਰਟੀ	-8346
வரை	-8347
▁କହିଛନ୍ତି	-8348
લિક	-8349
াস্থ	-8350
▁मोठ्या	-8351
ising	-8352
▁ತರ	-8353
▁ऑन	-8354
ಲೂ	-8355
▁ठेव	-8356
▁प्रत्येक	-8357
▁रिपोर्ट	-8358
▁వైద్య	-8359
ବାଦ	-8360
go	-8361
▁প্রার্থ	-8362
▁ಲೋಕ	-8363
▁रेल	-8364
▁आयु	-8365
દન	-8366
రువు	-8367
ன்க	-8368
வரும்	-8369
▁భారీ	-8370
▁द्या	-8371
ారెడ్డి	-8372
ദ്ഘാട	-8373
▁എന്നിവര്	-8374
▁ఎదు	-8375
▁গ্রে	-8376
▁அப்போது	-8377
ায়ী	-8378
▁স্প	-8379
umbai	-8380
ഡിയ	-8381
വിലെ	-8382
▁நீதிமன்ற	-8383
▁ନିର୍ବା	-8384
▁కార్యదర్శ	-8385
ार्ड	-8386
ਜਿ	-8387
हेब	-8388
▁કપ	-8389
▁"(2	-8390
▁ನಟ	-8391
ବୀ	-8392
▁पक	-8393
▁രാഷ്ട്ര	-8394
▁തീരുമാന	-8395
▁এলাকায়	-8396
െടുത്ത	-8397
▁ज्	-8398
ପରି	-8399
▁ಸಂದರ್ಭ	-8400
ળે	-8401
▁விடு	-8402
ହିତ	-8403
▁९	-8404
▁नोंद	-8405
ague	-8406
વણી	-8407
ਜ਼ਰ	-8408
▁மட்டு	-8409
▁media	-8410
ੜੀ	-8411
▁यांचे	-8412
▁కార్యాల	-8413
▁వచ్చే	-8414
ষ্ঠ	-8415
ਕਾਂ	-8416
கே	-8417
▁সম্ভ	-8418
▁school	-8419
काम	-8420
ಳಿದ	-8421
▁૬	-8422
रोबर	-8423
▁शिक्षा	-8424
▁ইউ	-8425
▁جن	-8426
ومت	-8427
▁मुताब	-8428
मीन	-8429
த்திர	-8430
ਮਾਨ	-8431
हरी	-8432
▁બીજી	-8433
▁તાલુ	-8434
▁संश	-8435
▁अख	-8436
▁अर्ज	-8437
▁ಅಭಿ	-8438
ിലാണ്	-8439
▁व्हा	-8440
▁বর	-8441
ଟର	-8442
সল	-8443
▁val	-8444
▁જવાબ	-8445
▁કુલ	-8446
▁sk	-8447
ূর্ণ	-8448
▁ರೂಪ	-8449
▁সেখানে	-8450
ष्ण	-8451
বাব	-8452
rend	-8453
ায়ক	-8454
▁मुताबिक	-8455
ହେ	-8456
▁જૂ	-8457
▁பிரி	-8458
▁45	-8459
পার	-8460
▁மாத	-8461
தான்	-8462
▁पक्षा	-8463
▁appe	-8464
▁ಪ್ರಶ್	-8465
ികളുടെ	-8466
▁ಎದು	-8467
▁sat	-8468
ಿಸಬೇಕು	-8469
িয়ার	-8470
వల	-8471
▁ಎನ್ನುವ	-8472
मीद	-8473
ரீ	-8474
ಾಗಿದ್ದು	-8475
▁taken	-8476
ವಸ್ಥ	-8477
চ্চ	-8478
▁ਮਾ	-8479
▁বহ	-8480
ਧੀ	-8481
atch	-8482
▁मीडिया	-8483
cept	-8484
▁पड़	-8485
িটি	-8486
ोत्	-8487
▁main	-8488
▁পাঠ	-8489
▁યુવ	-8490
▁జిల్లాలో	-8491
▁એટલે	-8492
وری	-8493
▁তাঁরা	-8494
▁ٹی	-8495
▁करण्याची	-8496
▁സൈ	-8497
బీ	-8498
▁ir	-8499
▁കൂട്ട	-8500
▁સફ	-8501
▁उनका	-8502
▁ചര്	-8503
▁போது	-8504
▁મોત	-8505
▁ತೆಗೆ	-8506
▁পদ	-8507
▁கூட	-8508
▁জল	-8509
▁क्रम	-8510
ટક	-8511
▁जाती	-8512
ches	-8513
द्धा	-8514
▁ಒಳ	-8515
ലീസ	-8516
▁कर्मचारी	-8517
▁अभिने	-8518
▁ಕರೆ	-8519
▁जाहीर	-8520
▁होईल	-8521
ness	-8522
▁வைத்து	-8523
ांक	-8524
▁ఉద	-8525
ھر	-8526
▁(5	-8527
യില്ല	-8528
▁ਚੋਣ	-8529
▁ਰੁਪਏ	-8530
▁oneindia	-8531
▁تع	-8532
▁কেউ	-8533
▁এদিন	-8534
िकी	-8535
▁لو	-8536
▁நிலைய	-8537
▁നഗ	-8538
েন্দ	-8539
stem	-8540
▁ഉദ്ഘാട	-8541
بی	-8542
▁కానీ	-8543
arat	-8544
▁તાલુકા	-8545
▁ऐसा	-8546
▁দেখে	-8547
▁among	-8548
िज	-8549
ts	-8550
▁થી	-8551
▁સૂ	-8552
▁ತು	-8553
▁ഗ്രസ്	-8554
▁জাত	-8555
ंडी	-8556
ಜಯ	-8557
োর্ট	-8558
ணைய	-8559
▁কেন্দ্র	-8560
▁ಕುಮಾರ್	-8561
▁prev	-8562
▁ಮಾರ್	-8563
ਤਾਨ	-8564
▁requ	-8565
▁claim	-8566
▁अलावा	-8567
ੰਗ	-8568
ಕ್ಕಾಗಿ	-8569
எல்	-8570
▁ആശുപത്രി	-8571
▁fur	-8572
▁দেয়	-8573
▁રહેશે	-8574
▁ਰੋ	-8575
▁विधानसभा	-8576
▁पंचायत	-8577
▁وز	-8578
▁ସୂ	-8579
▁માંગ	-8580
.00	-8581
▁সভাপ	-8582
▁ভারতীয়	-8583
▁मिला	-8584
టా	-8585
▁ભાગ	-8586
▁हों	-8587
വാസ	-8588
ମେ	-8589
▁terror	-8590
▁సూచ	-8591
▁ਲਗਾ	-8592
▁mah	-8593
▁തല	-8594
▁ಸೌ	-8595
ధాని	-8596
▁கோடி	-8597
▁tri	-8598
▁ಕುರಿತು	-8599
▁മാന	-8600
▁करे	-8601
▁আট	-8602
लिया	-8603
▁ਵਾਰ	-8604
▁परीक्षा	-8605
முறை	-8606
ਜਾ	-8607
▁glob	-8608
▁ਕੰਮ	-8609
▁ಕಡಿ	-8610
▁इसे	-8611
ವೂ	-8612
▁பிரத	-8613
▁எந்த	-8614
డుతున్న	-8615
▁ಮಿ	-8616
্লে	-8617
▁संत	-8618
sh	-8619
खर	-8620
▁कोर्ट	-8621
▁प्रकाश	-8622
▁আব	-8623
▁மனு	-8624
ಟೆ	-8625
যুক্ত	-8626
▁અમેર	-8627
اف	-8628
▁पत्रकार	-8629
ઓએ	-8630
▁stand	-8631
▁few	-8632
ದ್ರ	-8633
▁ಅಭ್ಯರ್ಥ	-8634
▁কাল	-8635
ross	-8636
▁pun	-8637
▁స్వ	-8638
લ્ડ	-8639
▁कार्र	-8640
▁ઝડ	-8641
િતા	-8642
ೂರ್ಣ	-8643
▁కార్యక్రమంలో	-8644
▁ലൈ	-8645
▁ધાર	-8646
▁வேலை	-8647
ੜੇ	-8648
na	-8649
▁meeting	-8650
▁ಇದೇ	-8651
মি	-8652
▁પાછ	-8653
▁గ్రా	-8654
புரம்	-8655
▁धो	-8656
▁टाक	-8657
▁मिली	-8658
▁اپنے	-8659
ਪਾ	-8660
ंगी	-8661
ention	-8662
io	-8663
క్స్	-8664
రూ	-8665
▁ವ್ಯಾ	-8666
करणी	-8667
▁छो	-8668
▁ಬಂಧ	-8669
▁ശേഷം	-8670
િસ	-8671
▁વિશ્	-8672
றித்து	-8673
▁मुद्	-8674
प्प	-8675
▁بر	-8676
▁ಅಥವಾ	-8677
umar	-8678
োপাধ্যায়	-8679
ಳೆಯ	-8680
▁ವಿವಿ	-8681
▁আত	-8682
यं	-8683
▁વધારે	-8684
▁कर्ज	-8685
ाराज	-8686
▁छन्	-8687
wal	-8688
সম	-8689
▁ಹೇ	-8690
▁does	-8691
▁െ	-8692
hor	-8693
▁വന്ന	-8694
▁संबंधित	-8695
▁୪	-8696
▁ಅಗ	-8697
▁demand	-8698
▁बच्	-8699
▁குற்ற	-8700
▁ਵਲੋਂ	-8701
▁भेट	-8702
▁مق	-8703
▁लगे	-8704
ರ್ಯ	-8705
▁തെരഞ്ഞെടു	-8706
ುತ್ತದೆ	-8707
▁પ્રથમ	-8708
▁গেল	-8709
▁secret	-8710
lier	-8711
▁शिक्षण	-8712
▁তদন্ত	-8713
▁అభి	-8714
▁केवळ	-8715
▁ମହା	-8716
▁कार्रवाई	-8717
▁रोड	-8718
▁મુદ્	-8719
▁ପକ୍ଷ	-8720
કલ	-8721
▁too	-8722
▁ప్రమా	-8723
▁୫	-8724
▁భాగ	-8725
▁dev	-8726
▁ಶಾ	-8727
▁near	-8728
ମ୍ଭ	-8729
ave	-8730
▁શ્રી	-8731
માર	-8732
ிகளை	-8733
▁चीन	-8734
ract	-8735
▁members	-8736
▁નિર્ણય	-8737
▁সিদ্ধ	-8738
ുമെന്ന്	-8739
▁198	-8740
ಚಿ	-8741
▁தீர்	-8742
▁ప్రజా	-8743
▁ప్రస్తుతం	-8744
యర్	-8745
तान	-8746
▁ମିଳି	-8747
▁در	-8748
▁यांचा	-8749
ठे	-8750
▁ಚುನಾವಣೆ	-8751
▁దీని	-8752
▁commission	-8753
▁percent	-8754
▁ਭਾਰਤ	-8755
వె	-8756
▁ಪಂಚ	-8757
▁ప్రాజెక్	-8758
ষ্টা	-8759
ంగళ	-8760
க்கில்	-8761
▁गेले	-8762
▁దే	-8763
▁ਭਾ	-8764
▁di	-8765
▁കര്	-8766
টির	-8767
গুলো	-8768
▁ଅବ	-8769
েরা	-8770
▁फोन	-8771
▁ಸಾವಿರ	-8772
▁અત	-8773
▁money	-8774
मीर	-8775
▁স্ত	-8776
tle	-8777
ਡਾ	-8778
▁போன்ற	-8779
▁ଆର	-8780
तून	-8781
વાન	-8782
▁ହୋଇଛି	-8783
osp	-8784
ued	-8785
୍ୱର	-8786
ஷ்ண	-8787
ಿತರ	-8788
బో	-8789
ફો	-8790
▁اع	-8791
▁ਮਹ	-8792
ടന	-8793
▁ஸ்	-8794
▁ಸುದ್ದ	-8795
▁आम्ही	-8796
ோடு	-8797
▁move	-8798
▁कल	-8799
▁bro	-8800
▁ವಾಹ	-8801
▁മീ	-8802
▁coun	-8803
▁प्राप्त	-8804
ama	-8805
▁समर्थ	-8806
▁పాల	-8807
▁சிறப்பு	-8808
દરા	-8809
▁given	-8810
க்கப்பட்டுள்ளது	-8811
▁ખૂ	-8812
▁જેના	-8813
ੰਬਰ	-8814
્લે	-8815
न्ही	-8816
▁केंद्रीय	-8817
▁plan	-8818
▁बनाने	-8819
ത്തിലാണ്	-8820
ज़	-8821
▁പ്	-8822
▁ఇది	-8823
ges	-8824
▁announ	-8825
ாள்	-8826
▁പേര്	-8827
▁across	-8828
▁bre	-8829
▁ਆਈ	-8830
ులకు	-8831
ूरी	-8832
▁राय	-8833
wh	-8834
ंबा	-8835
king	-8836
நீர்	-8837
▁দাঁ	-8838
▁वहां	-8839
▁बाहर	-8840
▁મળે	-8841
زی	-8842
▁भने	-8843
ంధ్ర	-8844
▁depart	-8845
▁त्य	-8846
▁शिवसेने	-8847
▁net	-8848
ഷേധ	-8849
दै	-8850
▁ଆଜି	-8851
▁କ୍	-8852
एफ	-8853
મ્પ	-8854
ploy	-8855
▁ഭൂ	-8856
▁ജില്ല	-8857
▁niger	-8858
டியாக	-8859
▁ذ	-8860
▁করছে	-8861
▁ചില	-8862
▁தண்ண	-8863
രംഭ	-8864
ಿದ್ಧ	-8865
▁ਸ਼ੁਰੂ	-8866
▁major	-8867
▁ಆಸ್ಪ	-8868
▁ٹ	-8869
کر	-8870
▁पंतप्र	-8871
▁மழை	-8872
▁اف	-8873
▁കേസ	-8874
▁ಪದ	-8875
▁ਪਿ	-8876
▁తెలుగు	-8877
▁అనంతరం	-8878
▁സിനിമ	-8879
▁वाहत	-8880
நீ	-8881
▁उम्मीद	-8882
▁చేసింది	-8883
▁ಪಕ್ಷದ	-8884
adesh	-8885
▁ਪੂ	-8886
କ୍ତି	-8887
াপা	-8888
els	-8889
دار	-8890
ണമെന്ന്	-8891
యోగ	-8892
▁ನಾಯಕ	-8893
▁water	-8894
▁ഗോ	-8895
ೀನ	-8896
▁തിരിച്ച	-8897
▁കള	-8898
▁आया	-8899
००	-8900
ରଣ	-8901
इट	-8902
▁ఆది	-8903
वाला	-8904
▁bar	-8905
▁तैयार	-8906
मार्ट	-8907
ield	-8908
▁students	-8909
মিক	-8910
స్తుంది	-8911
▁అన్న	-8912
▁શહેર	-8913
▁polic	-8914
▁करणे	-8915
▁మొత్త	-8916
▁لئے	-8917
ંદિ	-8918
దం	-8919
ural	-8920
▁ಸಾಧ	-8921
▁کم	-8922
▁காலை	-8923
▁উঠে	-8924
▁આરોપી	-8925
यारी	-8926
▁ଘଟ	-8927
▁उसकी	-8928
▁കാല	-8929
▁contro	-8930
▁కోట్ల	-8931
▁தனது	-8932
▁காய	-8933
ಲೆಯಲ್ಲಿ	-8934
▁सरकारने	-8935
મમાં	-8936
▁যান	-8937
ത്തിയത്	-8938
▁నె	-8939
▁கீ	-8940
▁മൊ	-8941
ாரம்	-8942
▁मार्च	-8943
ట్టుకు	-8944
▁தேர்வு	-8945
▁सुरुवात	-8946
mit	-8947
োভ	-8948
▁শুধু	-8949
▁won	-8950
▁பள்ள	-8951
▁മാറ്റ	-8952
▁অনুষ্ঠ	-8953
ଗୁ	-8954
▁ಬು	-8955
▁ଯା	-8956
শ্য	-8957
▁కొన	-8958
▁धन	-8959
▁ಅಭಿವೃದ್ಧ	-8960
ಟುಂಬ	-8961
▁વ્યક્તિ	-8962
▁ఉపా	-8963
▁appro	-8964
ବାରୁ	-8965
▁విక	-8966
▁ವಿಶೇಷ	-8967
▁தங்க	-8968
▁ਕੀਤੇ	-8969
ற்காக	-8970
▁لیے	-8971
লায়	-8972
▁పేర్కొన్నారు	-8973
▁आदी	-8974
▁സ്വീക	-8975
▁പരിശോധ	-8976
▁৭	-8977
▁కుమార్	-8978
br	-8979
പ്പെട്ടു	-8980
▁हालांकि	-8981
▁महत्त्	-8982
▁کام	-8983
▁खरे	-8984
ಾರಿಯ	-8985
▁नाव	-8986
▁family	-8987
▁took	-8988
హం	-8989
▁ਹਾ	-8990
▁அது	-8991
▁further	-8992
▁अधिकारियों	-8993
▁மேற்கொ	-8994
▁દો	-8995
▁நிலை	-8996
▁ಸರಕಾರ	-8997
▁என்றார்	-8998
▁அதிமுக	-8999
ിച്ചിട്ട	-9000
ರಂದು	-9001
ways	-9002
▁স্থানীয়	-9003
േഖല	-9004
▁ਕਾ	-9005
▁वज	-9006
চ্ছেন	-9007
ರಾಮಯ್ಯ	-9008
▁૨૦૧	-9009
▁సీఎం	-9010
ड्	-9011
▁बिहार	-9012
▁அடுத்த	-9013
ட்டும்	-9014
കോ	-9015
▁season	-9016
▁ഇന്ന	-9017
ણમાં	-9018
▁ಒತ್ತ	-9019
▁ಟಿ	-9020
▁స్థాని	-9021
▁பெற்று	-9022
सल	-9023
▁غ	-9024
ಾರಿಗೆ	-9025
ాలతో	-9026
லிதா	-9027
▁இற	-9028
▁ਅਨ	-9029
லூர்	-9030
▁ಇಲಾಖೆ	-9031
▁ਚੁੱ	-9032
▁सामान	-9033
ਾਨੂੰ	-9034
▁ಸಮಸ್ಯೆ	-9035
ంటున్న	-9036
લું	-9037
▁সেন	-9038
▁দী	-9039
তের	-9040
▁மன	-9041
▁પ્રે	-9042
▁साध	-9043
▁ತಿಳಿಸಿದರು	-9044
എല്	-9045
▁dri	-9046
▁হওয়ার	-9047
ਟਾ	-9048
▁ત્યાર	-9049
ീല	-9050
ains	-9051
િયો	-9052
▁गुजर	-9053
ുകളും	-9054
▁حکومت	-9055
▁அதிகாரிகள்	-9056
▁due	-9057
▁ಅತ್ಯ	-9058
▁രംഗ	-9059
ંકા	-9060
▁பயன்ப	-9061
ખ્યા	-9062
ಕ್ಕಿ	-9063
▁உரு	-9064
ಗ್ಗ	-9065
മ്ബോള്	-9066
▁کرتے	-9067
ering	-9068
▁আদাল	-9069
்து	-9070
▁வேண்ட	-9071
▁ಕಟ್ಟ	-9072
▁ଭାବେ	-9073
▁വാഹ	-9074
▁current	-9075
ত্যা	-9076
▁think	-9077
चान	-9078
शु	-9079
ിക്കുന്നു	-9080
▁ಪಡೆದ	-9081
రులు	-9082
▁level	-9083
ગત	-9084
▁तहत	-9085
▁চিকিত্	-9086
▁କେନ୍ଦ୍ର	-9087
ార్డు	-9088
▁হাম	-9089
▁came	-9090
▁अटक	-9091
▁હતાં	-9092
..!	-9093
ઠા	-9094
▁வல	-9095
▁मला	-9096
രിപ്പ	-9097
قی	-9098
▁വിശ	-9099
▁ਕਈ	-9100
▁earlier	-9101
ੁਕ	-9102
ಡಿಎಸ್	-9103
ished	-9104
▁issue	-9105
▁आंदोलन	-9106
▁எடுத்து	-9107
▁जण	-9108
▁process	-9109
माणे	-9110
દર્	-9111
▁പറയുന്നു	-9112
▁तरु	-9113
▁બોલ	-9114
قت	-9115
ିର	-9116
▁ক্ষে	-9117
▁రంగ	-9118
▁അതി	-9119
గింది	-9120
ology	-9121
aining	-9122
وج	-9123
ಸ್ವಾಮಿ	-9124
▁ਕਾਂਗਰ	-9125
▁પડી	-9126
▁mr	-9127
▁ರಸ್	-9128
▁ਆਪਣੀ	-9129
▁છેલ્લા	-9130
▁perform	-9131
▁south	-9132
शिक	-9133
ल्हा	-9134
கிறது	-9135
▁ਸਮੇਂ	-9136
ವರಿಗೆ	-9137
ਪੁਰ	-9138
▁உயர்	-9139
▁સ્પ	-9140
▁मतदान	-9141
▁सवाल	-9142
▁চা	-9143
పూర్	-9144
ిల్ల	-9145
্রু	-9146
▁நடத்தி	-9147
ଯାଇଛି	-9148
▁निवडणूक	-9149
▁राजकीय	-9150
ത്തിനു	-9151
▁ஸ்ட	-9152
▁फैस	-9153
▁--	-9154
▁પાર્ટી	-9155
▁সদস্য	-9156
വേ	-9157
ides	-9158
▁कुटु	-9159
રૃ	-9160
நிலை	-9161
▁वार	-9162
▁रुपए	-9163
▁ચાલ	-9164
▁તેમાં	-9165
ल्स	-9166
▁শর	-9167
ியுள்ளது	-9168
ୋଧ	-9169
ंदाज	-9170
▁دیا	-9171
ణ్	-9172
▁వల్ల	-9173
▁મુંબ	-9174
പക്ഷ	-9175
▁उठा	-9176
செ	-9177
▁శాతం	-9178
▁యువ	-9179
▁tax	-9180
▁ആക്രമ	-9181
▁કરતાં	-9182
హా	-9183
രുന്നത്	-9184
চ্ছ	-9185
▁ਸਬੰਧ	-9186
నించ	-9187
സമ	-9188
ুখ	-9189
▁ରହିଛି	-9190
▁অবস্থ	-9191
▁let	-9192
ளம்	-9193
ଚ୍ଚ	-9194
▁ರಾಮ	-9195
▁ଠ	-9196
പ്പോഴ	-9197
ల్సిన	-9198
▁league	-9199
▁alleged	-9200
▁उम	-9201
▁आपको	-9202
ನ್ಸ್	-9203
રને	-9204
ంట్	-9205
▁six	-9206
▁khan	-9207
▁അത്	-9208
▁ಅವಕಾಶ	-9209
▁सामा	-9210
▁કેટલાક	-9211
லர்	-9212
▁বিজেপির	-9213
லலிதா	-9214
उन	-9215
▁far	-9216
மர்	-9217
▁ਡਾ	-9218
க்த	-9219
pr	-9220
யில	-9221
▁ಹಿಂದೆ	-9222
ಂಕ್	-9223
ेंद	-9224
ികളെ	-9225
▁மதி	-9226
੍ਹਾ	-9227
പാട	-9228
▁تک	-9229
यू	-9230
जि	-9231
ഹ്	-9232
▁प्रदर्शन	-9233
▁जिसमें	-9234
▁فی	-9235
बाज	-9236
ಪಟ್ಟ	-9237
కపోవ	-9238
pected	-9239
▁याबाबत	-9240
▁জায়গ	-9241
▁ಬದಲ	-9242
্বে	-9243
▁ಜಯ	-9244
બો	-9245
▁મોટી	-9246
▁రెండ	-9247
▁rev	-9248
▁political	-9249
▁प्रक्रिया	-9250
▁സ്ഥാപ	-9251
క్షి	-9252
▁కని	-9253
▁بہ	-9254
▁పూ	-9255
▁શું	-9256
▁તેવી	-9257
▁குழந்தை	-9258
▁system	-9259
▁মুখ্যমন্ত্রী	-9260
ುವಂತೆ	-9261
▁sector	-9262
▁result	-9263
▁నమో	-9264
▁ব্যক্ত	-9265
▁அவர	-9266
્રીય	-9267
चल	-9268
▁ଆସି	-9269
▁ଗା	-9270
▁பங்கே	-9271
▁തിരുവനന്തപുരം	-9272
িত্র	-9273
▁அக	-9274
▁పథ	-9275
ಾಗಿದ್ದಾರೆ	-9276
▁सुविधा	-9277
േഷ്	-9278
ണ്ഡ	-9279
▁গুরু	-9280
▁సర	-9281
▁ಉತ್ತಮ	-9282
▁উদ্ধ	-9283
▁ಇನ್ನ	-9284
▁ପୂର୍ବ	-9285
▁चंद्र	-9286
▁art	-9287
▁मौजूद	-9288
ించేందుకు	-9289
▁ಸುಮ	-9290
▁സമീപ	-9291
াড়ি	-9292
तन	-9293
▁statement	-9294
डि	-9295
ricket	-9296
kh	-9297
▁టి	-9298
खाली	-9299
▁खबर	-9300
▁মাধ্য	-9301
▁કોર્	-9302
▁ನಾಗ	-9303
यान	-9304
રેક	-9305
▁सोड	-9306
▁संस्था	-9307
arch	-9308
▁univers	-9309
▁நாள	-9310
▁ನಡುವ	-9311
াকি	-9312
লেই	-9313
തല	-9314
▁road	-9315
াকার	-9316
▁suc	-9317
▁പൂ	-9318
▁அமைச்சர்	-9319
ਖਿਆ	-9320
விர	-9321
▁ಹೈ	-9322
ങ്ങനെ	-9323
ക്തി	-9324
▁మంచి	-9325
డాది	-9326
গে	-9327
▁মিল	-9328
াত্রী	-9329
▁സ്വാ	-9330
க்கப்பட்டது	-9331
▁నగర	-9332
▁ଉପରେ	-9333
▁संस्थ	-9334
ழுவ	-9335
▁വെള്ള	-9336
વાલ	-9337
▁दूसरे	-9338
▁మూడు	-9339
▁जीवन	-9340
af	-9341
▁आयोजन	-9342
ేశారు	-9343
▁ವ್ಯವಸ್ಥ	-9344
ೊಡ	-9345
▁partic	-9346
কম	-9347
्ये	-9348
▁आगे	-9349
▁ప్రకట	-9350
▁હુમ	-9351
▁ఎక్కువ	-9352
▁game	-9353
▁উল	-9354
▁ನಿರ್ಮಾಣ	-9355
cl	-9356
یاست	-9357
▁கட்சி	-9358
▁கல்லூ	-9359
ദു	-9360
▁पुरा	-9361
▁माझ	-9362
▁સરકારે	-9363
రెడ్డి	-9364
▁ਜਨ	-9365
▁ബിജെ	-9366
▁ఆదేశ	-9367
▁जन्	-9368
abad	-9369
▁ಬಾರಿ	-9370
itter	-9371
▁(6	-9372
اج	-9373
▁প্রা	-9374
▁ಬೆಳೆ	-9375
गम	-9376
તુ	-9377
▁পাকিস্ত	-9378
▁परिणा	-9379
ழக	-9380
▁ഘ	-9381
▁મેચ	-9382
▁कराय	-9383
▁स्वी	-9384
▁मामला	-9385
ാസ്	-9386
▁36	-9387
▁present	-9388
▁ਹਾਲ	-9389
▁mumbai	-9390
▁చో	-9391
▁करण्याचा	-9392
ched	-9393
ल्यानंतर	-9394
▁ਮਾਰ	-9395
▁રોડ	-9396
▁ହେବ	-9397
▁समित	-9398
▁હોવાનું	-9399
,5	-9400
▁var	-9401
▁বাজ	-9402
▁पैसे	-9403
▁விஜ	-9404
▁കൊല്ല	-9405
▁शेतकरी	-9406
ಿದು	-9407
▁শিশ	-9408
▁জয়	-9409
ಖ್ಯ	-9410
▁हाल	-9411
ୋର୍	-9412
ెన్	-9413
కుల	-9414
ंदे	-9415
▁تھے	-9416
ience	-9417
બાદ	-9418
mir	-9419
પણ	-9420
▁ತಿಳಿಸಿದ್ದಾರೆ	-9421
▁ਕਰਵਾ	-9422
▁વિશે	-9423
▁wed	-9424
్లా	-9425
▁मंगल	-9426
▁সক	-9427
बंदी	-9428
ಭಾಗ	-9429
▁ಬಹು	-9430
▁ਹੋਇਆ	-9431
▁ಕುಟುಂಬ	-9432
▁பிடி	-9433
▁செயல்ப	-9434
▁सप्	-9435
बाब	-9436
▁सै	-9437
▁leader	-9438
▁ફરિયાદ	-9439
ేమ	-9440
ਹਿਰ	-9441
▁પક્ષ	-9442
க்கிழமை	-9443
ണിയ	-9444
▁बाल	-9445
▁कार्यालय	-9446
సింది	-9447
ైన్	-9448
▁(20	-9449
▁ভারতের	-9450
నివా	-9451
விட	-9452
▁என்றும்	-9453
▁લેવા	-9454
ಿಸ್ತ	-9455
▁vot	-9456
வதாக	-9457
▁കമ്മി	-9458
ਸਤ	-9459
▁ఇప్పటిక	-9460
▁ସ୍ଥାନ	-9461
સ્પિટ	-9462
▁ખાન	-9463
▁തൊഴ	-9464
▁ஊழ	-9465
▁সিদ্ধান্ত	-9466
▁ഇവിടെ	-9467
▁வய	-9468
ired	-9469
ten	-9470
▁१९	-9471
▁ਸਾਹਿ	-9472
▁ഇരു	-9473
▁use	-9474
লি	-9475
▁along	-9476
▁കൂടുതല്	-9477
▁sus	-9478
തെന്ന്	-9479
▁cand	-9480
కరణ	-9481
▁land	-9482
শন	-9483
▁સાર	-9484
▁जीत	-9485
▁ಉತ್ತರ	-9486
▁అర	-9487
▁व्यक्ति	-9488
োঁ	-9489
wards	-9490
▁कॅ	-9491
પ્રધાન	-9492
રાવ	-9493
▁આમ	-9494
रुद्ध	-9495
મ્બર	-9496
क्ति	-9497
▁പാല	-9498
சை	-9499
ियम	-9500
णारी	-9501
▁দেওয়ার	-9502
ീര്	-9503
ೀಪ	-9504
▁नेतृत्	-9505
▁যুব	-9506
▁रुग्णा	-9507
ರ್ಧ	-9508
ণে	-9509
▁दिनों	-9510
▁श्र	-9511
▁വള	-9512
▁अहम	-9513
▁യാത്ര	-9514
तु	-9515
க்கூ	-9516
erg	-9517
क्ती	-9518
டும்ப	-9519
▁నాయకులు	-9520
சாமி	-9521
ಿದ್ದರೆ	-9522
▁થયું	-9523
ોની	-9524
▁ಹಲವು	-9525
▁ಆಯ್	-9526
ભાવ	-9527
ாகி	-9528
▁বিদ	-9529
ट्स	-9530
র্ড	-9531
sc	-9532
વેશ	-9533
விய	-9534
▁2012	-9535
▁சிறு	-9536
▁रहने	-9537
ರೇ	-9538
▁ম্যাচ	-9539
▁ಪಂದ	-9540
▁व्याप	-9541
▁విని	-9542
▁fund	-9543
▁డా	-9544
ર્ચા	-9545
▁આર	-9546
▁మాత్రం	-9547
▁కార్యదర్శి	-9548
▁പ്പെ	-9549
▁ന്യൂ	-9550
▁చేసు	-9551
istry	-9552
ਮਾਂ	-9553
्यांची	-9554
రీక్ష	-9555
▁घाय	-9556
▁$	-9557
▁ജയ	-9558
mb	-9559
रिया	-9560
देख	-9561
വന്	-9562
▁பார்த்த	-9563
▁किलो	-9564
▁author	-9565
കാശ	-9566
▁ਕਿਸੇ	-9567
मंत्र	-9568
▁bas	-9569
▁used	-9570
ंवर	-9571
▁హీ	-9572
ிருஷ்ண	-9573
▁ખો	-9574
ிறார்கள்	-9575
▁૭	-9576
▁got	-9577
▁मृत	-9578
▁ପକ୍ଷରୁ	-9579
ોમાં	-9580
▁செயலாளர்	-9581
ames	-9582
ଞ୍ଜ	-9583
▁મારી	-9584
ಕ್ಸ್	-9585
▁സാധ	-9586
wor	-9587
▁घ्या	-9588
ઓમાં	-9589
▁ஜெயலலிதா	-9590
▁पेट	-9591
క్తి	-9592
▁मना	-9593
▁90	-9594
▁গেছে	-9595
ੈਸ	-9596
▁ഉദ്ഘാടനം	-9597
▁છતાં	-9598
▁ಉದ್ಯ	-9599
പ്പെടുത്ത	-9600
▁ತುಂಬ	-9601
ುತ್ತಿದೆ	-9602
▁ઉપયોગ	-9603
্যাপ	-9604
▁बच्चों	-9605
▁കുടും	-9606
▁आॅ	-9607
▁ತಪ್ಪ	-9608
▁দফ	-9609
▁পো	-9610
▁વિરો	-9611
▁కొనసా	-9612
స్సు	-9613
▁ਬੱਚ	-9614
▁দক্ষ	-9615
امی	-9616
▁दक्ष	-9617
▁اب	-9618
ਦੇਸ਼	-9619
രായ	-9620
মার	-9621
▁बाब	-9622
▁అలా	-9623
▁ଅନ୍ୟ	-9624
▁officials	-9625
ತೆಯ	-9626
କରେ	-9627
▁૧૦	-9628
▁ਸ੍ਰੀ	-9629
റോ	-9630
▁ଜିଲ୍ଲା	-9631
▁सहित	-9632
▁பெண	-9633
▁പര	-9634
विण्यात	-9635
▁सकती	-9636
ಮಗೆ	-9637
▁rest	-9638
▁special	-9639
ended	-9640
▁جان	-9641
▁ವಹ	-9642
▁જન	-9643
▁رہے	-9644
▁વધી	-9645
▁சிக	-9646
▁ரூபாய்	-9647
▁ಸಿದ್ದರಾಮಯ್ಯ	-9648
▁அவரது	-9649
▁திமுக	-9650
ब्द	-9651
▁সভাপতি	-9652
▁पहिल्या	-9653
nes	-9654
▁order	-9655
▁నేత	-9656
ଭାଗ	-9657
ec	-9658
▁manag	-9659
খান	-9660
सदी	-9661
▁അറിയിച്ചു	-9662
iti	-9663
್ಟ್	-9664
▁માહિ	-9665
▁ਕਰਕੇ	-9666
▁মমতা	-9667
▁మహిళ	-9668
▁पहुंचे	-9669
▁ઉમેદ	-9670
▁त्याचा	-9671
▁குழு	-9672
▁সালে	-9673
▁यामुळे	-9674
▁వాటి	-9675
▁পরিস	-9676
▁ट्	-9677
▁ಆರೋಗ್ಯ	-9678
▁ವಿವಿಧ	-9679
ಕೊಂಡ	-9680
▁ಪಂದ್ಯ	-9681
▁दिखा	-9682
यास	-9683
▁reported	-9684
▁વર્ષે	-9685
▁పాఠశాల	-9686
▁ರಸ್ತೆ	-9687
▁रन	-9688
▁അട	-9689
દર	-9690
੍ਰਿ	-9691
াত্	-9692
୍ୟୁ	-9693
▁चुकी	-9694
▁ur	-9695
▁രണ്ട്	-9696
▁ரயில்	-9697
▁సమాచారం	-9698
▁ଏଥି	-9699
▁quest	-9700
▁విషయం	-9701
▁शिका	-9702
▁रण	-9703
▁ದಾಖಲ	-9704
▁गिरफ्तार	-9705
▁લઈને	-9706
▁ભારે	-9707
▁കൊണ്ട	-9708
▁পাওয়া	-9709
▁held	-9710
▁উঠ	-9711
వై	-9712
▁বৈঠ	-9713
▁కుటుంబ	-9714
ിക്കല്	-9715
▁આવેલા	-9716
ಾಗಲೇ	-9717
▁అమ్మ	-9718
▁cricket	-9719
▁ஆகியோர்	-9720
▁কলকাতা	-9721
▁ನಾವು	-9722
करे	-9723
▁বাই	-9724
▁kash	-9725
▁పేరు	-9726
ls	-9727
बाट	-9728
▁હોસ્પિટ	-9729
▁ବ୍ୟବ	-9730
▁હજાર	-9731
▁उमेदवार	-9732
▁ਦਿਨ	-9733
▁নির্দেশ	-9734
▁முக்கிய	-9735
▁કેન્દ્ર	-9736
క్టర్	-9737
▁ಮಾಡಲು	-9738
hen	-9739
▁পঞ্চ	-9740
ધ્ય	-9741
▁वाहन	-9742
ள்ளன	-9743
▁करू	-9744
▁न्याय	-9745
▁प्रशासना	-9746
▁എല്	-9747
▁تھی	-9748
ಭ್ಯ	-9749
▁central	-9750
્ન	-9751
িতা	-9752
લ્લે	-9753
▁રાજકોટ	-9754
भात	-9755
▁ವಾಹನ	-9756
▁మొద	-9757
▁ప్రాజెక్టు	-9758
ലെന്ന്	-9759
▁महापालिके	-9760
குறித்து	-9761
ession	-9762
▁જોઈએ	-9763
▁મંદિ	-9764
▁ਅਗ	-9765
पेक्षा	-9766
▁വോട്ട	-9767
ಲುವ	-9768
▁ખેડૂતો	-9769
ಡಳಿತ	-9770
▁લોકોને	-9771
କ୍ରମ	-9772
▁must	-9773
▁বাড়ি	-9774
▁keep	-9775
्ता	-9776
लेले	-9777
▁पूछ	-9778
▁est	-9779
ഗ്ര	-9780
రారు	-9781
▁भएको	-9782
▁देखील	-9783
▁బయ	-9784
رح	-9785
▁ಸೇವ	-9786
्याच्या	-9787
▁करेंगे	-9788
▁চেষ্টা	-9789
▁विधाय	-9790
▁పెట్ట	-9791
▁એસ	-9792
▁ਯੂ	-9793
▁جب	-9794
▁candid	-9795
धव	-9796
लेश	-9797
ୀଙ୍କ	-9798
▁என்ன	-9799
ಾರ್ವ	-9800
----	-9801
▁₹	-9802
▁શિક્ષ	-9803
▁states	-9804
▁cust	-9805
▁ক্রিকে	-9806
▁বলা	-9807
▁പ്രവ	-9808
▁united	-9809
வைய	-9810
▁शिक	-9811
তর	-9812
த்துறை	-9813
કીય	-9814
▁el	-9815
▁ନିର୍ବାଚନ	-9816
▁तुम	-9817
▁allow	-9818
നായ	-9819
▁दोघ	-9820
▁വഹ	-9821
▁(19	-9822
▁ਅਜਿ	-9823
▁মানুষের	-9824
▁वृ	-9825
▁san	-9826
ंता	-9827
▁ਮਨ	-9828
▁u	-9829
▁সামনে	-9830
▁அவர்கள்	-9831
▁જોકે	-9832
▁ಭೇಟಿ	-9833
▁eu	-9834
ജന്	-9835
tern	-9836
▁युवा	-9837
னம்	-9838
ପର୍	-9839
▁पथ	-9840
▁হাসপাতা	-9841
▁ಪಾಲ	-9842
▁खेळ	-9843
▁కథ	-9844
ರಾಟ	-9845
▁મહિના	-9846
▁પંચ	-9847
▁ಗುರು	-9848
નીય	-9849
▁സ്ത്ര	-9850
▁सत्ता	-9851
▁ബ്ര	-9852
্কার	-9853
▁ہند	-9854
▁అప్ప	-9855
पै	-9856
▁லட்சம்	-9857
▁കണ്ണ	-9858
मधून	-9859
▁చర్చ	-9860
▁जिन	-9861
▁సమీ	-9862
▁انت	-9863
▁ਅਧਿ	-9864
క్ష్	-9865
કમાં	-9866
काने	-9867
-3	-9868
▁આત	-9869
▁மாவட்டம்	-9870
সা	-9871
ருந்து	-9872
iday	-9873
▁பெரிய	-9874
జర్	-9875
▁سب	-9876
ैंड	-9877
▁ವ್ಯಕ್ತಪಡ	-9878
▁आस	-9879
▁ક્ષ	-9880
▁লি	-9881
▁குடும்ப	-9882
தாவது	-9883
લના	-9884
▁dece	-9885
▁કોર્ટ	-9886
▁आलेल्या	-9887
udi	-9888
ൊപ്പം	-9889
▁37	-9890
ஸ்ட்	-9891
▁ତେବେ	-9892
ಕ್ಷಿ	-9893
▁different	-9894
▁అభివృద్ధి	-9895
लाइन	-9896
ళి	-9897
▁પૈ	-9898
▁ਜਦੋਂ	-9899
▁વિસ્તારમાં	-9900
▁তথ	-9901
▁માહિતી	-9902
▁ww	-9903
▁বছরের	-9904
ಾದ್	-9905
▁सोमवार	-9906
ష్టం	-9907
ੜਾ	-9908
▁ഉദ്യോഗ	-9909
આત	-9910
▁ക്ഷ	-9911
രോധ	-9912
▁হয়নি	-9913
ంటున్నారు	-9914
ಿನಿಂದ	-9915
ರುತ್ತದೆ	-9916
வம்	-9917
ৈতিক	-9918
த்தம்	-9919
▁পুলিশের	-9920
కొని	-9921
▁ઉમેદવાર	-9922
▁રજૂ	-9923
ುಲ್	-9924
▁સ્થાન	-9925
▁inj	-9926
▁வெற்றி	-9927
▁ਪੁੱ	-9928
▁पुढे	-9929
വെ	-9930
िष्ठ	-9931
▁സിപി	-9932
▁निरी	-9933
▁arrest	-9934
▁mov	-9935
▁హీరో	-9936
ases	-9937
▁કાર્યક્ર	-9938
▁ಪಟ್ಟ	-9939
▁போராட்ட	-9940
▁आरोग	-9941
ians	-9942
▁ਵਿਖੇ	-9943
▁ಅಧಿಕಾರಿಗಳು	-9944
▁விதி	-9945
ವಿಲ್ಲ	-9946
ૂટ	-9947
ர்ம	-9948
ration	-9949
ଲ୍ଲ	-9950
മ്ബ്	-9951
তম	-9952
▁rece	-9953
▁ખરી	-9954
ಾಣಿ	-9955
ember	-9956
ஆம்	-9957
▁ఛ	-9958
▁காண	-9959
▁விற்ப	-9960
td	-9961
▁ସୂଚନା	-9962
દારો	-9963
യിലാണ്	-9964
▁नये	-9965
▁जगह	-9966
▁سک	-9967
▁சாலை	-9968
ta	-9969
▁qual	-9970
▁ಶಾಸಕ	-9971
▁વિભાગ	-9972
▁ਸਾਹਿਬ	-9973
ക്കം	-9974
▁સુરત	-9975
my	-9976
▁ਚੰ	-9977
▁സ്പ	-9978
ଦାନ	-9979
▁துவ	-9980
▁जास्त	-9981
ಾಷ	-9982
ப்பது	-9983
వాడ	-9984
▁માર	-9985
▁କରାଯାଇଛି	-9986
ണിക്ക	-9987
▁ವಿಷಯ	-9988
▁அனுமதி	-9989
ಲಿಯ	-9990
▁গুল	-9991
০০	-9992
ेंड	-9993
▁ഇതു	-9994
▁અંદ	-9995
▁war	-9996
ധ്യക്ഷ	-9997
▁ছাত্র	-9998
▁സമ്മ	-9999
▁ರಾಜಕೀಯ	-10000
بہ	-10001
▁युवक	-10002
▁growth	-10003
▁ഉറ	-10004
▁இயக்கு	-10005
▁ਕੌਰ	-10006
▁করছেন	-10007
▁भू	-10008
यो	-10009
▁রাজ্যের	-10010
ours	-10011
▁ଦା	-10012
തിനാല്	-10013
▁నేప	-10014
▁పరిస్థితి	-10015
ിരുന്നു	-10016
▁কর্ত	-10017
omet	-10018
▁হাসপাতালে	-10019
▁ಬಾಲ	-10020
▁खरी	-10021
ிட்டு	-10022
▁உதவி	-10023
ఢిల్లీ	-10024
▁वजह	-10025
বল	-10026
▁তাকে	-10027
▁রায়	-10028
ುತ್ತಾರೆ	-10029
ମାର	-10030
మాండ్	-10031
मता	-10032
▁ਦੇਸ਼	-10033
▁deb	-10034
▁வீர	-10035
▁ਤਰ੍ਹਾਂ	-10036
▁ପର୍	-10037
▁స్వా	-10038
দার	-10039
▁www	-10040
▁ਘਰ	-10041
▁जागा	-10042
్యంలో	-10043
▁گا	-10044
ଟରେ	-10045
▁వెంట	-10046
ck	-10047
▁ಜೆಡಿಎಸ್	-10048
▁१५	-10049
▁ஏற்படுத்த	-10050
▁शो	-10051
▁दोन्ही	-10052
स्त्र	-10053
ଡ଼ା	-10054
▁महिन	-10055
▁৮	-10056
ೃತ್ತ	-10057
રેન્દ્ર	-10058
▁ਮੰਗ	-10059
▁नवीन	-10060
ഭാ	-10061
्यु	-10062
▁ಮಾರ	-10063
▁शरी	-10064
▁સત	-10065
▁మృతి	-10066
▁educ	-10067
▁ਮੇ	-10068
ಸ್ತಿ	-10069
▁மாற்ற	-10070
▁નં	-10071
हाला	-10072
▁ಗಮನ	-10073
▁సోమ	-10074
▁पुरस्कार	-10075
▁शी	-10076
▁पूरा	-10077
क्षे	-10078
▁(7	-10079
र्ती	-10080
▁ಇನ್ನು	-10081
▁डॉक्टर	-10082
▁left	-10083
ov	-10084
ढी	-10085
▁દિવસે	-10086
▁ಮುಖಂಡ	-10087
▁ನವ	-10088
കുന്ന	-10089
▁ನಿವ	-10090
क्का	-10091
▁ಆಟ	-10092
▁वाप	-10093
▁முய	-10094
▁ഇപ്പോള്	-10095
வன்	-10096
▁months	-10097
फे	-10098
తన	-10099
▁હતુ	-10100
േക്ഷ	-10101
▁ખાસ	-10102
▁পরী	-10103
▁நிகழ்ச	-10104
▁33	-10105
▁సాగు	-10106
▁വിഷ	-10107
टका	-10108
కంగా	-10109
্যাস	-10110
ઓના	-10111
దిక	-10112
லோ	-10113
ಷ್ಟೇ	-10114
ark	-10115
▁सेना	-10116
▁ಹೆಚ್ಚಿನ	-10117
▁मदत	-10118
▁ইতি	-10119
▁general	-10120
্লা	-10121
▁पंतप्रधान	-10122
ट्टी	-10123
▁রাস্ত	-10124
▁सामाजिक	-10125
▁ధర	-10126
వన్	-10127
విధ	-10128
▁सूत्र	-10129
▁একই	-10130
▁services	-10131
▁مط	-10132
▁ಪ್ರಧಾನಿ	-10133
యు	-10134
బ్బంది	-10135
സ്സ	-10136
▁وزیر	-10137
▁सुन	-10138
▁పరీక్ష	-10139
▁lot	-10140
▁मृत्यू	-10141
▁ಟ್ರ	-10142
▁வெளி	-10143
▁એર	-10144
ોને	-10145
ീസ	-10146
▁ચર્ચા	-10147
ഞ്ഞ്	-10148
▁கோரிக்கை	-10149
▁global	-10150
ਜ਼ਾ	-10151
▁करताना	-10152
▁ತಾಲ್ಲೂ	-10153
వత్స	-10154
্রি	-10155
द्दल	-10156
▁വകു	-10157
▁ছাড়া	-10158
యత్	-10159
▁விப	-10160
વવા	-10161
▁care	-10162
▁ਇਨ੍ਹਾਂ	-10163
्यास	-10164
▁இதை	-10165
▁ಪಂಚಾಯ	-10166
▁धाव	-10167
▁son	-10168
పించ	-10169
▁प्रतिशत	-10170
જ્	-10171
▁ആരംഭ	-10172
పాల	-10173
▁fun	-10174
▁બીજા	-10175
la	-10176
वाडी	-10177
ಡ್ಡಿ	-10178
▁गि	-10179
▁जून	-10180
▁ಕಾರ್	-10181
▁ಅಲ್ಲಿ	-10182
▁అర్	-10183
▁each	-10184
▁नव्ह	-10185
▁ಕಂಪ	-10186
40	-10187
નને	-10188
▁ডি	-10189
▁रोक	-10190
प्रमाणे	-10191
ణంగా	-10192
▁क्ल	-10193
▁press	-10194
wa	-10195
▁याची	-10196
▁seen	-10197
पत	-10198
▁जाएगी	-10199
வாறு	-10200
தே	-10201
ద్యా	-10202
▁ટો	-10203
యన్	-10204
▁వర్ష	-10205
୍ରା	-10206
tion	-10207
▁ନୂ	-10208
વર્	-10209
▁ഉയര്	-10210
भागी	-10211
▁યોજના	-10212
▁پو	-10213
▁सकाळी	-10214
ats	-10215
ृती	-10216
ஸ்க	-10217
▁वर्षां	-10218
▁exper	-10219
▁అధికార	-10220
▁ദ്ദ	-10221
▁without	-10222
▁बचा	-10223
কদের	-10224
▁നഗര	-10225
▁భారత్	-10226
▁product	-10227
▁hosp	-10228
ధులు	-10229
▁કરો	-10230
▁ମଧ୍ୟରେ	-10231
▁மண	-10232
തിനെ	-10233
▁પ્રમુખ	-10234
▁સ્વા	-10235
▁ग्राह	-10236
▁கூறிய	-10237
plic	-10238
▁શહે	-10239
▁vict	-10240
▁ram	-10241
▁అవకాశం	-10242
▁എത്തി	-10243
▁मुली	-10244
▁کار	-10245
▁రామ	-10246
ird	-10247
مد	-10248
▁ದೊಡ್ಡ	-10249
▁కమిటీ	-10250
▁ગણ	-10251
▁देत	-10252
ੰਡ	-10253
▁तेव्हा	-10254
ਚਾ	-10255
▁ఆర్థ	-10256
▁तब	-10257
▁ఉత్త	-10258
▁ஏற்பட்ட	-10259
▁ಸಿನಿಮಾ	-10260
ామన్నారు	-10261
▁বের	-10262
హన	-10263
▁সাধার	-10264
▁కొన్ని	-10265
▁വലിയ	-10266
ଳୟ	-10267
▁making	-10268
પાલ	-10269
▁बड़ी	-10270
ೃಷ್ಟ	-10271
णारे	-10272
▁വിള	-10273
ക്കോ	-10274
▁উদ্ধার	-10275
▁पुढ	-10276
▁അടി	-10277
റും	-10278
ਸ਼ਾ	-10279
മോ	-10280
▁ਦਿੱਲੀ	-10281
ನಾಥ	-10282
ਸਲ	-10283
கோ	-10284
▁তে	-10285
▁വിഭാഗ	-10286
ನದ	-10287
▁ਬਹੁ	-10288
▁ಗೊ	-10289
▁ಘಟನೆ	-10290
aring	-10291
▁centre	-10292
ready	-10293
▁ਸਥ	-10294
▁नै	-10295
▁न्यूज	-10296
▁بات	-10297
▁kashmir	-10298
▁జన	-10299
▁हाथ	-10300
قع	-10301
ബൈ	-10302
देव	-10303
▁பாதுகாப்பு	-10304
▁sever	-10305
▁ప్రశ్	-10306
मती	-10307
▁पेश	-10308
▁విశ	-10309
▁મદ	-10310
▁വിജയ	-10311
▁ఇక	-10312
▁क्	-10313
▁ନାହିଁ	-10314
ారాయ	-10315
▁মৃত্যু	-10316
ಶಿ	-10317
ళన	-10318
▁china	-10319
ત્રા	-10320
▁कामा	-10321
াপাশি	-10322
▁past	-10323
▁लागू	-10324
प्रति	-10325
ಿಯಾಗಿ	-10326
▁tar	-10327
விட்டு	-10328
▁प्रकरण	-10329
▁वरिष्ठ	-10330
▁लोकसभा	-10331
▁یا	-10332
लिक	-10333
▁دور	-10334
▁മൂന്ന	-10335
ety	-10336
▁એવી	-10337
▁विषय	-10338
▁નવ	-10339
▁બાળકો	-10340
▁ಪರಿಸ	-10341
▁বয়	-10342
▁राजनी	-10343
▁hig	-10344
لاق	-10345
ুদ	-10346
▁ಹಿನ್ನೆ	-10347
ଢ଼	-10348
ണക്ക	-10349
ابق	-10350
देशी	-10351
▁পাঁচ	-10352
▁गौर	-10353
▁ಬೇಕ	-10354
▁জঙ্গ	-10355
র্জ	-10356
ped	-10357
▁প্রধানমন্ত্রী	-10358
र्ग	-10359
ळून	-10360
▁त्यांची	-10361
▁leg	-10362
▁view	-10363
▁अंतिम	-10364
ଖା	-10365
▁விரு	-10366
थम	-10367
रोधी	-10368
allen	-10369
▁শিল	-10370
രീക്ഷ	-10371
▁അവസാന	-10372
ୋଷ	-10373
ੈਨ	-10374
साहेब	-10375
फर	-10376
பர்	-10377
ંધી	-10378
▁পরিষ	-10379
हस	-10380
▁നാട്ട	-10381
▁match	-10382
্রীয়	-10383
▁କ୍ଷ	-10384
ale	-10385
▁గ్రామా	-10386
▁তথ্য	-10387
▁स्वर	-10388
▁અલગ	-10389
▁great	-10390
మర్శ	-10391
▁സന്ദ	-10392
▁കാര	-10393
ചന	-10394
वंत	-10395
ൂഹ	-10396
▁సమయంలో	-10397
▁ବିଜେପି	-10398
▁ಮಾತನಾಡ	-10399
ुड	-10400
▁হন	-10401
▁ನೀವು	-10402
ಂದರೆ	-10403
▁ನಾಲ್	-10404
"",	-10405
ंभ	-10406
▁বিপ	-10407
▁पता	-10408
▁राहि	-10409
▁धर्म	-10410
ણાં	-10411
▁योजने	-10412
to	-10413
▁নিউ	-10414
▁pop	-10415
ക്കുറ	-10416
ியார்	-10417
رہ	-10418
▁ఎంపీ	-10419
নৈতিক	-10420
തെന്നും	-10421
ज्ञान	-10422
▁असल्याची	-10423
गढ़	-10424
▁ಮೂರು	-10425
▁त्याने	-10426
▁சிகி	-10427
▁सार्	-10428
▁गुन्हा	-10429
ੌਜ	-10430
▁जैसे	-10431
ಳಿಯ	-10432
▁इसकी	-10433
▁ਸੇ	-10434
▁vill	-10435
િટી	-10436
▁ମେ	-10437
جہ	-10438
▁ജെ	-10439
▁ఆర్థిక	-10440
னையில்	-10441
बाजी	-10442
റായി	-10443
ষ্টি	-10444
▁చేస్తున్నారు	-10445
ient	-10446
স্প	-10447
▁સમયે	-10448
▁தொடங்க	-10449
▁ലീ	-10450
▁सल	-10451
▁পাশাপাশি	-10452
ports	-10453
▁मध	-10454
▁દરેક	-10455
▁উপর	-10456
▁శ్రీనివా	-10457
രിയ	-10458
▁expl	-10459
യ്യാ	-10460
▁১৯	-10461
नर	-10462
▁ಸಿದ್ಧ	-10463
ியுள்ளார்	-10464
▁area	-10465
ர்களின்	-10466
ದಾರ	-10467
▁local	-10468
लिए	-10469
▁ਕਾਂਗਰਸ	-10470
▁समावेश	-10471
এন	-10472
▁രാവിലെ	-10473
▁આગળ	-10474
ಟು	-10475
▁ض	-10476
▁ఆల	-10477
▁ଯାଇ	-10478
పోయి	-10479
▁डो	-10480
▁ദിവസ	-10481
▁रात्री	-10482
▁already	-10483
য়োজন	-10484
ುದನ್ನು	-10485
▁जोर	-10486
ertain	-10487
घड	-10488
▁കുടുംബ	-10489
படி	-10490
तरा	-10491
▁म्हटले	-10492
ଂଗ	-10493
▁kumar	-10494
▁rese	-10495
ாதார	-10496
▁والے	-10497
স্ব	-10498
▁সিং	-10499
ধা	-10500
▁account	-10501
తిక	-10502
तिहा	-10503
క్రమా	-10504
▁ದೂರ	-10505
▁गये	-10506
વાહી	-10507
▁சந்த	-10508
लंब	-10509
▁ಅಂಗ	-10510
▁দুর্	-10511
য়ন	-10512
▁several	-10513
▁ബു	-10514
▁కంప	-10515
્યાન	-10516
ਹਿੰ	-10517
രിക്കും	-10518
▁आयुक्त	-10519
▁പ്രശ്	-10520
▁அங்கு	-10521
্রীর	-10522
▁ఇప్పుడు	-10523
▁અધિકારી	-10524
▁ఏపీ	-10525
▁2011	-10526
ফল	-10527
▁पर्य	-10528
▁ಸಿಗ	-10529
വുമായി	-10530
▁ಚೆ	-10531
مل	-10532
ined	-10533
▁ಕಾಮ	-10534
▁ਵੇ	-10535
▁pet	-10536
▁afric	-10537
▁बेह	-10538
▁office	-10539
▁వెల్ల	-10540
ਖ਼	-10541
▁ಕೊಡ	-10542
▁cond	-10543
வார	-10544
▁সরকারের	-10545
പ്പില്	-10546
कत	-10547
▁చిన్న	-10548
ଷ୍ଟି	-10549
પ્ત	-10550
▁കൂടി	-10551
▁प्रभाव	-10552
▁நிறை	-10553
▁ಇದರಿಂದ	-10554
்தான்	-10555
▁वेळी	-10556
सू	-10557
▁नगरसे	-10558
ंबे	-10559
नावर	-10560
▁گئی	-10561
▁eff	-10562
▁अभियान	-10563
▁prot	-10564
ುತ್ತಿದ್ದಾರೆ	-10565
▁शिकायत	-10566
োম	-10567
ାୟକ	-10568
▁नुकसान	-10569
രോഗ	-10570
▁ॅ	-10571
ंडा	-10572
▁பின்னர்	-10573
ॉल	-10574
▁রান	-10575
▁vide	-10576
పోయ	-10577
▁কমিশ	-10578
પ્ટ	-10579
▁দায়	-10580
▁கட்டு	-10581
▁മലയാള	-10582
छि	-10583
▁সর্ব	-10584
श्मीर	-10585
ସୁ	-10586
▁येईल	-10587
்கா	-10588
▁ଟଙ୍କା	-10589
▁express	-10590
▁খেল	-10591
▁కళా	-10592
▁गोल	-10593
স্যা	-10594
▁ಹಿರಿಯ	-10595
▁ملک	-10596
▁கல்வி	-10597
▁tot	-10598
▁ਕਿਸਾਨ	-10599
▁ମାନ	-10600
జన్	-10601
▁success	-10602
▁આવતા	-10603
াশ	-10604
oneindia	-10605
▁పనిచే	-10606
▁उसने	-10607
न्हे	-10608
▁प्रशिक्ष	-10609
ोगा	-10610
▁called	-10611
▁ഇന്ത്യന്	-10612
▁countries	-10613
▁ફાય	-10614
▁कॉलेज	-10615
শ্চ	-10616
▁કરા	-10617
ୁବନ	-10618
धर	-10619
▁જેથી	-10620
▁सुधार	-10621
▁जल्	-10622
పత్ర	-10623
▁આયો	-10624
ର୍ଶ	-10625
▁সংস	-10626
▁ಬಳಸ	-10627
▁ঘটনার	-10628
▁বিরোধ	-10629
▁mid	-10630
▁এখনও	-10631
കര	-10632
गल	-10633
co	-10634
▁వ్యవహ	-10635
ிலிருந்து	-10636
েস্ক	-10637
▁তুল	-10638
द्वार	-10639
▁व्यक्ती	-10640
▁equ	-10641
▁సిద్ధ	-10642
సీఆర్	-10643
▁आद	-10644
▁ਬਾਰੇ	-10645
▁finan	-10646
▁ଅଭିଯୋଗ	-10647
ೀಗ	-10648
ात्रा	-10649
▁घेतले	-10650
▁ಮಧ್ಯ	-10651
▁મં	-10652
றுத்த	-10653
▁ങ്ങ	-10654
िण	-10655
ല്ലാം	-10656
▁अन्	-10657
▁ള്	-10658
▁പൊതു	-10659
▁याचा	-10660
▁side	-10661
▁പുറത്ത	-10662
ृत्त	-10663
▁ഉദ്യോഗസ്ഥ	-10664
▁turn	-10665
▁બનાવી	-10666
ಾಚಾರ	-10667
▁ಸಾರ್ವ	-10668
▁പ്രത്യ	-10669
ುವುದಿಲ್ಲ	-10670
مہ	-10671
বির	-10672
▁پار	-10673
▁دہ	-10674
ഷന്	-10675
▁فر	-10676
▁முறை	-10677
▁फोट	-10678
▁૮	-10679
▁നായ	-10680
▁સ્ક	-10681
▁दह	-10682
▁१२	-10683
▁ছেলে	-10684
நக	-10685
▁ಕಚ	-10686
▁ਮਾਮਲੇ	-10687
▁సంవత్స	-10688
इक	-10689
യിട്ടുണ്ട്	-10690
▁ਕਰਦੇ	-10691
ണമെന്ന	-10692
▁(10	-10693
▁capital	-10694
▁সাথে	-10695
▁நான்	-10696
▁प्रकल्प	-10697
ફે	-10698
▁instit	-10699
▁कदम	-10700
ୀର	-10701
વિધ	-10702
ടിപ്പ	-10703
▁अलग	-10704
▁ਦੇਣ	-10705
▁committe	-10706
▁ಶಿಕ್ಷಣ	-10707
▁board	-10708
ત્તા	-10709
േയും	-10710
▁saying	-10711
▁ਜਾਣਕਾਰੀ	-10712
▁ക്കാരി	-10713
▁ପ୍ରଧାନ	-10714
ൃഷ്ണ	-10715
కోవాలని	-10716
▁കരു	-10717
▁कायम	-10718
ഷി	-10719
ર્ચ	-10720
ਗੂ	-10721
ଲୋ	-10722
▁કરાવ	-10723
▁बने	-10724
rence	-10725
संद	-10726
▁പട്ട	-10727
▁लढ	-10728
ગીરી	-10729
पण	-10730
▁आनंद	-10731
▁పద	-10732
▁વ્યવ	-10733
ীকে	-10734
خت	-10735
▁నిర్మ	-10736
▁બુ	-10737
ସ୍ଥା	-10738
▁इंग	-10739
▁দিয়েছেন	-10740
▁தொழில	-10741
▁give	-10742
▁அல்ல	-10743
ിക്കു	-10744
▁hum	-10745
▁শুক	-10746
મના	-10747
ruct	-10748
▁li	-10749
▁hop	-10750
▁ചെയ്യുന്ന	-10751
▁மேற்ப	-10752
▁பெரும்	-10753
▁इसका	-10754
▁అవు	-10755
దేశ్	-10756
कांत	-10757
ଟେ	-10758
isation	-10759
▁પડે	-10760
ট্ট	-10761
▁bor	-10762
▁विमान	-10763
▁लड़	-10764
▁गणेश	-10765
▁વખતે	-10766
ताओं	-10767
▁లోని	-10768
ರೋಧ	-10769
▁వ్యక్తం	-10770
चर	-10771
▁মেয়ে	-10772
కుడు	-10773
▁വ്യാ	-10774
ালি	-10775
▁social	-10776
மீ	-10777
ਿਊ	-10778
ીર	-10779
▁എന്ന്	-10780
లోనే	-10781
ട്ടു	-10782
িণ	-10783
▁આગામી	-10784
ुरी	-10785
▁ಮಾತನಾಡಿ	-10786
▁बॅ	-10787
▁शोध	-10788
വിധാന	-10789
▁ಚಾಲ	-10790
▁কারণে	-10791
▁activ	-10792
चि	-10793
సన	-10794
▁പ്രതിഷേധ	-10795
jarat	-10796
ांसाठी	-10797
▁नेपाल	-10798
▁കോടി	-10799
▁અનુસાર	-10800
▁മ്മ	-10801
▁ನೀಡಿದ	-10802
▁ಠ	-10803
▁অংশ	-10804
▁ಎಚ್	-10805
▁hol	-10806
▁అయిన	-10807
த்தது	-10808
वाने	-10809
▁രാഷ്ട്രീയ	-10810
रीज	-10811
▁పర్య	-10812
oci	-10813
ending	-10814
▁चौकशी	-10815
▁प्रच	-10816
▁actor	-10817
▁અહીં	-10818
▁തൃ	-10819
▁ಪ್ರಮಾಣ	-10820
ंका	-10821
மண	-10822
बरोबर	-10823
ಾಲಿ	-10824
▁better	-10825
जली	-10826
▁రావ	-10827
▁ಸ್ಪರ್ಧ	-10828
▁job	-10829
ராஜ்	-10830
▁others	-10831
▁monday	-10832
▁ಭೂ	-10833
▁इंटर	-10834
സ്പ	-10835
ಾಳ	-10836
▁देते	-10837
▁men	-10838
▁ಗಾಂಧ	-10839
▁নেওয়া	-10840
ೀತ	-10841
▁त्याच	-10842
▁শে	-10843
▁మాత్రమే	-10844
▁ଲାଗି	-10845
bs	-10846
▁ಮಾಡಿದ್ದಾರೆ	-10847
▁যাচ্ছে	-10848
ুই	-10849
িত্ব	-10850
पद	-10851
▁నేపథ	-10852
ਲਾਈ	-10853
▁दावा	-10854
▁होऊ	-10855
જીક	-10856
▁لیکن	-10857
▁ಅಗತ್ಯ	-10858
▁bi	-10859
▁അധ്യക്ഷ	-10860
టింగ్	-10861
ದಲು	-10862
েন্দ্র	-10863
▁ଦୁଇ	-10864
म्हाला	-10865
୍ରେସ	-10866
ets	-10867
▁ராம	-10868
ಾಡ	-10869
▁away	-10870
வெ	-10871
்க்க	-10872
ಜನಿಕ	-10873
রম	-10874
க்கிறது	-10875
▁হা	-10876
▁પ્રકાર	-10877
'.	-10878
▁दू	-10879
હન	-10880
ಂಥ	-10881
ified	-10882
▁بڑ	-10883
▁જાહે	-10884
▁ବୁ	-10885
▁മേഖല	-10886
▁event	-10887
▁તેણે	-10888
ഖ്യാപ	-10889
▁300	-10890
▁ਸੁਰ	-10891
▁سو	-10892
▁ರೆ	-10893
ਵੀਂ	-10894
മിതി	-10895
▁hy	-10896
▁ਬਲ	-10897
ச்சா	-10898
▁যেতে	-10899
▁दृ	-10900
▁action	-10901
▁مسلم	-10902
▁రాజకీ	-10903
▁माह	-10904
▁शक्यता	-10905
▁মাত্র	-10906
ಾನಿ	-10907
▁department	-10908
99	-10909
स्टर	-10910
ually	-10911
▁కేసీఆర్	-10912
హు	-10913
ateg	-10914
▁नेते	-10915
కెట్	-10916
▁జగ	-10917
▁ମୃତ	-10918
▁कां	-10919
▁ಮೈಸ	-10920
▁পান	-10921
സ്യ	-10922
लाल	-10923
ੰਤ	-10924
வர்களுக்கு	-10925
▁gre	-10926
▁ਸ਼ਾਮ	-10927
▁డిమాండ్	-10928
▁150	-10929
▁red	-10930
▁घेण्यात	-10931
્રો	-10932
ੁਆ	-10933
▁ଜଣେ	-10934
▁पावसा	-10935
▁தயா	-10936
▁അവര്	-10937
തിന്റെ	-10938
వన	-10939
ਵਿੰਦਰ	-10940
▁लेने	-10941
ளுடன்	-10942
▁34	-10943
▁मंत्रा	-10944
یم	-10945
▁സേ	-10946
గ్గు	-10947
یس	-10948
▁সাধারণ	-10949
ਾਰਾ	-10950
▁মূল	-10951
▁பொதுமக்கள்	-10952
▁ബോ	-10953
▁ಸುಮಾರು	-10954
▁university	-10955
▁ർ	-10956
టికి	-10957
▁ব্যবহার	-10958
साय	-10959
জা	-10960
▁உடன	-10961
▁దూ	-10962
▁lakh	-10963
▁आतंक	-10964
▁(8	-10965
തിനി	-10966
ധ്യമ	-10967
▁ખૂબ	-10968
▁અથ	-10969
ুকে	-10970
ರಿಕೆ	-10971
▁നടപടി	-10972
▁சத	-10973
▁கார்	-10974
లువ	-10975
▁जमीन	-10976
▁তৃণমূ	-10977
▁പങ്കെടു	-10978
▁અમેરિકા	-10979
▁शुक्रवार	-10980
▁ಪ್ರಮುಖ	-10981
वित	-10982
▁বাড়িতে	-10983
▁ഭരണ	-10984
▁স্কুল	-10985
▁வாழ	-10986
▁वाद	-10987
विक	-10988
▁region	-10989
▁ਅਪ	-10990
ତେ	-10991
▁மேல்	-10992
▁proble	-10993
▁ಉದ್ದ	-10994
▁ప్రయత్	-10995
▁ସାମ	-10996
ple	-10997
▁पंजा	-10998
▁বিষয়ে	-10999
▁സ്വന്ത	-11000
்பட	-11001
াইন	-11002
ர்ச்சி	-11003
▁ਉੱਤੇ	-11004
ठन	-11005
ਦੀਆਂ	-11006
▁செய்	-11007
▁ఇద్ద	-11008
▁ನಗರದ	-11009
▁later	-11010
دا	-11011
▁belie	-11012
▁trad	-11013
▁രക്ഷ	-11014
▁मही	-11015
▁పోటీ	-11016
▁associ	-11017
▁উত্	-11018
୍ଲ	-11019
▁ഇന്ന്	-11020
ందోళన	-11021
▁ঘটে	-11022
ನಿವ	-11023
▁ಪತ್ರ	-11024
స్వా	-11025
ਮੇ	-11026
ત્રે	-11027
▁decision	-11028
▁কোটি	-11029
▁لوگ	-11030
▁থাকা	-11031
▁காங்க	-11032
▁நடந்தது	-11033
▁त्यांचे	-11034
▁progr	-11035
▁কলে	-11036
▁ತೋ	-11037
▁lit	-11038
ଜାର	-11039
▁ಚರ್ಚ	-11040
▁તૈયાર	-11041
▁(22	-11042
▁hit	-11043
ન્ક	-11044
લાઈ	-11045
▁ଜା	-11046
▁ಎಲ್ಲಾ	-11047
ुत	-11048
ச்சு	-11049
▁beh	-11050
▁ಮಹಿಳೆಯ	-11051
▁es	-11052
▁കോഴ	-11053
▁সমস্যা	-11054
▁హి	-11055
▁નિય	-11056
ंकर	-11057
गड	-11058
▁வகையில்	-11059
▁గురు	-11060
▁سال	-11061
ಕಿನ	-11062
കളില്	-11063
▁வாய்ப்ப	-11064
▁ಬಿಡುಗಡೆ	-11065
▁ବିଭାଗ	-11066
▁കമ്ബ	-11067
ையின்	-11068
▁সোম	-11069
▁நிய	-11070
▁शिवसेना	-11071
మారు	-11072
▁নিজে	-11073
▁following	-11074
▁fa	-11075
ക്കുന്നത്	-11076
▁information	-11077
,1	-11078
ove	-11079
▁खात	-11080
▁വിവിധ	-11081
ெக்ட	-11082
▁ఏడాది	-11083
▁મદદ	-11084
ಸಭಾ	-11085
്യം	-11086
ଦା	-11087
▁కలిసి	-11088
▁పనులు	-11089
ಂಬರ್	-11090
घाडी	-11091
പ്പെട്ട്	-11092
▁வலியு	-11093
▁gir	-11094
▁हूं	-11095
▁why	-11096
▁তাল	-11097
▁କିଛି	-11098
િયન	-11099
▁शनिवार	-11100
ರಣೆ	-11101
▁తదిత	-11102
▁ಎನ್	-11103
▁ज्ञ	-11104
-201	-11105
▁ভাব	-11106
▁சிகிச்சை	-11107
▁કાર્યવાહી	-11108
▁మంగళ	-11109
ப்படி	-11110
పడి	-11111
▁தகவல்	-11112
యాన్ని	-11113
▁ಎರಡ	-11114
સિ	-11115
▁सादर	-11116
ടങ്ങ	-11117
▁ಸುದ್ದಿ	-11118
▁യുവ	-11119
▁ভূ	-11120
करी	-11121
▁ನೆರ	-11122
ారాయణ	-11123
▁गर्न	-11124
یل	-11125
ଗତ	-11126
▁बुधवार	-11127
▁எனவே	-11128
▁ಸಮಾಜ	-11129
▁নামে	-11130
্থিত	-11131
ंटे	-11132
▁अंक	-11133
ived	-11134
▁பதிவு	-11135
ற்கான	-11136
গুলি	-11137
▁ಜಾ	-11138
▁আগামী	-11139
▁tamil	-11140
▁కలెక్టర్	-11141
▁શકાય	-11142
▁அதை	-11143
▁स्वच्छ	-11144
▁अदा	-11145
▁నాలు	-11146
▁পৌঁ	-11147
▁poss	-11148
▁ಕೆಲವು	-11149
രിക	-11150
▁ദിവസം	-11151
▁உலக	-11152
▁सके	-11153
▁કાય	-11154
▁ಸಂಸ್ಥೆ	-11155
▁রেখে	-11156
▁వెంకట	-11157
▁नंबर	-11158
▁ಬಳಿ	-11159
र्जी	-11160
▁હોવાથી	-11161
▁नदी	-11162
क्शन	-11163
▁ସେହି	-11164
▁खुद	-11165
▁oppos	-11166
▁ലെ	-11167
ਸੀਂ	-11168
▁बयान	-11169
▁सार्व	-11170
▁ಅಸ	-11171
समोर	-11172
▁चिक	-11173
મચ	-11174
▁انہوں	-11175
▁ప్రజలు	-11176
▁फड	-11177
▁ଆରମ୍ଭ	-11178
▁விட்ட	-11179
▁बर	-11180
▁super	-11181
▁pan	-11182
▁(25	-11183
▁senior	-11184
▁పం	-11185
▁ଗ୍ରାମ	-11186
▁નિર્	-11187
▁ব্যবস্থা	-11188
▁ঘটনায়	-11189
▁માતા	-11190
▁त्र	-11191
▁భారత	-11192
ଭିନ୍ନ	-11193
▁times	-11194
ಬೇಕೆ	-11195
ണ്ടും	-11196
ിലൂടെ	-11197
মাণ	-11198
▁friday	-11199
▁ಶಿಕ್ಷ	-11200
▁പ്രച	-11201
मारी	-11202
▁लगाया	-11203
▁ಜಿಲ್ಲೆಯ	-11204
▁खासदार	-11205
▁மீண்டும்	-11206
▁ಅದರ	-11207
▁আপনি	-11208
▁பயன்படுத்த	-11209
▁ಅದು	-11210
▁এত	-11211
▁வகி	-11212
▁रै	-11213
▁ബ്	-11214
▁पढ़े	-11215
ುದರಿಂದ	-11216
േജ	-11217
ಬೇ	-11218
డుగు	-11219
ங்கை	-11220
న్సి	-11221
iting	-11222
ഹമ്മ	-11223
▁ক্ল	-11224
▁నిర్వహించారు	-11225
▁(21	-11226
▁এগ	-11227
▁पहली	-11228
▁december	-11229
▁(18	-11230
▁list	-11231
▁x	-11232
▁റ്റ	-11233
▁jud	-11234
▁(23	-11235
ਾਇਆ	-11236
▁स्तर	-11237
▁ఆంధ్ర	-11238
▁इसलिए	-11239
▁സംവിധാന	-11240
▁ಸಾಕ	-11241
▁ஆய்வு	-11242
▁தண்ணீர்	-11243
खन	-11244
ಿಕೊಂಡು	-11245
ಕೆಯ	-11246
▁મૃત	-11247
सव	-11248
▁پاک	-11249
পে	-11250
▁points	-11251
ಹ್	-11252
ୁବନେଶ	-11253
▁youn	-11254
धि	-11255
▁এরপর	-11256
▁ஆசிரிய	-11257
ೋದ	-11258
▁cost	-11259
▁స్థాయి	-11260
▁important	-11261
ಲಿತ	-11262
▁स्थिति	-11263
▁ദേശീയ	-11264
▁வாக்கு	-11265
▁ਸਕੂਲ	-11266
टो	-11267
ଯିବ	-11268
▁शव	-11269
▁ഉട	-11270
▁క్రి	-11271
▁প্রশাস	-11272
ਤਾਬ	-11273
▁लव	-11274
ேயே	-11275
▁ક્	-11276
▁रविवार	-11277
ంతా	-11278
▁(24	-11279
▁সংখ	-11280
▁జూ	-11281
▁ਝ	-11282
▁વખત	-11283
▁investig	-11284
ley	-11285
రగ	-11286
▁পরিস্থিত	-11287
ினி	-11288
▁milit	-11289
ोजन	-11290
दू	-11291
యాలు	-11292
▁வார	-11293
▁समेत	-11294
▁بھ	-11295
▁ਜਲ	-11296
▁ਰਹਿ	-11297
ਿਆਨ	-11298
ચર	-11299
റല്	-11300
▁ಗಂಟ	-11301
ल्क	-11302
▁दुकान	-11303
▁থানার	-11304
ma	-11305
▁हवा	-11306
▁खरेदी	-11307
▁বন্দ্য	-11308
▁మేరకు	-11309
పేట	-11310
न्छ	-11311
லாக	-11312
▁இரண்டு	-11313
▁ministry	-11314
▁സംസാ	-11315
▁అధ్యక్షుడు	-11316
വണ	-11317
▁పంచ	-11318
ക്കെ	-11319
▁প্রক	-11320
▁ਦੂ	-11321
மையில்	-11322
▁जरूर	-11323
ams	-11324
▁ਸ਼ਰ	-11325
▁ચાલી	-11326
▁service	-11327
ുള്ളത്	-11328
▁అదే	-11329
▁committee	-11330
ತ್ಪ	-11331
ances	-11332
▁ବିଭିନ୍ନ	-11333
▁हिस्	-11334
▁સમગ્ર	-11335
▁ಮತ್ತೆ	-11336
லுக்கு	-11337
▁उद्योग	-11338
▁step	-11339
▁ನರ	-11340
▁जिसके	-11341
▁രണ്ടു	-11342
ப்பாக	-11343
▁നോട്ട	-11344
▁lim	-11345
ਹਰ	-11346
ಸದ	-11347
uation	-11348
▁ಜೊತೆ	-11349
▁പഠ	-11350
हाल	-11351
स्थ्य	-11352
▁fail	-11353
ീം	-11354
▁મંત્રી	-11355
▁दें	-11356
▁મામલે	-11357
▁செய்யப்பட்ட	-11358
▁पुन	-11359
▁ഇന്	-11360
ನಿಖ	-11361
্যের	-11362
▁ശ്രീ	-11363
▁હેઠ	-11364
▁मोह	-11365
▁సంగ	-11366
icket	-11367
eration	-11368
▁இதுகுறித்து	-11369
বিদ	-11370
▁ಸಂದರ್ಭದಲ್ಲಿ	-11371
▁क्योंकि	-11372
ளுக்கும்	-11373
▁ਜਿੱ	-11374
▁அழை	-11375
▁secretary	-11376
▁मराठी	-11377
▁करण्याचे	-11378
▁പ്രഖ്യാപ	-11379
పక్ష	-11380
▁ছোট	-11381
▁മന	-11382
ೀಲ್	-11383
િયલ	-11384
▁எஸ்	-11385
▁sum	-11386
▁buil	-11387
्रोल	-11388
കാര്യ	-11389
▁বিক	-11390
▁ನೀಡಿದ್ದಾರೆ	-11391
▁மாவட்டத்தில்	-11392
▁challen	-11393
യറ	-11394
▁गुण	-11395
▁দিয়েছে	-11396
▁जाये	-11397
▁गुप	-11398
▁वर्ग	-11399
▁চো	-11400
ದಲ್ಲ	-11401
ूड	-11402
সর	-11403
▁முடிவு	-11404
وٹ	-11405
▁వేల	-11406
▁(12	-11407
▁செய்தனர்	-11408
ાસભ	-11409
▁ওয়ে	-11410
ాలన్నారు	-11411
▁companies	-11412
▁ಕಾಲೇಜ	-11413
▁परिव	-11414
کا	-11415
▁এটা	-11416
ৃষ	-11417
rup	-11418
▁(28	-11419
▁75	-11420
▁record	-11421
▁పరిధి	-11422
▁കുറ്റ	-11423
▁பேர	-11424
▁ಕಾಯ	-11425
ાયેલા	-11426
▁घायल	-11427
▁ಪಾತ್ರ	-11428
▁ক্ষেত্রে	-11429
▁અંત	-11430
▁children	-11431
▁ens	-11432
new	-11433
▁நல	-11434
▁ദേ	-11435
ുപോ	-11436
കാര	-11437
▁संघा	-11438
शील	-11439
काल	-11440
▁phot	-11441
क्रमा	-11442
લ્લેખ	-11443
▁ಗೌ	-11444
▁నేపథ్యంలో	-11445
▁संब	-11446
▁હેઠળ	-11447
▁அதில்	-11448
▁ਪਹੁੰ	-11449
▁ಒಪ್ಪ	-11450
गु	-11451
వంత	-11452
▁जख	-11453
▁एज	-11454
ಣ್	-11455
ജീ	-11456
▁ગે	-11457
▁ભાજપના	-11458
▁48	-11459
▁பரி	-11460
್ಯೂ	-11461
▁ਅਰ	-11462
▁ಇರ	-11463
▁रू	-11464
▁वक्त	-11465
▁జి	-11466
ંકી	-11467
▁സാഹ	-11468
▁ജ്	-11469
வக	-11470
ਦੀਪ	-11471
▁చెబు	-11472
▁நடந்த	-11473
▁ਕੁਮਾਰ	-11474
ର୍ଥ	-11475
▁મુખ્યમંત્રી	-11476
लीन	-11477
లుగు	-11478
ature	-11479
▁गरज	-11480
్వర్య	-11481
▁सीमा	-11482
▁లక్షల	-11483
ായിരുന്ന	-11484
▁নিরাপ	-11485
वण्यात	-11486
▁జో	-11487
▁కార్యక్రమా	-11488
നത്തില്	-11489
ಾನ್ಯ	-11490
यात	-11491
▁விவசாயிகள்	-11492
▁பெற	-11493
▁ju	-11494
ராய	-11495
ਯੋਗ	-11496
▁priv	-11497
▁ಸಂಖ್ಯ	-11498
▁যখন	-11499
▁ગર	-11500
▁లేదని	-11501
▁ತನಿಖ	-11502
▁உயி	-11503
▁ಸಮಯ	-11504
لاف	-11505
▁অবশ্য	-11506
▁મને	-11507
▁(9	-11508
▁ਸਮਾ	-11509
▁मदद	-11510
▁காங்கிர	-11511
▁முழுவ	-11512
రిగి	-11513
ଂଗ୍ରେସ	-11514
▁जम	-11515
▁પહોંચી	-11516
uesday	-11517
▁foreign	-11518
,2	-11519
▁বিচার	-11520
▁ఉంట	-11521
▁जवळ	-11522
▁hal	-11523
ਟਨ	-11524
▁উন্ন	-11525
मंड	-11526
▁ఇన్	-11527
▁ಕೈಗೊಳ್ಳ	-11528
kar	-11529
▁ରି	-11530
▁ಇಂಡ	-11531
▁কেন্দ্রীয়	-11532
▁ଦ୍ୱ	-11533
গের	-11534
▁ஈடுபட்ட	-11535
ಿತ್	-11536
▁कराया	-11537
ದುಕೊಳ್ಳ	-11538
▁कर्मचा	-11539
యోజ	-11540
ബ്ര	-11541
മായിരുന്നു	-11542
▁ಇಬ್ಬ	-11543
ినా	-11544
▁৯	-11545
▁deal	-11546
ned	-11547
▁ಮಾತು	-11548
▁various	-11549
▁ಪ್ರಾ	-11550
▁സ്ഥാനാര്	-11551
▁କରିବାକୁ	-11552
▁गुजरात	-11553
▁సోమవారం	-11554
▁ઇન્ડ	-11555
ળતા	-11556
രാണ്	-11557
▁કેમ	-11558
ியன்	-11559
▁ಮುಂದಿನ	-11560
▁আইন	-11561
ଯାଉ	-11562
তন	-11563
▁ನೀಡಿದರು	-11564
▁নিতে	-11565
▁यस	-11566
ब्र	-11567
ताप	-11568
▁घाल	-11569
लेला	-11570
આઇ	-11571
▁વિરોધ	-11572
▁टो	-11573
▁മിക	-11574
▁நடைபெற்றது	-11575
▁বদ	-11576
▁ఆత్మ	-11577
یو	-11578
▁working	-11579
▁আক্র	-11580
▁सलमान	-11581
▁ലാ	-11582
▁ધારાસભ	-11583
▁ਕੁਝ	-11584
▁strong	-11585
▁ಪ್ರಸ	-11586
eric	-11587
▁ਬਹੁਤ	-11588
ಾನದ	-11589
न्त्री	-11590
▁परेश	-11591
▁मिलने	-11592
गिरी	-11593
മസ്	-11594
▁પૂર્વ	-11595
▁परिणाम	-11596
చ్చి	-11597
▁करुन	-11598
comm	-11599
▁ఆందోళన	-11600
▁பார்	-11601
ন্দ্র	-11602
ण्	-11603
േക	-11604
্ণ	-11605
▁एक्स	-11606
.50	-11607
▁ଏବେ	-11608
▁சால	-11609
▁nove	-11610
कात	-11611
ர்ந்து	-11612
▁आश	-11613
▁ఆశ	-11614
▁tuesday	-11615
ಗದ	-11616
ల్స్	-11617
▁প্রে	-11618
వులు	-11619
ଡା	-11620
വം	-11621
▁நீர்	-11622
દિક	-11623
▁ఖా	-11624
▁চিন	-11625
:00	-11626
છા	-11627
▁ట్ర	-11628
कांच्या	-11629
▁रिक	-11630
ہر	-11631
▁కోట్లు	-11632
▁একজন	-11633
తిని	-11634
▁november	-11635
▁ഫെ	-11636
ణాలు	-11637
▁निधी	-11638
▁त्याची	-11639
▁कधी	-11640
▁تح	-11641
ઢી	-11642
▁ലോക	-11643
▁അപകട	-11644
େଷ	-11645
▁started	-11646
▁ಮಾತನಾಡಿದ	-11647
र्क	-11648
▁கூறினார்	-11649
▁ಘೋಷ	-11650
ಾದರೂ	-11651
▁ప్రభుత్వా	-11652
▁అభ్య	-11653
60	-11654
সহ	-11655
▁खेळा	-11656
▁ਵਧ	-11657
▁शादी	-11658
▁body	-11659
▁తదితరులు	-11660
▁समज	-11661
▁जिससे	-11662
▁அதே	-11663
बद्दल	-11664
▁ஆண்டுக	-11665
న్నీ	-11666
▁ہونے	-11667
▁ಸಾರ್ವಜನಿಕ	-11668
▁(14	-11669
▁final	-11670
थमिक	-11671
ગાઉ	-11672
▁સ્થિતિ	-11673
▁خو	-11674
ஆர்	-11675
▁(11	-11676
ont	-11677
विरोध	-11678
▁ஷ	-11679
▁తొలి	-11680
▁ಕೇ	-11681
▁ప్రపంచ	-11682
▁ગુજરાતમાં	-11683
றையில்	-11684
▁बाहेर	-11685
ೋನ್	-11686
▁ਬਣ	-11687
वीस	-11688
▁സ്വദേശ	-11689
ക്ഷേപ	-11690
▁ഏറ്റവും	-11691
▁(30	-11692
▁பெரு	-11693
ਬੇ	-11694
कृ	-11695
தான	-11696
ुका	-11697
▁କଂଗ୍ରେସ	-11698
▁ക്ഷേ	-11699
▁ಪರೀಕ್ಷ	-11700
▁મળશે	-11701
▁നേരി	-11702
ப்பே	-11703
▁জাতীয়	-11704
ুমার	-11705
▁साहित	-11706
ிழமை	-11707
ிகளில்	-11708
ಾರಂಭ	-11709
द्दी	-11710
▁வேட்ப	-11711
గానే	-11712
▁ఇలా	-11713
चन	-11714
▁ସହିତ	-11715
લની	-11716
ડોદરા	-11717
▁ઉલ્લેખ	-11718
ium	-11719
▁निकाल	-11720
पना	-11721
▁ಮಂದಿ	-11722
டையே	-11723
▁ಪ್ರಶ	-11724
▁दहशत	-11725
संघ	-11726
▁मिश	-11727
▁పంట	-11728
▁വ്യക്തമാക്കി	-11729
▁હશે	-11730
જનો	-11731
▁विद्यार्थी	-11732
▁உத	-11733
▁समिति	-11734
▁address	-11735
▁ಮುಂದೆ	-11736
কালে	-11737
▁দক্ষিণ	-11738
ത്തും	-11739
▁chair	-11740
▁return	-11741
▁तला	-11742
ાવો	-11743
▁വഴി	-11744
▁rul	-11745
▁ফুট	-11746
▁ಜಾಗ	-11747
▁મહત્વ	-11748
বেদন	-11749
▁શાળા	-11750
▁மட்டுமே	-11751
▁mot	-11752
മാക	-11753
▁થતા	-11754
▁தேசிய	-11755
യിലും	-11756
▁வழி	-11757
▁ವಿಜಯ	-11758
▁శుక్ర	-11759
▁കൊച്ചി	-11760
▁industry	-11761
ಧಿ	-11762
தியை	-11763
▁stri	-11764
▁(26	-11765
▁ക്ര	-11766
▁போக்கு	-11767
▁नियम	-11768
ਹਮ	-11769
ਚਾਰ	-11770
▁लॉ	-11771
ଚାର	-11772
▁euro	-11773
▁સામાન	-11774
▁പെണ്	-11775
్రమ	-11776
ನ್ನೇ	-11777
▁महान	-11778
▁പ്രസ	-11779
▁બને	-11780
▁ഇവര്	-11781
▁mor	-11782
▁march	-11783
▁দেব	-11784
▁વિધાન	-11785
ரிடம்	-11786
▁అమలు	-11787
ক্স	-11788
▁स्टेशन	-11789
▁ఉందని	-11790
వార	-11791
▁जन्म	-11792
▁ਆਦ	-11793
▁ବ୍ୟା	-11794
▁নজ	-11795
▁घु	-11796
▁(17	-11797
्राम	-11798
▁प्रयास	-11799
▁विधायक	-11800
▁197	-11801
ਕਲ	-11802
▁ಈಗಾಗಲೇ	-11803
ઘા	-11804
▁વડાપ્રધાન	-11805
▁વિજય	-11806
▁पिता	-11807
▁ക്യാ	-11808
நாய	-11809
াবেন	-11810
▁constit	-11811
्यो	-11812
▁પાડ	-11813
book	-11814
पक्ष	-11815
▁har	-11816
▁બચ	-11817
▁ਸਿਰ	-11818
▁अमेरिका	-11819
▁விசா	-11820
▁मोबाइल	-11821
▁ಭಾರತೀಯ	-11822
ଜ୍	-11823
▁सैन	-11824
▁fri	-11825
▁प्राथमिक	-11826
▁વેપ	-11827
াইল	-11828
▁ശി	-11829
▁ହୋଇଥିବା	-11830
▁বাসিন্দ	-11831
▁ରଖି	-11832
ଚ୍	-11833
▁প্রার্থী	-11834
▁clear	-11835
▁गरेको	-11836
▁ਵਿਸ਼	-11837
एच	-11838
▁சுற்று	-11839
▁અગાઉ	-11840
▁ರೀತಿಯ	-11841
वरण	-11842
▁ಮಟ್ಟ	-11843
गृह	-11844
▁હાર્	-11845
▁ചെയ്തി	-11846
య్యారు	-11847
্টে	-11848
▁જગ્યા	-11849
▁प्रमाणात	-11850
తున్నాయి	-11851
▁ef	-11852
▁स्मार्ट	-11853
▁તેનો	-11854
ury	-11855
▁(27	-11856
▁ಬೆಂಬ	-11857
▁கண்ட	-11858
▁परा	-11859
ବାସ	-11860
▁महाविद्या	-11861
▁ಅಭಿವೃದ್ಧಿ	-11862
▁ಹೋರಾಟ	-11863
ఫీ	-11864
▁(13	-11865
▁ಸರ್ಕಾರದ	-11866
▁విమర్శ	-11867
स्ट्रे	-11868
▁food	-11869
▁વધારો	-11870
▁ತಂದ	-11871
▁সম্ম	-11872
▁custom	-11873
▁कंपन	-11874
▁రావు	-11875
ಹಲಿ	-11876
▁foot	-11877
શિ	-11878
▁ಬೇಡ	-11879
cing	-11880
▁star	-11881
▁ചൂ	-11882
▁ସମା	-11883
▁ठाकरे	-11884
ਿਸ਼	-11885
म्बर	-11886
ଣ୍ଣ	-11887
▁सड़क	-11888
▁புகார்	-11889
▁முன்னாள்	-11890
भिन्न	-11891
▁data	-11892
ಮೇಶ್	-11893
▁கூறு	-11894
▁ઘટા	-11895
ચના	-11896
▁இதையடுத்து	-11897
▁ದಿ	-11898
▁ఉంటుంది	-11899
▁मंगलवार	-11900
ফে	-11901
ಟ್ಟೆ	-11902
াক্ষ	-11903
▁ଭୁବନେଶ	-11904
▁never	-11905
ുകാര	-11906
ുകൂ	-11907
ীত	-11908
▁நல்ல	-11909
▁उपचार	-11910
નારા	-11911
▁समोर	-11912
▁ଗତ	-11913
▁લાભ	-11914
▁જમી	-11915
▁નજીક	-11916
▁আত্ম	-11917
اص	-11918
▁ಬಸ್	-11919
वाही	-11920
ൊന്ന	-11921
▁સભ	-11922
ാസ	-11923
▁ଦିଆ	-11924
▁सिर्फ	-11925
▁શાહ	-11926
▁ಪೂ	-11927
స్ట్	-11928
▁ಪೈ	-11929
باد	-11930
▁کوئی	-11931
▁प्रथम	-11932
▁ନୂଆ	-11933
▁విచార	-11934
▁जिल्ह्यातील	-11935
▁ಬರುವ	-11936
nesday	-11937
্যাক	-11938
▁பயிற	-11939
▁mad	-11940
▁स्वास्थ्य	-11941
ಿಯಿಂದ	-11942
పురం	-11943
্লি	-11944
▁விலை	-11945
▁ജീവന	-11946
ल्याण	-11947
োয়া	-11948
▁କୁମାର	-11949
▁असता	-11950
▁ఫోన్	-11951
▁সাহা	-11952
ഷ്യ	-11953
▁విద్యా	-11954
▁एकूण	-11955
▁মাঝ	-11956
▁సమావేశంలో	-11957
▁कुटुंब	-11958
▁করবে	-11959
▁स्थानी	-11960
▁विकेट	-11961
ton	-11962
ಾಲೂ	-11963
▁જીવ	-11964
മുഖ	-11965
▁اپنی	-11966
ursday	-11967
▁પાસેથી	-11968
▁सिने	-11969
▁ਟਰ	-11970
ോട	-11971
▁వారికి	-11972
▁તમને	-11973
্জ	-11974
▁सोशल	-11975
ନେ	-11976
▁హాజ	-11977
▁सग	-11978
▁જીત	-11979
▁मांड	-11980
▁विज	-11981
▁তাহ	-11982
▁થો	-11983
▁ఉన్నాయి	-11984
ಿಸಿದ್ದು	-11985
வ்வாறு	-11986
▁மெ	-11987
▁ഉത്തര	-11988
सब	-11989
▁ಬ್ಯಾಂಕ್	-11990
োস	-11991
▁भग	-11992
not	-11993
ರಳ	-11994
▁বৃহ	-11995
▁నిలి	-11996
સંદ	-11997
రికా	-11998
ನಗರ	-11999
کے	-12000
दु	-12001
▁শতা	-12002
▁ನೋಡ	-12003
▁বাঁ	-12004
वठा	-12005
▁जेल	-12006
▁આઈ	-12007
ਦਲ	-12008
▁गट	-12009
ത്തോടെ	-12010
▁కింద	-12011
ങ്ക്	-12012
ాము	-12013
સુ	-12014
▁ವರ್ಷದ	-12015
ਿਸਤਾਨ	-12016
▁ನಿರ್ಮ	-12017
আর	-12018
▁వెల్లడ	-12019
head	-12020
▁असतात	-12021
▁गृह	-12022
▁سر	-12023
▁incident	-12024
▁role	-12025
ବେଳେ	-12026
స్తామని	-12027
▁financial	-12028
ವಿದೆ	-12029
▁ಬಿಜೆಪ	-12030
de	-12031
▁११	-12032
▁கல்லூரி	-12033
ીએ	-12034
ତନ	-12035
▁avail	-12036
ുമെന്നും	-12037
ാണ	-12038
▁মঙ্গল	-12039
▁જશે	-12040
▁करणाऱ्या	-12041
▁परिसरात	-12042
വു	-12043
▁دن	-12044
▁wednesday	-12045
▁ರಿ	-12046
▁taking	-12047
▁చై	-12048
▁کان	-12049
▁पंजाब	-12050
▁مت	-12051
মিত	-12052
▁ਲਿ	-12053
▁ଲକ୍ଷ	-12054
▁गरी	-12055
80	-12056
ಸಭೆ	-12057
▁मुल	-12058
▁চলছে	-12059
▁વિકાસ	-12060
ినే	-12061
▁పెంచ	-12062
▁ಭಾರತದ	-12063
▁movie	-12064
▁fact	-12065
▁ਵਾਲੀ	-12066
▁તમારા	-12067
▁শরীর	-12068
▁मूल	-12069
▁ধার	-12070
▁त्यासाठी	-12071
▁ఇప్పటికే	-12072
ଗ୍ର	-12073
▁(15	-12074
▁thursday	-12075
ফতার	-12076
▁योग्य	-12077
▁concer	-12078
▁आयोग	-12079
▁वाला	-12080
▁अशोक	-12081
▁ఉదయం	-12082
जनिक	-12083
▁నమోదు	-12084
▁সৌ	-12085
గ్య	-12086
सकीय	-12087
self	-12088
िएको	-12089
ners	-12090
▁आघाडी	-12091
▁ಮಳೆ	-12092
▁वाहतूक	-12093
పతి	-12094
▁आरोग्य	-12095
▁శని	-12096
▁port	-12097
▁sent	-12098
▁காரணமாக	-12099
▁পঞ্চায়ে	-12100
▁പഞ്ചായത്ത്	-12101
ুক্তি	-12102
ટમાં	-12103
▁ഇത	-12104
▁ਚਾ	-12105
▁তৃণমূলের	-12106
ately	-12107
तीत	-12108
▁मंत्र	-12109
▁(16	-12110
▁ಹೆಸ	-12111
▁become	-12112
▁पूरे	-12113
க்கா	-12114
▁ಗಣ	-12115
▁policy	-12116
ଉଁ	-12117
ॉन	-12118
▁ಅಧಿಕಾರ	-12119
gin	-12120
▁सुनी	-12121
ପାରି	-12122
▁तालुक्यातील	-12123
▁दुप	-12124
▁42	-12125
▁माध्यमातून	-12126
▁शै	-12127
▁వెళ్ల	-12128
▁ബിജെപി	-12129
ಾಸಿ	-12130
▁ఆధ్వర్య	-12131
▁ಸೈ	-12132
മാക്ക	-12133
▁চেয়ে	-12134
ಾನೂ	-12135
▁શે	-12136
▁తెలియ	-12137
▁ಹಿನ್ನೆಲೆಯಲ್ಲಿ	-12138
ద్ది	-12139
▁સંખ્યા	-12140
▁പീ	-12141
▁કર્મચ	-12142
▁death	-12143
▁eas	-12144
▁സംബന്ധ	-12145
▁ਹਮ	-12146
tt	-12147
ണമെന്നും	-12148
ेतन	-12149
▁impro	-12150
aign	-12151
డియా	-12152
▁कोणत्या	-12153
▁निर	-12154
కార	-12155
▁परिस्थिती	-12156
▁ವಿರೋಧ	-12157
▁आत्मह	-12158
▁players	-12159
▁book	-12160
▁ವೈದ್ಯ	-12161
▁ਜ਼ਿਲ	-12162
▁ಹೀಗಾಗಿ	-12163
▁अधिकाऱ्यां	-12164
▁spok	-12165
एका	-12166
▁viol	-12167
▁गर्ने	-12168
లుగా	-12169
▁ਪਰਿ	-12170
ಮೀ	-12171
▁બ્ર	-12172
11	-12173
▁होत्या	-12174
टेड	-12175
▁ഇവ	-12176
▁ఇతర	-12177
▁રન	-12178
ination	-12179
▁done	-12180
ப்பிட	-12181
▁प्रो	-12182
▁yet	-12183
స్తారు	-12184
▁hospital	-12185
ત્મ	-12186
▁ভাই	-12187
▁പ്രദേശ	-12188
୍ନ	-12189
▁മാന്	-12190
ೋಹ	-12191
▁union	-12192
ଦେ	-12193
ূর্ত	-12194
ಚಿತ	-12195
▁ଅପ	-12196
▁दक्षिण	-12197
▁శుక్రవారం	-12198
▁ಕಾರ್ಯಕರ್	-12199
▁നോ	-12200
▁রোগ	-12201
കരണ	-12202
▁close	-12203
▁బుధ	-12204
▁शिक्षक	-12205
▁తు	-12206
पैकी	-12207
▁sug	-12208
▁జాతీయ	-12209
▁எல்ல	-12210
್ರಿ	-12211
▁काळात	-12212
▁friend	-12213
▁विभिन्न	-12214
ികളും	-12215
▁expected	-12216
।&	-12217
▁club	-12218
uty	-12219
▁तक्रार	-12220
ಸ್ತು	-12221
इस	-12222
ரான	-12223
ੈਂਟ	-12224
ിക്കുക	-12225
ਜ਼ੀ	-12226
▁খান	-12227
▁గొ	-12228
▁ട്	-12229
▁വയ	-12230
▁కృ	-12231
▁সূত্র	-12232
less	-12233
నున్నారు	-12234
நாடு	-12235
്ട്ര	-12236
▁शिंदे	-12237
▁अंतर	-12238
▁આવેલ	-12239
श्चित	-12240
ூரில்	-12241
▁அரசியல்	-12242
▁ut	-12243
▁কলকাত	-12244
▁न्यायालयाने	-12245
▁നിര	-12246
लीव	-12247
▁કેસ	-12248
▁फीसदी	-12249
▁campaign	-12250
▁കെട്ട	-12251
▁ঘোষণা	-12252
ীল	-12253
▁ದೇಶದ	-12254
थि	-12255
ada	-12256
എന്	-12257
ড়াই	-12258
▁नियंत्र	-12259
▁विश्वास	-12260
ખો	-12261
▁employ	-12262
▁change	-12263
ims	-12264
ിത	-12265
▁ದೇ	-12266
கொ	-12267
▁வட்ட	-12268
▁ସମସ୍ତ	-12269
াবে	-12270
▁share	-12271
▁ମହି	-12272
രത്തെ	-12273
,'	-12274
मर	-12275
હાર	-12276
▁वर्षा	-12277
▁hard	-12278
▁देशा	-12279
▁પરી	-12280
▁தனியார்	-12281
ಷ್ಯ	-12282
▁କର୍ମ	-12283
▁killed	-12284
ਵੀਰ	-12285
▁നഷ്ട	-12286
ായത്	-12287
▁technology	-12288
▁మండలం	-12289
▁વિધાનસભા	-12290
▁ശത	-12291
agar	-12292
ੋਰਟ	-12293
▁ଆଇ	-12294
குதியில்	-12295
పొ	-12296
▁महत्त्वा	-12297
▁ਲੱਗ	-12298
பர	-12299
▁করবেন	-12300
augh	-12301
ವ್	-12302
▁இரவு	-12303
▁पश्च	-12304
▁(29	-12305
▁ഒഴി	-12306
ാരി	-12307
▁ਡੀ	-12308
▁மேற்பட்ட	-12309
▁पाहिजे	-12310
▁संर	-12311
▁सार्वजनिक	-12312
পক্ষ	-12313
ator	-12314
▁மாணவர்கள்	-12315
ਜੂ	-12316
▁റ്	-12317
▁വരു	-12318
▁વિશ્વ	-12319
▁ডে	-12320
ലില്	-12321
ியும்	-12322
▁west	-12323
▁लागले	-12324
▁ಸಾಹ	-12325
ருக்கும்	-12326
வான	-12327
ober	-12328
▁પાટી	-12329
▁জু	-12330
▁વિવિધ	-12331
▁ఆధ్వర్యంలో	-12332
த்தால்	-12333
▁करावी	-12334
▁આપવા	-12335
ଭାବ	-12336
ുകളുടെ	-12337
▁ನನ	-12338
▁বন	-12339
▁series	-12340
േറ്റ്	-12341
▁free	-12342
▁ਸੈ	-12343
ੱਤ	-12344
ৃতি	-12345
▁రైతులు	-12346
▁sche	-12347
▁bengal	-12348
யம்	-12349
▁पोस्ट	-12350
പരി	-12351
jay	-12352
▁bring	-12353
టే	-12354
▁റോഡ	-12355
▁प्रेम	-12356
▁यात्रा	-12357
▁ଡା	-12358
▁অফিস	-12359
▁தொடர்பாக	-12360
▁మాట్లాడ	-12361
▁लाल	-12362
▁ಬೈ	-12363
▁પ્રદેશ	-12364
આર	-12365
बि	-12366
▁যাওয়ার	-12367
ానని	-12368
▁bang	-12369
▁जबाब	-12370
ones	-12371
▁పరిశీల	-12372
ಾಗುವ	-12373
▁mean	-12374
▁निगम	-12375
semb	-12376
▁મુલા	-12377
▁എഴു	-12378
▁discuss	-12379
▁દૂર	-12380
▁lat	-12381
तं	-12382
▁ઉઠ	-12383
نٹ	-12384
ଠାରେ	-12385
▁समु	-12386
▁तेज	-12387
ಿಕೆಯ	-12388
▁૯	-12389
▁વડોદરા	-12390
র্ধ	-12391
ಕೂ	-12392
நாத	-12393
▁కేట	-12394
ামে	-12395
▁ਸਭ	-12396
▁ಪರಿಣ	-12397
▁વ્યા	-12398
▁જેવા	-12399
▁સવારે	-12400
▁കൊല	-12401
▁mob	-12402
▁సొ	-12403
ள்க	-12404
▁ban	-12405
ણો	-12406
▁தனி	-12407
▁মোট	-12408
▁old	-12409
పించారు	-12410
ارے	-12411
▁ನೀರಿನ	-12412
▁oil	-12413
▁সংগ	-12414
▁மாலை	-12415
▁ଡି	-12416
▁फोटो	-12417
తుందని	-12418
▁चुके	-12419
वाड	-12420
த்தும்	-12421
▁تر	-12422
ப்படு	-12423
▁ఉండే	-12424
▁ಮುಂಬ	-12425
▁देवी	-12426
▁having	-12427
▁though	-12428
▁സാഹച	-12429
▁એન	-12430
▁election	-12431
ാതെ	-12432
್ಮಿಕ	-12433
▁ವರದಿ	-12434
▁ಟೆ	-12435
హె	-12436
lf	-12437
ാറ	-12438
▁ste	-12439
▁ஆயிரம்	-12440
ದಂತೆ	-12441
▁வாங்க	-12442
▁pur	-12443
▁आश्	-12444
▁चोरी	-12445
▁ଶୁ	-12446
▁സുരക്ഷ	-12447
▁billion	-12448
▁પ્રમાણે	-12449
ूह	-12450
ಣದಲ್ಲಿ	-12451
ارہ	-12452
agement	-12453
ंडे	-12454
▁तरफ	-12455
ସ୍ଥି	-12456
▁ಸಲ	-12457
ds	-12458
acy	-12459
▁گے	-12460
▁ರಾಜ್ಯದ	-12461
چھ	-12462
▁রবি	-12463
▁ભો	-12464
▁അസ	-12465
▁नाशिक	-12466
▁ഇത്ത	-12467
▁video	-12468
rop	-12469
▁कोह	-12470
ಶೀಲ	-12471
▁തകര്	-12472
▁name	-12473
▁sunday	-12474
▁ತಾಲೂ	-12475
▁અધિકારીઓ	-12476
▁ପ୍ରଥ	-12477
▁always	-12478
▁കീ	-12479
ೃತಿ	-12480
▁ನಿರ್ವಹ	-12481
▁নির্বাচন	-12482
.10	-12483
▁கட்சிய	-12484
▁दुष्	-12485
▁&#39;	-12486
ಾಭ	-12487
▁लागि	-12488
நகர்	-12489
வரத்து	-12490
▁ടു	-12491
▁पद्ध	-12492
ப்போ	-12493
ମାନଙ୍କୁ	-12494
!!	-12495
▁घो	-12496
ెనీ	-12497
▁tem	-12498
▁ಮಾಡಲ	-12499
▁সমর্থ	-12500
ുതി	-12501
ತ್ಯೆ	-12502
▁உரி	-12503
▁సరి	-12504
ంతి	-12505
▁champ	-12506
uary	-12507
▁संयुक्त	-12508
▁మ్యా	-12509
-20	-12510
▁మొత్తం	-12511
انوں	-12512
ତ୍ତି	-12513
▁ସମୟରେ	-12514
▁সেটা	-12515
పడ్డ	-12516
▁ಇದರ	-12517
▁short	-12518
కాలు	-12519
ଥାଏ	-12520
▁reports	-12521
▁সরকারি	-12522
▁त्यांचा	-12523
▁संपूर्ण	-12524
▁উই	-12525
▁தொழில்	-12526
▁جائے	-12527
ష్కర	-12528
▁മഹ	-12529
▁ஊழிய	-12530
▁ફા	-12531
▁গ্রেফতার	-12532
▁ತಿಂಗಳ	-12533
▁इच्छ	-12534
▁अभ्यास	-12535
ର୍ତ୍ତ	-12536
▁యూని	-12537
▁விட	-12538
సర్	-12539
▁െറ	-12540
▁जाधव	-12541
वणी	-12542
ेश्	-12543
▁সম্প্র	-12544
ପଣ	-12545
▁ಶೆ	-12546
ಬು	-12547
▁રાખી	-12548
▁لگ	-12549
▁বিধ	-12550
▁assemb	-12551
স্থিত	-12552
பே	-12553
ੋਜ	-12554
ியோ	-12555
ିତ୍	-12556
▁बोर्ड	-12557
▁నుండి	-12558
▁भाई	-12559
▁div	-12560
▁మంగళవారం	-12561
ಸ್ಸ	-12562
കി	-12563
▁दहा	-12564
itions	-12565
▁বক্ত	-12566
▁પેટ	-12567
▁ಸ್ಮ	-12568
ನದಲ್ಲಿ	-12569
કમ	-12570
▁শুক্র	-12571
▁మాజీ	-12572
▁ಇತ್ತ	-12573
ആര്	-12574
ులను	-12575
യിലേക്ക്	-12576
▁लोकमत	-12577
సభ	-12578
▁નરેન્દ્ર	-12579
▁গান	-12580
▁led	-12581
হুল	-12582
▁ഇറ	-12583
▁शहरातील	-12584
▁सें	-12585
▁பகுதிகளில்	-12586
▁అక్కడ	-12587
▁ಪ್ರಯತ್ನ	-12588
▁ব্ল	-12589
নাথ	-12590
▁સંબંધ	-12591
▁એવું	-12592
പ്പെടുത്തി	-12593
▁କୌ	-12594
খা	-12595
▁இன்ன	-12596
▁રાહુલ	-12597
▁પાછળ	-12598
▁ಗಾಯ	-12599
ুরি	-12600
ଶି	-12601
▁रखा	-12602
▁ചോദ്യ	-12603
ધ્	-12604
▁കുന്ന	-12605
▁લોકસભા	-12606
વાઈ	-12607
லைய	-12608
▁ଗୁରୁ	-12609
▁ಸಿಎಂ	-12610
▁ହୋଇଥିଲା	-12611
પતિ	-12612
ಂತಿ	-12613
ರಿಸಿ	-12614
र्य	-12615
ವರಿ	-12616
▁தொகுதி	-12617
lam	-12618
ାର୍ଥ	-12619
utes	-12620
▁love	-12621
▁शुरु	-12622
▁ನೀಡುವ	-12623
▁लिये	-12624
▁हाई	-12625
▁నిర్వహి	-12626
▁সোমবার	-12627
▁સંગ	-12628
نڈ	-12629
रिक्त	-12630
▁பயண	-12631
િને	-12632
▁ਪਰਿਵਾਰ	-12633
▁भर्ती	-12634
▁വീണ്ടും	-12635
▁કામગીરી	-12636
▁ਦਲ	-12637
▁ಇದೀಗ	-12638
ically	-12639
ush	-12640
▁officer	-12641
મારી	-12642
▁ಸಹಾಯ	-12643
▁જેમ	-12644
్రో	-12645
▁চি	-12646
പോ	-12647
▁କରିଛି	-12648
▁୨୦୧	-12649
▁લખ	-12650
▁ਪਹੁੰਚ	-12651
ਫੀ	-12652
▁ಅದನ್ನು	-12653
பை	-12654
▁मर	-12655
▁മാധ്യമ	-12656
▁షా	-12657
▁அரு	-12658
ర్మన్	-12659
▁समझ	-12660
ांडे	-12661
▁୬	-12662
▁third	-12663
▁পরিবারের	-12664
केट	-12665
റ്റര്	-12666
▁ହି	-12667
دو	-12668
▁बैठकी	-12669
▁વાર	-12670
▁நாள்	-12671
▁சர்	-12672
సాయ	-12673
▁ପୁଲି	-12674
▁issues	-12675
▁ಸಿಬ್ಬ	-12676
▁బుధవారం	-12677
▁রাতে	-12678
▁చిత్రం	-12679
बु	-12680
▁রাজনৈতিক	-12681
ଙ୍କର	-12682
▁accused	-12683
▁ఊ	-12684
ਿਸ਼ਨ	-12685
▁కాదు	-12686
ുകാര്	-12687
▁ଟି	-12688
▁న్యాయ	-12689
▁बढ़ा	-12690
நர்	-12691
ସର	-12692
▁प्रभ	-12693
କେ	-12694
itive	-12695
▁തന്റെ	-12696
▁અસર	-12697
ತೃ	-12698
▁उतर	-12699
ਪਾਲ	-12700
▁ത്തക	-12701
▁ମହିଳା	-12702
▁ਢ	-12703
ਿਆਦਾ	-12704
▁అత్య	-12705
▁चलते	-12706
▁ಎನ್ನ	-12707
hic	-12708
▁मुक	-12709
ুপ	-12710
▁ਖੁ	-12711
यल	-12712
ர்த்தி	-12713
▁ಜನರ	-12714
▁स्थानीय	-12715
▁मोठा	-12716
▁विद्यापी	-12717
▁রাত	-12718
ಾರಾ	-12719
किंग	-12720
▁ಆದೇಶ	-12721
▁रद्द	-12722
ூக	-12723
▁തിരഞ്ഞെടു	-12724
▁பால	-12725
▁somet	-12726
കാരം	-12727
આરી	-12728
ਭਾਗ	-12729
▁പിന്നീ	-12730
▁महिलाओं	-12731
▁ગત	-12732
▁લગ્ન	-12733
▁যদিও	-12734
▁तौर	-12735
▁ବୈ	-12736
▁ത്തു	-12737
േജ്	-12738
bo	-12739
ळख	-12740
નિયા	-12741
▁ડા	-12742
ೃಹ	-12743
ുവദ	-12744
▁विवाद	-12745
▁ശക്ത	-12746
वट	-12747
कुमार	-12748
▁பிறகு	-12749
by	-12750
▁october	-12751
तीश	-12752
▁விரை	-12753
▁খা	-12754
▁बड़े	-12755
▁सफल	-12756
▁తెలిసి	-12757
▁सहभागी	-12758
▁முழுவதும்	-12759
विले	-12760
▁கழி	-12761
▁सुमारे	-12762
નિક	-12763
▁ਅਨੁ	-12764
ల్ని	-12765
▁మార్కెట్	-12766
ूबर	-12767
▁ದಾಳಿ	-12768
▁sept	-12769
▁కంపెనీ	-12770
ந்துள்ளது	-12771
▁ಪ್ರಕ	-12772
റ്റില്	-12773
▁അധികൃത	-12774
▁పాత్ర	-12775
▁సిబ్బంది	-12776
▁శనివారం	-12777
િકેટ	-12778
ਕਤੀ	-12779
▁ஏற்பட்டு	-12780
▁താര	-12781
▁இவர்	-12782
▁గి	-12783
▁ہندو	-12784
▁જોઇ	-12785
ಗೋ	-12786
ोजना	-12787
સદ	-12788
▁ಲಿ	-12789
▁નોટ	-12790
ential	-12791
शिश	-12792
▁लवकर	-12793
▁వస	-12794
രങ്ങള്	-12795
ల్లు	-12796
▁હાર્દિક	-12797
ୀନ	-12798
▁గుర్త	-12799
▁സ്ഥല	-12800
▁ਕੁੱ	-12801
▁ൽ	-12802
ಿಯೇ	-12803
▁വന്	-12804
ातार	-12805
▁within	-12806
▁നടപ്പ	-12807
▁সংবাদ	-12808
▁प्रसाद	-12809
ਿਕਾ	-12810
మవు	-12811
ப்பத	-12812
ੇਟੀ	-12813
ಹೆ	-12814
▁শো	-12815
▁ਭਾਰਤੀ	-12816
द्वारे	-12817
ന്തര	-12818
ദ്ര	-12819
▁ফির	-12820
▁target	-12821
िकल	-12822
▁பெண்	-12823
▁2,	-12824
▁ગઇ	-12825
ತ್ಸವ	-12826
▁night	-12827
ത്മ	-12828
▁राब	-12829
▁રહ્યાં	-12830
▁வங்க	-12831
ଣୀ	-12832
േഴ്	-12833
▁কখন	-12834
▁economic	-12835
▁things	-12836
▁போலீஸ	-12837
▁గురువారం	-12838
ali	-12839
▁होतो	-12840
▁प्रतिनिधी	-12841
▁compl	-12842
▁कार्ड	-12843
ांस	-12844
ರ್ಜ	-12845
▁সময়ে	-12846
ನೆಗೆ	-12847
-4	-12848
બુ	-12849
वाना	-12850
ମୁଖ	-12851
బాటు	-12852
ଣସି	-12853
▁గురించి	-12854
ଦୀ	-12855
▁38	-12856
▁mak	-12857
गो	-12858
ோதனை	-12859
▁వంటి	-12860
▁tel	-12861
▁होंगे	-12862
िकेत	-12863
▁चोर	-12864
▁நினை	-12865
শ্চিম	-12866
▁അതേ	-12867
▁బాధ్య	-12868
▁small	-12869
ത്രം	-12870
णं	-12871
ਿੰਦ	-12872
▁ટ્રા	-12873
ர்கள	-12874
▁விற்பனை	-12875
्याचे	-12876
▁ଓଡ଼ିଶା	-12877
▁soon	-12878
▁അന്വേഷണ	-12879
▁ਠ	-12880
▁समाजा	-12881
ুগ	-12882
▁निर्म	-12883
▁گئے	-12884
▁કોંગ્રેસના	-12885
▁પત્	-12886
ാനി	-12887
બેન	-12888
െങ്കില്	-12889
▁ஒன்றிய	-12890
▁ਵੱਖ	-12891
uge	-12892
▁गैर	-12893
▁செலு	-12894
▁इमार	-12895
▁પગલે	-12896
वय	-12897
▁অনেকে	-12898
ರೆದ	-12899
▁மணிக்கு	-12900
കളുടെ	-12901
▁ಟೀ	-12902
▁नए	-12903
▁শাহ	-12904
ಲ್ಲಾ	-12905
▁अपे	-12906
▁compet	-12907
▁कोशिश	-12908
ங்கா	-12909
ಸರ್	-12910
▁વિદેશ	-12911
▁തയ്യാ	-12912
ശ്ച	-12913
▁सित	-12914
▁announced	-12915
करणा	-12916
▁પડશે	-12917
કાત	-12918
▁காங்கிரஸ்	-12919
వారు	-12920
▁তাতে	-12921
▁এলাকার	-12922
▁પસંદ	-12923
▁माण	-12924
▁ఉన్నారు	-12925
▁इन्	-12926
▁જેને	-12927
▁టా	-12928
त्ती	-12929
▁મોર	-12930
▁ಗೊತ್ತ	-12931
atic	-12932
పర్	-12933
ಲಯ	-12934
▁फ्र	-12935
▁करावा	-12936
6,	-12937
டா	-12938
డీపీ	-12939
▁நாட்க	-12940
▁અથવા	-12941
▁భాగంగా	-12942
கைய	-12943
▁ಆಡಳಿತ	-12944
▁ਪੁਲਸ	-12945
▁शर	-12946
▁महाराज	-12947
র্ঘ	-12948
▁cele	-12949
▁हिन्द	-12950
▁मुझे	-12951
ர்த்து	-12952
▁दुनिया	-12953
കളും	-12954
▁ਵਿਭਾਗ	-12955
▁consum	-12956
▁ಜೋ	-12957
▁দেখতে	-12958
▁dom	-12959
క్షన్	-12960
ல்கள்	-12961
▁च्या	-12962
नाच्या	-12963
▁effect	-12964
▁ಸಮಿತಿ	-12965
ప్రదేశ్	-12966
മീ	-12967
▁നിരവ	-12968
▁শতাংশ	-12969
ಯೇ	-12970
ന്ദ്രന്	-12971
idence	-12972
▁خلاف	-12973
▁சதவீ	-12974
▁അനുവദ	-12975
▁બેંક	-12976
▁miss	-12977
▁कट	-12978
▁ಮನವಿ	-12979
▁টে	-12980
▁থাকবে	-12981
▁ఇందు	-12982
********	-12983
ୟକ	-12984
▁গণ	-12985
▁মোদী	-12986
▁বুঝ	-12987
▁ব্যাপ	-12988
▁মাধ্যমে	-12989
▁ಕಾರ್ಯದರ್ಶ	-12990
ದಾನ	-12991
చు	-12992
रास	-12993
▁నియ	-12994
▁மாதம்	-12995
▁कराने	-12996
uru	-12997
▁समी	-12998
ிகளுக்கு	-12999
िक्	-13000
▁टि	-13001
▁പ്രാ	-13002
▁மட்டும்	-13003
▁নিরাপত্ত	-13004
▁ਪੁ	-13005
प्रकरणी	-13006
▁total	-13007
फत	-13008
▁ball	-13009
stand	-13010
▁ब्ल	-13011
▁కోరారు	-13012
▁ಸೋಮ	-13013
ging	-13014
ীতি	-13015
▁ఇం	-13016
ଳ୍	-13017
▁ಕುಮಾರ	-13018
▁చేయడం	-13019
▁યોજ	-13020
▁అమె	-13021
ମାଣ	-13022
▁देखा	-13023
ee	-13024
▁વૃ	-13025
வற்ற	-13026
लाईन	-13027
▁crit	-13028
ॉक	-13029
ೇವಲ	-13030
▁ਲੱਖ	-13031
▁నాగ	-13032
▁आगा	-13033
▁వెంటనే	-13034
▁ପ୍ରକାଶ	-13035
▁conne	-13036
▁ప్రకారం	-13037
▁areas	-13038
नेट	-13039
▁शाळ	-13040
▁ہوگ	-13041
▁જાહેરાત	-13042
▁education	-13043
▁dh	-13044
▁भागात	-13045
▁satur	-13046
ুয়া	-13047
لس	-13048
ट्ट	-13049
नाचा	-13050
▁ಇದಕ್ಕೆ	-13051
▁காவல்	-13052
▁உள	-13053
//	-13054
▁नेट	-13055
▁ಇದನ್ನು	-13056
adu	-13057
েশন	-13058
▁ಕಂಡು	-13059
વાદી	-13060
▁బ్యాంకు	-13061
சே	-13062
ball	-13063
ించా	-13064
▁હત્યા	-13065
णवीस	-13066
▁రోడ్డు	-13067
▁తయ	-13068
15	-13069
▁തേ	-13070
▁ಸಿಂಗ್	-13071
जरी	-13072
વુ	-13073
▁নেতৃত	-13074
▁డై	-13075
▁వ్యక్తి	-13076
ிலை	-13077
ષ્ટ્રીય	-13078
▁ಪರಿಹಾರ	-13079
▁আগেই	-13080
ப்ட	-13081
▁शासन	-13082
▁मू	-13083
સ્યા	-13084
▁పిల్ల	-13085
▁மனை	-13086
▁दूसरी	-13087
ोधन	-13088
▁ವಿಭಾಗ	-13089
▁तास	-13090
પકડ	-13091
ணா	-13092
▁ഫാ	-13093
▁స్థానిక	-13094
▁भि	-13095
▁ಅಂ	-13096
▁നാല	-13097
মধ্য	-13098
▁છું	-13099
▁১২	-13100
ುವೆ	-13101
▁چاہ	-13102
▁वस्त	-13103
▁प्रयोग	-13104
▁ಆತ್ಮ	-13105
▁ma	-13106
▁നിരവധി	-13107
▁class	-13108
న్ను	-13109
▁தமிழகத்தில்	-13110
▁સરકારી	-13111
▁કલ	-13112
▁याचिका	-13113
▁আধ	-13114
▁early	-13115
▁ನಡುವೆ	-13116
ೇಗೌಡ	-13117
ലിന്	-13118
ೀಚ	-13119
▁ಕಡೆ	-13120
ಲಾಗುವುದು	-13121
खेर	-13122
rap	-13123
ങ്കിലും	-13124
▁ವಾರ	-13125
▁ಲೈ	-13126
▁विरोधी	-13127
▁aff	-13128
देखील	-13129
▁এটি	-13130
కవర్	-13131
▁સામાન્ય	-13132
ન્સી	-13133
্তা	-13134
▁ચાલુ	-13135
राष्ट्रीय	-13136
পুরে	-13137
वाली	-13138
ex	-13139
▁অন্ত	-13140
▁low	-13141
டுகள்	-13142
ریس	-13143
▁खुला	-13144
▁हमला	-13145
▁ఇటీ	-13146
▁protest	-13147
▁यो	-13148
ভে	-13149
▁गुन्हे	-13150
لق	-13151
▁स्थानिक	-13152
▁ਕਰੀ	-13153
ात्मक	-13154
भग	-13155
▁पाया	-13156
ନ୍ତ୍ର	-13157
રણ	-13158
▁प्रचार	-13159
બલ	-13160
▁प्रसि	-13161
▁ಆಸ್ಪತ್	-13162
▁నియోజ	-13163
▁ਸਾਬ	-13164
ಾಯ್	-13165
▁തുറ	-13166
▁ਜਾਰੀ	-13167
▁धु	-13168
ജു	-13169
▁लगी	-13170
▁ওপর	-13171
▁वाता	-13172
ises	-13173
▁ലക്ഷം	-13174
▁fut	-13175
▁ಕೇವಲ	-13176
രിച്ച്	-13177
കളെ	-13178
डियो	-13179
▁परिषदे	-13180
▁கன	-13181
ঠন	-13182
▁వార్	-13183
કર્	-13184
▁நீதிபதி	-13185
▁फॉ	-13186
▁assembly	-13187
▁விளையா	-13188
▁آئی	-13189
▁मोर्चा	-13190
▁ಭಾಷ	-13191
ग्री	-13192
▁లి	-13193
▁(@	-13194
▁বিষয়টি	-13195
▁వివిధ	-13196
▁ات	-13197
▁smart	-13198
▁కర్	-13199
ક્ટર	-13200
▁ਜਾਵੇਗਾ	-13201
બ્ર	-13202
▁ਕੇਂ	-13203
▁સમાજ	-13204
▁साज	-13205
▁જ્યાં	-13206
▁اح	-13207
▁ਕਮੇਟੀ	-13208
ಧ್ಯಮ	-13209
▁શુ	-13210
▁একে	-13211
▁ಘಟಕ	-13212
ोह	-13213
▁लगातार	-13214
યર	-13215
▁તંત્ર	-13216
▁देऊन	-13217
▁premi	-13218
ಾಂಶ	-13219
ೋರ್ಟ್	-13220
▁कळ	-13221
▁decl	-13222
▁मजब	-13223
reme	-13224
ূর্ব	-13225
धरी	-13226
▁ਭਰ	-13227
▁एकत्र	-13228
ಶ್ರ	-13229
மது	-13230
▁শনি	-13231
স্পতি	-13232
▁அடை	-13233
▁नया	-13234
ീതി	-13235
▁नेतृत्व	-13236
ಕೋ	-13237
▁તરફથી	-13238
▁ಮುಂದುವ	-13239
▁आख	-13240
പര	-13241
▁ಠಾಣ	-13242
▁નહી	-13243
ened	-13244
▁ఎలా	-13245
▁went	-13246
▁আসে	-13247
▁வெள்ள	-13248
▁শুক্রবার	-13249
▁farm	-13250
త్వ	-13251
▁গা	-13252
▁occ	-13253
▁ਓ	-13254
ફી	-13255
▁छोड़	-13256
▁saturday	-13257
▁२५	-13258
ग्न	-13259
▁कभी	-13260
▁फडणवीस	-13261
डकर	-13262
▁ଘଟଣା	-13263
الی	-13264
▁भो	-13265
▁સતત	-13266
ಬೆ	-13267
▁જરૂર	-13268
▁દાખ	-13269
▁جے	-13270
▁ધરપકડ	-13271
▁benef	-13272
▁ಸುತ್ತ	-13273
▁यंत्र	-13274
▁నిర్ణయ	-13275
▁മണ്ഡ	-13276
த்துடன்	-13277
▁પહેલાં	-13278
▁తల	-13279
▁ବିର	-13280
▁আলোচ	-13281
ଳନ	-13282
▁உற	-13283
▁राष्ट्रपति	-13284
▁राज्यात	-13285
25	-13286
▁ಹಂತ	-13287
ಳವ	-13288
▁large	-13289
तरी	-13290
▁condu	-13291
▁ਲੜ	-13292
িরা	-13293
▁మీడియా	-13294
▁രേഖ	-13295
ദം	-13296
ಮ್ಮೆ	-13297
ിച്ചിരുന്നു	-13298
▁ಕಾನೂ	-13299
▁ചെയര്	-13300
घर	-13301
ುಕ್ತ	-13302
▁नग	-13303
▁যেন	-13304
▁ದೂರು	-13305
▁மறு	-13306
▁లేకుండా	-13307
▁নিশ	-13308
કુ	-13309
वर्षी	-13310
▁shah	-13311
▁సాయ	-13312
લાઇ	-13313
सिंह	-13314
▁fed	-13315
ഡല്	-13316
ଣ୍ଟ	-13317
▁आणखी	-13318
▁తరు	-13319
▁स्वीकार	-13320
▁सहयोग	-13321
वेत	-13322
ਖੀ	-13323
▁पीएम	-13324
▁अनिल	-13325
▁తల్లి	-13326
▁january	-13327
▁टेस्ट	-13328
▁முழு	-13329
▁લીધ	-13330
ବଳ	-13331
▁করলেন	-13332
▁ರಾಷ್ಟ್ರೀಯ	-13333
▁महीने	-13334
▁বিমান	-13335
▁പ്രധാനമന്ത്രി	-13336
▁वीज	-13337
लेट	-13338
▁invol	-13339
र्न	-13340
▁ತೀರ್	-13341
▁ସବୁ	-13342
▁ಯಾರ	-13343
▁சோ	-13344
▁गेंद	-13345
▁విద్యుత్	-13346
▁पिंप	-13347
▁મુંબઈ	-13348
ಗಿನ	-13349
▁खूप	-13350
▁দ্বিত	-13351
▁কাউ	-13352
▁[	-13353
▁રહેલા	-13354
ଆଇ	-13355
▁ਡਿ	-13356
نس	-13357
▁yes	-13358
ెంబర్	-13359
ളെ	-13360
ാത്ത	-13361
▁ple	-13362
▁રહેતા	-13363
▁ਵਿਦ	-13364
▁ಧರ್ಮ	-13365
▁ko	-13366
▁విద్యార్థులు	-13367
▁પ્રયા	-13368
▁সম্পর্	-13369
ାରିଖ	-13370
▁अली	-13371
ப்பின	-13372
▁सर्वो	-13373
ಲೈ	-13374
▁शाह	-13375
▁రాష్ట్రంలో	-13376
▁प्ला	-13377
▁কলেজ	-13378
തായ	-13379
▁ളി	-13380
വിത	-13381
▁പ്രത്യേക	-13382
▁நாட	-13383
▁1000	-13384
ন্স	-13385
▁पाऊ	-13386
ns	-13387
▁ਐਸ	-13388
ਹਿਤ	-13389
ுக்கு	-13390
ెల్	-13391
▁ਔ	-13392
నని	-13393
▁ಪಾಕ	-13394
పరి	-13395
▁घंटे	-13396
ଣ୍ଡି	-13397
ગો	-13398
▁पहुंचा	-13399
ാക്കിയ	-13400
ल्लेख	-13401
રાજ	-13402
ోత్స	-13403
▁ছাড়	-13404
side	-13405
व्ही	-13406
▁చెల్ల	-13407
▁ಬರುತ್ತ	-13408
లుపు	-13409
পুরের	-13410
▁ধরনের	-13411
▁ઇન્	-13412
▁সুযোগ	-13413
▁शिवा	-13414
ృష్ట	-13415
స్తున్నాయి	-13416
ਕਿਸਤਾਨ	-13417
▁કમિ	-13418
rendra	-13419
▁ਆਰ	-13420
ଜା	-13421
▁young	-13422
▁aust	-13423
▁ਸਭਾ	-13424
▁वाजता	-13425
▁அதன்	-13426
▁వచ్చి	-13427
णारा	-13428
▁ध्यान	-13429
શ્મી	-13430
ବନ	-13431
सिल	-13432
▁ಕೋರ್	-13433
ర్యాదు	-13434
▁question	-13435
mp	-13436
▁দর	-13437
ડીને	-13438
ండగా	-13439
દારી	-13440
▁विद्य	-13441
▁राशि	-13442
ಡಾ	-13443
▁pradesh	-13444
▁দাম	-13445
▁রেল	-13446
▁குடிநீர்	-13447
▁ఆదివారం	-13448
▁பணம்	-13449
मण	-13450
ಾವಣೆ	-13451
▁छह	-13452
▁prote	-13453
प्री	-13454
▁కేంద్రం	-13455
▁గౌ	-13456
ପାଳ	-13457
വിട	-13458
▁ఎంత	-13459
▁દીધી	-13460
▁ਮੁਤਾਬ	-13461
▁ವಿವ	-13462
over	-13463
▁তাহলে	-13464
ിലോ	-13465
▁अधी	-13466
▁రాజకీయ	-13467
કની	-13468
▁મહા	-13469
▁जिल्ह्यात	-13470
▁খুন	-13471
ଥିବାରୁ	-13472
ಣಿಗೆ	-13473
ಲಿನ	-13474
ম্প	-13475
▁ത്ത്	-13476
शिवाय	-13477
ന്നി	-13478
▁కౌ	-13479
▁വിക	-13480
▁राजी	-13481
पटा	-13482
उँ	-13483
ഘോഷ	-13484
മല്ല	-13485
ਸਾਰ	-13486
ଭଳି	-13487
ళ్ళ	-13488
▁ଭି	-13489
▁चव्हा	-13490
▁ఘటన	-13491
▁விமான	-13492
▁ଦେଶ	-13493
▁പ്പെടെ	-13494
क्कम	-13495
▁হাই	-13496
▁ਕੌ	-13497
▁ಮನೆಯ	-13498
▁बाबा	-13499
▁সূত্রে	-13500
ধবার	-13501
ছাড়া	-13502
▁बिजली	-13503
tain	-13504
▁feel	-13505
ಜ್ಞಾನ	-13506
▁ಜೈ	-13507
▁घात	-13508
সের	-13509
▁வட	-13510
ಣ್ಣು	-13511
्यांचे	-13512
സൈ	-13513
व्यव	-13514
ডে	-13515
ధా	-13516
ara	-13517
▁ਨਿਰ	-13518
▁चालक	-13519
▁பாட	-13520
টু	-13521
▁प्रतिक	-13522
▁सत	-13523
انا	-13524
▁ਸਬੰਧੀ	-13525
▁જન્	-13526
▁माझ्या	-13527
▁బయట	-13528
▁হলেও	-13529
கரன்	-13530
▁ಮಾರು	-13531
▁सांसद	-13532
ୃଷ୍ଟି	-13533
▁فیص	-13534
ம்மா	-13535
▁ಬಸ	-13536
ಿರುವುದು	-13537
पछि	-13538
▁తేదీ	-13539
▁বাহ	-13540
यु	-13541
ਟਿੰਗ	-13542
1,	-13543
ృష్టి	-13544
कड	-13545
▁55	-13546
▁सिद्ध	-13547
▁கூட்டம்	-13548
▁celebr	-13549
।"	-13550
ಬಹುದ	-13551
▁എക്	-13552
▁बनाया	-13553
▁தடை	-13554
▁అవసర	-13555
ామీ	-13556
▁விழு	-13557
▁বলেছেন	-13558
▁chang	-13559
यों	-13560
▁effort	-13561
▁കര	-13562
▁साहित्य	-13563
ମ୍ପ	-13564
▁কৃষ	-13565
▁મીડિયા	-13566
▁जवाब	-13567
▁বহু	-13568
▁ଅଧିକାରୀ	-13569
▁எண்	-13570
▁సౌ	-13571
▁கொடுத்த	-13572
▁ಇನ್ನೂ	-13573
▁ചെന്ന	-13574
ശ്ര	-13575
▁விஷ	-13576
పెట్ట	-13577
▁समार	-13578
ಿಯೆ	-13579
বী	-13580
▁महत्व	-13581
▁થતાં	-13582
લાવ	-13583
▁civ	-13584
▁applic	-13585
▁উপস্থিত	-13586
▁ಚಿಕ	-13587
पर्क	-13588
▁fight	-13589
▁foc	-13590
▁ஆதர	-13591
▁গোল	-13592
▁એવા	-13593
बळ	-13594
उने	-13595
ూడ	-13596
▁ide	-13597
ौं	-13598
াবার	-13599
▁ಸೀ	-13600
liament	-13601
ിലുള്ള	-13602
▁কাট	-13603
ਮਰ	-13604
▁୧୦	-13605
లక్ష	-13606
▁राज्यातील	-13607
▁ಹೂ	-13608
ଟକ	-13609
ଂଚ	-13610
्यांचा	-13611
▁ਇਲਾਵਾ	-13612
াস্ট	-13613
लेली	-13614
ੱਡ	-13615
▁उसका	-13616
osed	-13617
ப்பெ	-13618
▁bud	-13619
▁હોવાની	-13620
▁ఆస్	-13621
ప్పటిక	-13622
▁സ്ഥി	-13623
▁comes	-13624
▁মঙ্গলবার	-13625
लीवुड	-13626
▁घटने	-13627
▁उघड	-13628
▁இடங்களில்	-13629
▁ହେଲେ	-13630
▁बच्चे	-13631
भूमी	-13632
▁جات	-13633
▁तुम्ही	-13634
▁ਪਿਛ	-13635
ಾಹುಲ್	-13636
▁போராட்டம்	-13637
▁टीका	-13638
ിക്കാന	-13639
jab	-13640
श्वर	-13641
ಿಮ	-13642
▁once	-13643
স্পতিবার	-13644
▁بہت	-13645
ਡੀਆ	-13646
લ્પ	-13647
ati	-13648
▁ఫిర్యాదు	-13649
▁देर	-13650
▁చట్ట	-13651
▁کھ	-13652
ized	-13653
ವರೆ	-13654
▁तस्	-13655
▁65	-13656
ੱਦ	-13657
▁કરવાનો	-13658
▁లభ	-13659
▁હજુ	-13660
ability	-13661
यां	-13662
▁गौ	-13663
▁फैसला	-13664
▁শিব	-13665
టంతో	-13666
▁इंद	-13667
னுக்கு	-13668
ానం	-13669
രിക്കാന്	-13670
▁ஜி	-13671
▁শ্র	-13672
▁ଜେ	-13673
▁hot	-13674
▁মত	-13675
▁সম্ভব	-13676
തിര്	-13677
களின்	-13678
ंसा	-13679
▁যৌ	-13680
▁non	-13681
▁जिम्	-13682
▁ಜನರು	-13683
▁ಜೊತೆಗೆ	-13684
▁পশ্চিম	-13685
గాలు	-13686
▁release	-13687
சன்	-13688
কাপ	-13689
▁এম	-13690
▁respect	-13691
▁കൗ	-13692
మిక	-13693
▁ಉದ್ದೇಶ	-13694
▁దొ	-13695
▁exec	-13696
▁सोन	-13697
रीत	-13698
્યતા	-13699
▁ನಡೆದಿದೆ	-13700
ાવવા	-13701
ैया	-13702
▁ಸರ್ಕಾರಿ	-13703
▁लौ	-13704
▁दिलेल्या	-13705
▁తాను	-13706
▁ನಿಂದ	-13707
▁wa	-13708
▁பேசிய	-13709
aly	-13710
▁प्रवा	-13711
তায়	-13712
▁तब्	-13713
▁લઇને	-13714
ಬೈ	-13715
▁கலை	-13716
▁recently	-13717
യാല്	-13718
ಜಾ	-13719
नामा	-13720
ೇಖ	-13721
लका	-13722
▁respons	-13723
विरोधात	-13724
ja	-13725
▁लेख	-13726
▁നു	-13727
شی	-13728
▁విన	-13729
▁मुस्	-13730
▁अंग	-13731
शनल	-13732
▁આયોજન	-13733
▁ಮೃತ	-13734
किल	-13735
▁உள்ளன	-13736
ಎಲ್	-13737
▁കിട്ട	-13738
▁ರನ್	-13739
▁வியா	-13740
▁ಮುನ್ನ	-13741
ਗੜ੍ਹ	-13742
▁સુરક્ષા	-13743
▁ઘણા	-13744
▁ইসল	-13745
▁স্ম	-13746
▁`	-13747
▁కొంత	-13748
▁परत	-13749
▁સારવાર	-13750
▁জেলার	-13751
▁வெளியே	-13752
▁जल्द	-13753
▁ਜੁ	-13754
▁அப	-13755
▁वर्षीय	-13756
ിനും	-13757
্বাস	-13758
▁अंदाज	-13759
▁সাহায	-13760
ണാ	-13761
▁କୌଣସି	-13762
▁parliament	-13763
▁సభ్యులు	-13764
▁گی	-13765
▁اہ	-13766
▁फायदा	-13767
▁असतो	-13768
▁తాజా	-13769
▁चिकित	-13770
▁stop	-13771
▁ಮಾಡಿದ್ದ	-13772
ورٹ	-13773
▁കൂട	-13774
హెచ్	-13775
াধিক	-13776
െടുത്തി	-13777
▁કિં	-13778
▁ઘરે	-13779
ષણ	-13780
▁ಮದ	-13781
▁ଥାନ	-13782
ോളം	-13783
▁કં	-13784
▁కోర్టు	-13785
కారు	-13786
▁खंड	-13787
ೋಪಿ	-13788
▁ਸਿੱਖ	-13789
▁পুজ	-13790
▁ਸਾਹਮ	-13791
ସ୍ତା	-13792
▁पुरु	-13793
▁করেছিলেন	-13794
▁ਥ	-13795
▁programm	-13796
▁போக்குவரத்து	-13797
▁సంఘం	-13798
▁400	-13799
ওয়ায়	-13800
▁મન	-13801
▁ਫਿਰ	-13802
▁continue	-13803
▁ஆட்சிய	-13804
▁रेलवे	-13805
▁बल	-13806
ताच	-13807
▁విభా	-13808
ਾਲਾ	-13809
▁இயக்க	-13810
▁less	-13811
▁ಯಶ	-13812
ૂલ	-13813
त्ते	-13814
▁bow	-13815
▁প্রচার	-13816
▁কোচ	-13817
▁தவ	-13818
ট্র	-13819
ગ્	-13820
▁అక్క	-13821
▁भेज	-13822
ઝા	-13823
ട്ടം	-13824
ড়ি	-13825
▁রহ	-13826
ಗೇ	-13827
▁यामध्ये	-13828
నాన్ని	-13829
▁పరుగు	-13830
wood	-13831
▁સિંહ	-13832
▁वस	-13833
ிறேன்	-13834
▁சசிக	-13835
നിയ	-13836
▁சமூக	-13837
▁ఉపాధ్య	-13838
▁జయ	-13839
▁বুধবার	-13840
▁भ्र	-13841
▁पोहो	-13842
▁gand	-13843
ଯୁ	-13844
ಾವಿ	-13845
काब	-13846
▁મારા	-13847
ਰਾਮ	-13848
)।	-13849
▁ക്കി	-13850
▁बल्	-13851
▁শনিবার	-13852
▁కాగా	-13853
ణీ	-13854
▁ବିଜେଡି	-13855
▁मोठी	-13856
ala	-13857
வில	-13858
▁نظ	-13859
▁હાલમાં	-13860
▁जाग	-13861
ರ್ಕ	-13862
▁കോഴിക്ക	-13863
▁ಸುರ	-13864
▁मार्गा	-13865
కోవడం	-13866
▁বাবা	-13867
▁design	-13868
▁થવા	-13869
ర్ల	-13870
▁క్ష	-13871
▁নম্বর	-13872
▁ಮಗ	-13873
▁അടുത്ത	-13874
thing	-13875
▁അല്	-13876
▁private	-13877
▁സാഹചര്യ	-13878
▁प्रव	-13879
▁மருத்துவமனை	-13880
▁ਟੀਮ	-13881
▁शहरात	-13882
સના	-13883
ಕ್ತಿಯ	-13884
તરી	-13885
ర్చు	-13886
ਤਿ	-13887
▁پیش	-13888
▁ഗ്രാമ	-13889
ப்படை	-13890
ଲ୍ଲୀ	-13891
▁കണ്	-13892
▁september	-13893
నగర్	-13894
ഹമ്മദ്	-13895
▁രാത്രി	-13896
▁সুন	-13897
▁ନିକ	-13898
▁राजकार	-13899
▁ਹਾਂ	-13900
▁कामगार	-13901
▁రోజ	-13902
▁படம்	-13903
▁പരിഹ	-13904
ଳ୍ପ	-13905
▁ಸಮುದ	-13906
▁ghan	-13907
▁किसानों	-13908
▁होना	-13909
வேற்ற	-13910
▁नागपूर	-13911
▁సూచించారు	-13912
ীপ	-13913
اع	-13914
્રોલ	-13915
▁આજ	-13916
મણ	-13917
▁लगभग	-13918
▁ઉત્તર	-13919
▁ਸਾਰੇ	-13920
ஷன்	-13921
▁vehic	-13922
▁ಕ್ಯಾ	-13923
▁മൂന്ന്	-13924
य़ा	-13925
ముఖ	-13926
▁trump	-13927
▁کسی	-13928
▁శివ	-13929
▁कल्याण	-13930
▁যুক্ত	-13931
▁बड़ा	-13932
▁फार	-13933
হণ	-13934
▁ಸಂತ	-13935
▁matter	-13936
▁redu	-13937
▁কত	-13938
जीत	-13939
▁शौ	-13940
ಸ್ಕ	-13941
▁टिक	-13942
େକ	-13943
पित	-13944
▁முகா	-13945
ാനം	-13946
▁bill	-13947
ഹു	-13948
▁ਬੈ	-13949
▁શિ	-13950
▁चव्हाण	-13951
বর্তী	-13952
▁ਕਰਨਾ	-13953
▁ಸಿಕ್ಕ	-13954
▁ಸ್ಥಳೀಯ	-13955
నాయ	-13956
portun	-13957
జ్ఞ	-13958
▁સામ	-13959
▁तुल	-13960
▁বৃহস্পতিবার	-13961
▁ਕਰੋੜ	-13962
▁விட்டு	-13963
▁ଜଣା	-13964
ವರೆಗೆ	-13965
▁విచారణ	-13966
ോദ	-13967
▁১৫	-13968
▁ಊ	-13969
▁2010	-13970
▁आगामी	-13971
▁భక్	-13972
பால	-13973
▁வசதி	-13974
▁ఎలాంటి	-13975
▁நிர	-13976
ਆਈ	-13977
▁कार्यालया	-13978
▁ચૂક	-13979
▁വിവാഹ	-13980
ਤਾਲ	-13981
▁ಎಚ್ಚ	-13982
▁;	-13983
▁వివా	-13984
▁उत्पाद	-13985
धानी	-13986
তর্ক	-13987
▁অভিনে	-13988
ঘট	-13989
▁വേണ്ടി	-13990
▁கண்கா	-13991
াবাদ	-13992
▁പോലും	-13993
ದಗ	-13994
ored	-13995
ference	-13996
▁ଝ	-13997
ക്കേ	-13998
த்தா	-13999
ೀವ್ರ	-14000
▁ఉద్యోగు	-14001
▁ଯୁବ	-14002
▁banks	-14003
▁key	-14004
▁ఇదే	-14005
▁લીધી	-14006
▁କମି	-14007
▁ગંભ	-14008
▁সির	-14009
ாகு	-14010
స్తా	-14011
ਨੂੰ	-14012
विरुद्ध	-14013
▁যাওয়া	-14014
▁जखमी	-14015
▁மி	-14016
▁ଘର	-14017
▁சென்ன	-14018
దాపు	-14019
पौर	-14020
ival	-14021
▁आरक्षण	-14022
ুয়ার	-14023
▁প্রাক্ত	-14024
▁இளை	-14025
িনী	-14026
▁త్వర	-14027
ம்பர்	-14028
▁తెలిసిందే	-14029
▁মুখে	-14030
મ્બ	-14031
▁हात	-14032
▁லா	-14033
▁ਦਰਜ	-14034
▁పడి	-14035
▁ପୁଅ	-14036
▁ప్రభా	-14037
▁૧૯	-14038
▁opportun	-14039
हून	-14040
ध्	-14041
पणा	-14042
▁repres	-14043
▁april	-14044
▁लागत	-14045
▁వెళ్లి	-14046
▁ओळख	-14047
▁જતા	-14048
डर	-14049
राट	-14050
▁मेड	-14051
▁ପଦ	-14052
▁पटेल	-14053
▁ಪರಿಣಾಮ	-14054
▁ଦେଖି	-14055
▁পরিচাল	-14056
coming	-14057
▁sources	-14058
▁तिच्या	-14059
ਤਮ	-14060
▁હાઈ	-14061
▁cup	-14062
▁গোটা	-14063
▁সকাল	-14064
ప్తంగా	-14065
▁جا	-14066
વાસી	-14067
दास	-14068
▁ਰੇ	-14069
▁অভিন	-14070
களும்	-14071
▁दिवशी	-14072
ள்ளதாக	-14073
▁দিনের	-14074
ગઢ	-14075
▁बज	-14076
્યક્ષ	-14077
ತ್ವದ	-14078
▁କିନ୍ତୁ	-14079
▁చు	-14080
▁રવિ	-14081
▁संधी	-14082
▁সন্ত	-14083
నలు	-14084
▁ರಾಹುಲ್	-14085
ਾਨਕ	-14086
▁ಬೆಲೆ	-14087
▁situation	-14088
▁admin	-14089
▁ਪਾਕਿਸਤਾਨ	-14090
▁narendra	-14091
▁ಗಳು	-14092
ങ്കില്	-14093
▁corpor	-14094
୍ମ	-14095
▁ಬೆಂಗಳೂರಿನ	-14096
▁मिळत	-14097
▁detail	-14098
ards	-14099
▁ತೀವ್ರ	-14100
▁গুরুত্ব	-14101
▁മാത്രം	-14102
▁വിധ	-14103
▁ପହ	-14104
▁সকালে	-14105
▁ਸਕਦਾ	-14106
▁पीछ	-14107
તમ	-14108
▁कोल्हा	-14109
▁दिल्या	-14110
ram	-14111
ణంలో	-14112
▁مہ	-14113
▁గె	-14114
▁പിന്നീട്	-14115
ಲಿದ್ದಾರೆ	-14116
चणी	-14117
lish	-14118
▁అనుమ	-14119
▁बंध	-14120
▁വിശ്	-14121
▁నియోజకవర్	-14122
▁అరెస్	-14123
▁dra	-14124
▁facebook	-14125
నుంది	-14126
▁നടക്കുന്ന	-14127
▁सन्	-14128
▁थो	-14129
రికి	-14130
▁কার্য	-14131
▁लक्षात	-14132
ഭാഷ	-14133
▁कच	-14134
സു	-14135
▁इश	-14136
জনের	-14137
સાય	-14138
▁मुख्या	-14139
ূপ	-14140
▁અવ	-14141
ष्टा	-14142
কেট	-14143
ಿಲ್	-14144
▁ವಾರ್	-14145
uf	-14146
ವ್ಯ	-14147
૦૦૦	-14148
▁ମୁଖ୍ୟମନ୍ତ୍ରୀ	-14149
ators	-14150
▁coming	-14151
▁सीट	-14152
▁वालों	-14153
▁ভিত	-14154
▁નંબર	-14155
ంటారు	-14156
તન	-14157
▁उभार	-14158
▁ठाणे	-14159
empt	-14160
పడ	-14161
▁host	-14162
ೇಟ್	-14163
▁human	-14164
▁দ্বিতীয়	-14165
▁മോഹ	-14166
▁वार्	-14167
ग्रह	-14168
▁अदालत	-14169
यण	-14170
▁রাম	-14171
▁ਮੈਂਬਰ	-14172
▁બજાર	-14173
ೀಕರ	-14174
▁संवाद	-14175
▁তারপর	-14176
্যাট	-14177
ସେ	-14178
ക്കുക	-14179
▁माना	-14180
▁تھا۔	-14181
▁बांधकाम	-14182
સ્ક	-14183
▁જઈ	-14184
ony	-14185
হে	-14186
▁भविष	-14187
▁ரோ	-14188
▁நாக	-14189
▁మధ	-14190
▁అలాగే	-14191
▁નીક	-14192
▁চাপ	-14193
▁mod	-14194
▁justice	-14195
▁मंगळ	-14196
▁full	-14197
▁പ്രവേശ	-14198
▁આપ્યો	-14199
▁based	-14200
▁sri	-14201
▁ഗുരു	-14202
▁चौधरी	-14203
سٹ	-14204
ಹಳ್ಳಿ	-14205
▁కళాశాల	-14206
▁ফেলে	-14207
▁यंदा	-14208
▁இளைஞ	-14209
▁সাং	-14210
ില്ലെന്നും	-14211
▁गेली	-14212
ಂಡಿ	-14213
▁least	-14214
പ്പുറ	-14215
റിന്റെ	-14216
रि	-14217
▁हल्	-14218
ूब	-14219
▁ident	-14220
ಾಧಿಕಾರಿ	-14221
▁યુનિ	-14222
▁സ്കൂള	-14223
▁ગ્રામ	-14224
కృష్ణ	-14225
▁தெரிவித்தார்	-14226
नीय	-14227
णार्	-14228
▁طرح	-14229
▁अभिय	-14230
▁ജനറല്	-14231
▁ਦਿੰ	-14232
▁जवान	-14233
फोन	-14234
▁ఇచ్చిన	-14235
▁சொல்ல	-14236
▁शब्द	-14237
▁nigeria	-14238
▁مطابق	-14239
रोज	-14240
itional	-14241
▁திருப்ப	-14242
▁जीव	-14243
फाई	-14244
ੋਨ	-14245
దో	-14246
▁ଜନ	-14247
హన్	-14248
▁वर्षी	-14249
▁గతంలో	-14250
▁சுவ	-14251
▁సంబంధించిన	-14252
ம்பு	-14253
सबुक	-14254
▁ଚି	-14255
▁आत्महत्या	-14256
▁ವ್ಯಕ್ತಿ	-14257
▁తీర్	-14258
▁vir	-14259
▁चै	-14260
erv	-14261
▁मुख्यमंत्र	-14262
▁করল	-14263
ില്ലെന്ന്	-14264
▁விஜய	-14265
▁மைய	-14266
▁પત્ની	-14267
▁ಚುನಾವಣೆಯಲ್ಲಿ	-14268
▁શેર	-14269
▁वातावरण	-14270
বাহ	-14271
রণ	-14272
▁वॉ	-14273
▁संचालक	-14274
▁करती	-14275
▁सामान्य	-14276
▁sam	-14277
▁પ્રધાન	-14278
▁संगी	-14279
▁39	-14280
لیس	-14281
▁तहस	-14282
▁अवसर	-14283
12	-14284
லையில்	-14285
▁दिग्	-14286
▁black	-14287
.15	-14288
▁జగన్	-14289
▁बच	-14290
▁దాదాపు	-14291
▁প্রত	-14292
ದಲ್ಲಿರುವ	-14293
ಬ್ದ	-14294
യുണ്ട	-14295
▁மதுரை	-14296
ॉप	-14297
▁வாய்ப்பு	-14298
▁बाजू	-14299
▁ਅਕਾਲੀ	-14300
▁୭	-14301
▁صدر	-14302
▁सदर	-14303
▁साफ	-14304
▁नसल्याने	-14305
▁den	-14306
▁ક્રિકેટ	-14307
▁విషయంలో	-14308
▁फुट	-14309
▁ಖರೀ	-14310
ણામ	-14311
▁સમસ્યા	-14312
▁अमित	-14313
కారం	-14314
▁पुत्र	-14315
▁ശന	-14316
ورت	-14317
▁પરથી	-14318
ദര്	-14319
▁ஏற்க	-14320
▁തൊഴിലാ	-14321
▁ইসলাম	-14322
▁मराठा	-14323
▁ആണ്	-14324
▁પ્લા	-14325
തീക്ഷ	-14326
▁জন্ম	-14327
▁சின்	-14328
▁पुढील	-14329
وا	-14330
▁असेही	-14331
▁पहा	-14332
શ્કે	-14333
▁بل	-14334
▁பத	-14335
ത്തിലും	-14336
▁નિક	-14337
▁જેવી	-14338
▁തമി	-14339
▁अतिरिक्त	-14340
▁കഴിയ	-14341
▁உயிரி	-14342
▁உடல்	-14343
નર	-14344
ily	-14345
▁ધો	-14346
▁জাম	-14347
لئے	-14348
▁available	-14349
ेंस	-14350
▁கட்ச	-14351
▁americ	-14352
▁arrested	-14353
▁প্রাক্তন	-14354
▁यावर	-14355
वाधिक	-14356
ਕਤ	-14357
▁দীর্ঘ	-14358
▁ಮರ	-14359
ದಿಯ	-14360
▁తిరు	-14361
▁दिसून	-14362
ರಾವ	-14363
તના	-14364
▁ବିରୋଧ	-14365
▁പരിശോധന	-14366
▁ਜਾਂਚ	-14367
ட்டுக்கு	-14368
തിനു	-14369
▁టీడీపీ	-14370
▁ಸರಿಯ	-14371
્લો	-14372
ெக்டர்	-14373
हिर	-14374
men	-14375
▁online	-14376
ਿਆਰਥ	-14377
రంగా	-14378
ொட	-14379
cies	-14380
▁بتا	-14381
ಲ್ದ	-14382
7,	-14383
▁ಗಾಂಧಿ	-14384
▁गी	-14385
ారావు	-14386
▁નક્	-14387
▁ದರ	-14388
▁तयारी	-14389
▁कृषी	-14390
▁ਦਸ	-14391
ادی	-14392
ക്ഷി	-14393
▁44	-14394
▁କର	-14395
▁आधी	-14396
▁army	-14397
্লেখ	-14398
▁ചിക	-14399
వాల	-14400
▁price	-14401
గాల	-14402
▁મંગ	-14403
▁বিশ্বকাপ	-14404
ేశ్వర	-14405
▁ఇంటర్	-14406
സമയം	-14407
▁cut	-14408
▁त्याचे	-14409
▁ರು	-14410
cil	-14411
▁यदि	-14412
యే	-14413
తిలో	-14414
▁বক্তব্য	-14415
ಾಜಿಕ	-14416
▁ವಿಮಾನ	-14417
▁கர்	-14418
▁અક	-14419
▁ಕಾರು	-14420
▁ഇന്നലെ	-14421
ീമ	-14422
তেন	-14423
▁ਰੂ	-14424
▁ಬೆಂಬಲ	-14425
થ્	-14426
▁फक्त	-14427
▁પત્ર	-14428
ડવા	-14429
மையாக	-14430
୍ୟାଳୟ	-14431
▁quar	-14432
▁ಕಡಿಮೆ	-14433
▁مم	-14434
▁त्यावेळी	-14435
హత్య	-14436
োজ	-14437
▁जाना	-14438
▁ગંભીર	-14439
സിന്റെ	-14440
uck	-14441
శు	-14442
▁నగర్	-14443
▁ഡ്ര	-14444
▁half	-14445
ees	-14446
▁ಮಾಡಿಕೊಳ್ಳ	-14447
▁ರಚ	-14448
▁ବ୍ଲ	-14449
ਜ਼ਾਰ	-14450
▁ଫେ	-14451
▁ತಯ	-14452
▁deep	-14453
▁kh	-14454
▁rate	-14455
▁নানা	-14456
▁മികച്ച	-14457
▁किती	-14458
സ്റ്റര്	-14459
▁ਕੰਪ	-14460
▁ಉಂಟ	-14461
ண்ணா	-14462
▁अग्र	-14463
▁મતદાન	-14464
मकी	-14465
▁अक्ष	-14466
dp	-14467
▁आवेदन	-14468
▁ach	-14469
▁ಮಂಜ	-14470
ધિ	-14471
▁दिवसां	-14472
▁करतात	-14473
▁દાર	-14474
स्ट्रेलिया	-14475
while	-14476
▁സംഭവം	-14477
▁administ	-14478
നാണ്	-14479
ಸರ	-14480
▁മരിച്ച	-14481
▁नवंबर	-14482
▁રાષ્ટ્ર	-14483
ಿದ್ದರೂ	-14484
ചെ	-14485
▁ഭീക	-14486
टल	-14487
rs	-14488
ंकी	-14489
▁અના	-14490
▁research	-14491
▁রাখা	-14492
ocr	-14493
వారి	-14494
▁சசிகலா	-14495
▁వ్యవసాయ	-14496
▁বসে	-14497
ುದ್ಧ	-14498
▁પાલ	-14499
▁ତାଙ୍କୁ	-14500
ਰਮ	-14501
▁शहरा	-14502
▁आफ	-14503
▁ಚಿತ್ರದ	-14504
▁ഷാ	-14505
▁വൈക	-14506
୍ରି	-14507
▁seem	-14508
▁तीस	-14509
▁ହେବା	-14510
▁एव	-14511
▁রবিবার	-14512
▁হওয়া	-14513
▁આવા	-14514
▁ਵਿਅ	-14515
▁मग	-14516
▁ಬೇರೆ	-14517
▁fire	-14518
▁মামলা	-14519
▁दुसऱ्या	-14520
ୟା	-14521
▁live	-14522
▁tit	-14523
ਵਿ	-14524
मन्त्री	-14525
▁पूजा	-14526
▁ಮಾಧ್ಯಮ	-14527
▁പിന്തു	-14528
எம்	-14529
▁पुरुष	-14530
ఖా	-14531
▁અરજી	-14532
lished	-14533
▁जाईल	-14534
▁মন্ত্রী	-14535
▁મુક	-14536
ਿਆਣਾ	-14537
▁ರೈತರ	-14538
ండ్ర	-14539
▁ಆತ	-14540
কারী	-14541
▁బాబు	-14542
▁ਨੌਜ	-14543
રિ	-14544
▁ಆರೋಪಿ	-14545
▁બધા	-14546
▁உள்ளனர்	-14547
स्व	-14548
ଠାରୁ	-14549
▁ਕਲ	-14550
▁ಚಿಕ್ಕ	-14551
▁టు	-14552
▁ਖਾ	-14553
▁tour	-14554
▁ਗੋ	-14555
▁ਆਉਣ	-14556
▁হে	-14557
▁నూ	-14558
▁ಕೊಟ್ಟ	-14559
utions	-14560
ানায়	-14561
ડિયો	-14562
▁काल	-14563
▁ಪ್ರತಿಭಟನೆ	-14564
▁দশ	-14565
▁ସଭା	-14566
▁ଯୋଜ	-14567
pur	-14568
▁launch	-14569
▁उपाध्यक्ष	-14570
▁june	-14571
ক্ট	-14572
▁கேள்	-14573
▁மர	-14574
▁त्यावर	-14575
▁வகு	-14576
▁आवाहन	-14577
▁ఉత్	-14578
▁క్రీ	-14579
ొంద	-14580
▁2008	-14581
प्रतिनिधी	-14582
▁முயற	-14583
ಬಾರ	-14584
▁ट्रेन	-14585
▁స్పంద	-14586
▁அல்லது	-14587
▁austral	-14588
▁തിര	-14589
▁আহত	-14590
▁hist	-14591
▁طور	-14592
▁ബാല	-14593
pite	-14594
▁আহ	-14595
▁নর	-14596
▁ಉಗ್ರ	-14597
▁मित्र	-14598
▁জানিয়েছে	-14599
▁பிரதமர்	-14600
▁এগিয়ে	-14601
▁ప్రతిని	-14602
▁श्रे	-14603
▁આશ	-14604
▁able	-14605
▁இதன்	-14606
▁শ্রী	-14607
▁માગ	-14608
લુ	-14609
▁ऐसी	-14610
▁ઘણી	-14611
மலை	-14612
മെന്ന്	-14613
▁തോമസ്	-14614
▁উদ্য	-14615
://	-14616
▁এন	-14617
▁ਬੈਂ	-14618
▁પ્રત	-14619
▁ત્યારબાદ	-14620
ತೀ	-14621
വരും	-14622
▁वेतन	-14623
▁પં	-14624
ାଇଁ	-14625
પૂર્ણ	-14626
ਾਨੀ	-14627
▁bal	-14628
▁ஆலோ	-14629
▁वाच	-14630
most	-14631
र्ण	-14632
▁বন্দ্যোপাধ্যায়	-14633
ಶ್ಯ	-14634
▁વન	-14635
್ಲಾ	-14636
▁রক্ত	-14637
▁एल	-14638
ൈന	-14639
bc	-14640
▁മത്സര	-14641
▁കോട്ട	-14642
ঙ্কা	-14643
▁ప్రధాని	-14644
▁ಸಂಬಂಧಿಸಿದ	-14645
▁रक्कम	-14646
▁ગ્રા	-14647
▁न्यायालय	-14648
▁ಆಯ್ಕೆ	-14649
▁पोहोच	-14650
ાયું	-14651
▁લીધો	-14652
▁ट्रक	-14653
▁शराब	-14654
▁bad	-14655
న్నాయి	-14656
▁వృ	-14657
▁ಪ್ರದರ್ಶ	-14658
▁উল্লেখ	-14659
▁മാര	-14660
▁केलं	-14661
رے	-14662
▁ବିଶ୍ୱ	-14663
▁آپ	-14664
ൊക്കെ	-14665
▁கேட்டு	-14666
ଠି	-14667
▁ahead	-14668
▁शिवाजी	-14669
ਰਿੰਦਰ	-14670
▁சுக	-14671
▁europe	-14672
ந்த்	-14673
inal	-14674
▁રામ	-14675
▁ଭୁବନେଶ୍ୱର	-14676
▁ಮಾರಾಟ	-14677
▁बेट	-14678
رین	-14679
▁played	-14680
ജന	-14681
▁বিয়ে	-14682
▁ডেস্ক	-14683
▁মন্তব্য	-14684
▁జారీ	-14685
▁ఎవర	-14686
▁2000	-14687
▁করুন	-14688
▁புற	-14689
ശാല	-14690
▁जाय	-14691
ह्	-14692
▁ಪಾಕಿಸ್ತ	-14693
▁ری	-14694
▁interv	-14695
▁लाव	-14696
▁பிரச்	-14697
विंद	-14698
▁ਕੋਲ	-14699
▁മുസ്	-14700
▁ಕೃಷಿ	-14701
▁ಪೆ	-14702
▁അര്	-14703
▁ನೇಮ	-14704
▁છીએ	-14705
▁ആല	-14706
▁wal	-14707
▁ఇబ్బ	-14708
▁આદ	-14709
▁రహ	-14710
▁സോ	-14711
यिक	-14712
▁control	-14713
.25	-14714
▁टै	-14715
चारा	-14716
▁آج	-14717
▁towards	-14718
▁बनाए	-14719
▁സമര്	-14720
▁provide	-14721
▁കേസ്	-14722
▁deli	-14723
▁நிதி	-14724
▁डिस	-14725
▁आपले	-14726
▁జై	-14727
▁till	-14728
▁वितर	-14729
तार	-14730
ర్ర	-14731
▁थाने	-14732
▁மாணவி	-14733
▁જાન	-14734
ulation	-14735
▁ପର୍ଯ୍ୟ	-14736
वणूक	-14737
টিতে	-14738
▁ಸದ್ಯ	-14739
▁মিনি	-14740
ஞ்சா	-14741
आत	-14742
▁ક્ષે	-14743
ിലേ	-14744
▁बजा	-14745
que	-14746
▁ಎಂಬುದು	-14747
▁अवै	-14748
▁future	-14749
▁उठ	-14750
▁ਕਮਿਸ਼ਨ	-14751
లేదని	-14752
ஞ்சி	-14753
ெரிக்க	-14754
▁સત્તા	-14755
দান	-14756
▁പിണ	-14757
▁doing	-14758
▁স্ত্রী	-14759
नाची	-14760
let	-14761
▁उल्लेख	-14762
ज्ञा	-14763
▁ગયું	-14764
▁ਕਪ	-14765
▁होतं	-14766
▁తరల	-14767
▁ಪರಿಶೀಲ	-14768
▁फेसबुक	-14769
work	-14770
><	-14771
నాడు	-14772
▁ਨੌਜਵਾਨ	-14773
▁জানানো	-14774
ier	-14775
रों	-14776
▁பை	-14777
▁dig	-14778
▁అమెరికా	-14779
45	-14780
▁ಮಾನ	-14781
▁ನಿರ್ದೇಶಕ	-14782
ಣದ	-14783
ାତ୍ରୀ	-14784
▁ಸಭೆ	-14785
▁চলেছে	-14786
্মীর	-14787
సై	-14788
▁ઈન્ડ	-14789
▁డాక్టర్	-14790
চিত	-14791
▁വിമാന	-14792
मै	-14793
బడి	-14794
▁ପୋଲି	-14795
▁কন	-14796
▁कोहली	-14797
▁ശ്രദ്ധ	-14798
সার	-14799
▁কংগ্রেসের	-14800
▁విధంగా	-14801
▁ris	-14802
▁उत्पादन	-14803
▁gandhi	-14804
ান্ড	-14805
▁trade	-14806
▁ഭാര്യ	-14807
ళ్లి	-14808
▁અધ્યક્ષ	-14809
ುದಾಗಿ	-14810
மணி	-14811
▁हमले	-14812
▁संस्थे	-14813
ாளையம்	-14814
▁پاکستان	-14815
▁આવેલી	-14816
▁હુમલા	-14817
▁ಸಾಮಾಜಿಕ	-14818
্টা	-14819
▁సేవ	-14820
▁front	-14821
▁अपरा	-14822
▁candidates	-14823
▁ਵਿਦਿਆਰਥ	-14824
▁ഭാ	-14825
▁ইন্ড	-14826
▁करके	-14827
કલી	-14828
▁आढ	-14829
▁આવતી	-14830
▁ಸ್ಪಷ್ಟ	-14831
જ્ઞ	-14832
▁अद्या	-14833
▁अरु	-14834
▁propos	-14835
াদক	-14836
▁മെഡ	-14837
عہ	-14838
▁மருத்துவமனையில்	-14839
కోర్టు	-14840
▁ಗಳನ್ನು	-14841
मीटर	-14842
▁అది	-14843
తికి	-14844
▁చూడ	-14845
▁ଦେଇଥିଲେ	-14846
ிலான	-14847
িয়ায়	-14848
▁লোকসভা	-14849
कांची	-14850
तीन	-14851
▁రోజుల	-14852
▁ಅರ್ಜಿ	-14853
▁जंग	-14854
ष्य	-14855
ടര്	-14856
▁ভিড	-14857
▁وقت	-14858
▁પ્રશ્	-14859
▁സംഘടന	-14860
▁அரசின்	-14861
▁కొను	-14862
నియర్	-14863
▁విజయవాడ	-14864
70	-14865
গত	-14866
ଶ୍ର	-14867
▁ତାରିଖ	-14868
▁management	-14869
जनों	-14870
▁നടപട	-14871
▁amb	-14872
▁ఆత్మహత్య	-14873
▁पड़ा	-14874
ളള	-14875
▁chairman	-14876
▁సంక్ష	-14877
▁समर्थन	-14878
iod	-14879
▁বৃদ্ধ	-14880
▁ମହ	-14881
▁ಪೂರ	-14882
▁ನಿರ್ಧಾರ	-14883
੍ਰਿਤ	-14884
▁વર્ષની	-14885
▁ବିଧ	-14886
▁பணிய	-14887
▁मॉ	-14888
▁येते	-14889
▁ബെ	-14890
▁mur	-14891
▁ప్రవేశ	-14892
▁elections	-14893
▁చేరుకు	-14894
▁वड	-14895
▁gold	-14896
▁ನಡೆಸಿದ	-14897
▁সালের	-14898
▁उद	-14899
ਟਰੀ	-14900
▁യുവാ	-14901
▁આં	-14902
▁হিন্দ	-14903
▁ప్రజల	-14904
▁toget	-14905
▁गुरुवार	-14906
ಪ್ರಾಯ	-14907
▁together	-14908
ଣ୍ଡା	-14909
▁निवडणुकीत	-14910
▁थिए	-14911
ల్లా	-14912
▁நடந்து	-14913
▁ମାମ	-14914
▁યાદ	-14915
▁थियो	-14916
▁decided	-14917
▁1.	-14918
▁economy	-14919
িস্ট	-14920
.)।	-14921
▁केस	-14922
▁पेट्रोल	-14923
ಿಸುವುದು	-14924
▁ਸੁਖ	-14925
▁ച്ച്	-14926
▁ఫలి	-14927
ಸಂ	-14928
▁రెండో	-14929
▁ସର୍	-14930
▁അന്വേഷണം	-14931
▁കൊടു	-14932
▁પાકિસ્તાન	-14933
पन्न	-14934
▁ଆଉ	-14935
ಾಚ	-14936
ंधी	-14937
▁న్యూస్	-14938
lo	-14939
▁പതി	-14940
▁ਜ਼ਿਆਦਾ	-14941
ഗണ	-14942
لیم	-14943
▁watch	-14944
र्फे	-14945
▁போலீஸார்	-14946
ிலேயே	-14947
्रास	-14948
▁दर्श	-14949
▁বর্ত	-14950
▁مش	-14951
▁வாக்க	-14952
ాలీ	-14953
▁वतीने	-14954
▁घट	-14955
▁క్యా	-14956
▁സഹായ	-14957
▁பாஜ	-14958
ried	-14959
ಕೊಳ್ಳ	-14960
▁رہا	-14961
ammu	-14962
▁സന്ദര്	-14963
மூ	-14964
▁కార్మి	-14965
▁ବିଦ	-14966
▁திருவ	-14967
▁செல்லும்	-14968
विषयी	-14969
▁ಪ್ರತಿಕ	-14970
▁मिळाली	-14971
ేందుకు	-14972
▁mess	-14973
▁ಮಾದ	-14974
▁విధాన	-14975
▁ਪਾਣੀ	-14976
িনা	-14977
▁कार्यक्रमा	-14978
▁வைத்த	-14979
فی	-14980
▁ja	-14981
ચાલ	-14982
ത്തിലുള്ള	-14983
tar	-14984
ിട്ടുണ്ട്	-14985
▁ਨਵੀਂ	-14986
▁jour	-14987
▁শিল্প	-14988
▁మర	-14989
▁promot	-14990
ുമതി	-14991
▁ഏറെ	-14992
ification	-14993
▁রাখতে	-14994
▁केवल	-14995
त्कार	-14996
ிறோம்	-14997
▁১১	-14998
▁نام	-14999
க்கப்படும்	-15000
▁संघटने	-15001
▁தடு	-15002
▁സമാ	-15003
ुसार	-15004
▁শিশু	-15005
▁whether	-15006
ிருக்கும்	-15007
▁ಮಾಡಿದೆ	-15008
▁நகர்	-15009
▁ಮೌ	-15010
▁ಅಮ	-15011
▁মন্ত্র	-15012
चानक	-15013
▁ಇಂತಹ	-15014
▁फल	-15015
ವೀ	-15016
ୋର	-15017
▁stay	-15018
னித	-15019
▁दार	-15020
▁प्रशिक्षण	-15021
▁நு	-15022
▁lost	-15023
▁experience	-15024
▁નિવે	-15025
ிருப்ப	-15026
▁elect	-15027
▁इतिहा	-15028
▁ನಿಗ	-15029
રવ	-15030
বিদ্যাল	-15031
▁தலைமையில்	-15032
▁इस्ते	-15033
ಿಯು	-15034
▁ప్లా	-15035
▁நான	-15036
▁শক্ত	-15037
▁ਜਾਂਦਾ	-15038
anka	-15039
▁உச்ச	-15040
ത്തുന്ന	-15041
▁बिना	-15042
જીના	-15043
▁कर्मचाऱ्यां	-15044
▁जातो	-15045
ారో	-15046
▁गेला	-15047
জার	-15048
▁पर्या	-15049
స్థాయి	-15050
▁er	-15051
▁ಮೈಸೂರು	-15052
▁ਚੱਲ	-15053
ில்லை	-15054
▁నిర	-15055
▁सत्र	-15056
ம்பா	-15057
ଟିଏ	-15058
▁వైఎస్	-15059
▁ہوا	-15060
▁ਥਾ	-15061
षे	-15062
▁ഉന്ന	-15063
మంది	-15064
ଶୁ	-15065
▁അബ്	-15066
▁ಇತ್ತೀಚ	-15067
क्षी	-15068
ಳಿಗೆ	-15069
▁સ્થા	-15070
ப்பினர்	-15071
▁ಬಂದಿದೆ	-15072
▁ताब	-15073
▁ക്കെതിരെ	-15074
োহ	-15075
▁ಪ್ರೇ	-15076
▁कारो	-15077
ल्पा	-15078
▁നടത്തുന്ന	-15079
▁getting	-15080
▁எண்ண	-15081
▁@	-15082
▁ಒಬ್ಬ	-15083
▁মহিলা	-15084
ंती	-15085
▁डाय	-15086
▁relations	-15087
फ्ट	-15088
▁பொறு	-15089
▁तय	-15090
▁പോക	-15091
▁রিপ	-15092
૨૦	-15093
▁ਵਿਅਕਤੀ	-15094
▁हमारे	-15095
▁ಖಾಸ	-15096
▁इस्तेमाल	-15097
రాల	-15098
ੈਲ	-15099
▁शरद	-15100
▁43	-15101
aged	-15102
ുന്നുണ്ട്	-15103
▁সুর	-15104
▁नेटवर्	-15105
▁ਗੁਰੂ	-15106
▁न्यायालयात	-15107
▁కృష్ణ	-15108
▁নিউজ	-15109
rem	-15110
▁വിത	-15111
▁ensure	-15112
ாவது	-15113
▁संपर्क	-15114
▁પૈસા	-15115
▁દેવામાં	-15116
▁ಪ್ರಕಟ	-15117
hers	-15118
ச்சே	-15119
പ്പി	-15120
▁பார்க்க	-15121
ਾਪ	-15122
▁अचानक	-15123
▁ఇప్పటి	-15124
▁known	-15125
▁বিধান	-15126
ତ୍ୟା	-15127
▁ಯು	-15128
▁వీటి	-15129
म्ब	-15130
ൂരി	-15131
ೋಲ್	-15132
▁সংখ্যা	-15133
▁period	-15134
▁chand	-15135
▁ಅನ್ನು	-15136
▁കഥ	-15137
வாய	-15138
लिम	-15139
▁तरुण	-15140
▁কাজে	-15141
▁ਫਰ	-15142
▁तेल	-15143
▁ऑनलाइन	-15144
▁(0	-15145
▁env	-15146
টিং	-15147
▁অভিযুক্ত	-15148
▁ಪ್ರಕಾರ	-15149
▁সাংস	-15150
▁آر	-15151
▁మారి	-15152
ତୀ	-15153
ಕುಮಾರ್	-15154
ਿੰਨ	-15155
▁ತಿಳಿದು	-15156
▁ಕಾರ್ಯದರ್ಶಿ	-15157
▁వివ	-15158
▁లక్ష్	-15159
ੰਚ	-15160
▁மண்ட	-15161
ట్స్	-15162
▁पहुंची	-15163
▁जनते	-15164
▁देवेंद्र	-15165
▁జరిగింది	-15166
ਅਨ	-15167
ିକେ	-15168
▁رہی	-15169
▁ಭಾವ	-15170
ೆಗಳ	-15171
▁ଦୁର୍	-15172
▁कपूर	-15173
▁निरीक्षक	-15174
▁આઇ	-15175
▁नियंत्रण	-15176
▁ನೇತೃ	-15177
▁கருத்து	-15178
▁पति	-15179
లేక	-15180
ঙে	-15181
ങ്ങളാണ്	-15182
▁କଲେ	-15183
▁वर्त	-15184
▁যার	-15185
▁লড়াই	-15186
తల	-15187
▁कामे	-15188
▁বিস	-15189
▁वर्षे	-15190
ସଭା	-15191
▁2.	-15192
▁expect	-15193
र्व	-15194
▁બોર્ડ	-15195
▁likely	-15196
య్యాయి	-15197
षि	-15198
ାୟୀ	-15199
▁अल	-15200
▁రాత్రి	-15201
▁ତି	-15202
▁ফিরে	-15203
▁സമ്മേള	-15204
నంద	-15205
▁দেশে	-15206
▁hold	-15207
ഗത	-15208
মন্ত্রীর	-15209
16	-15210
▁ஆர	-15211
णाला	-15212
▁कार्यकर्त	-15213
▁প্রয়োজন	-15214
▁august	-15215
▁represent	-15216
▁স্বাস্থ	-15217
▁ट्वि	-15218
డిగా	-15219
▁सुनील	-15220
▁ഫ്	-15221
മാന്	-15222
டிக்க	-15223
▁अद्याप	-15224
▁ചു	-15225
वेद	-15226
lywood	-15227
▁जोशी	-15228
▁ವಿದ್ಯಾರ್ಥಿ	-15229
▁ਅਧਿਕਾਰ	-15230
ভি	-15231
▁ഒഴിവാ	-15232
श्री	-15233
ంగల్	-15234
▁लक्ष्	-15235
▁governor	-15236
▁ಇತರ	-15237
पड	-15238
സന	-15239
▁بتایا	-15240
▁सला	-15241
▁opposition	-15242
▁నీరు	-15243
કેટ	-15244
▁ಕ್ಷ	-15245
▁ਐੱਸ	-15246
કારો	-15247
મર	-15248
▁കേസില്	-15249
▁റാ	-15250
ively	-15251
▁ਦੁ	-15252
▁नावा	-15253
▁రూపాయ	-15254
▁నాలుగు	-15255
▁பக்த	-15256
▁চান	-15257
வதற்கு	-15258
நீதி	-15259
▁आपली	-15260
▁उपयोग	-15261
▁ದಿನಗಳ	-15262
▁പ്രസംഗ	-15263
ையாக	-15264
ಾದರೆ	-15265
▁শাস	-15266
ிருந்தார்	-15267
▁নিজেদের	-15268
▁பொருள	-15269
▁islam	-15270
▁একাধিক	-15271
▁higher	-15272
्याची	-15273
▁sab	-15274
ಪರ	-15275
యాల	-15276
▁સ્થાનિક	-15277
ڈیا	-15278
▁कलाकार	-15279
थी	-15280
▁വിശദ	-15281
▁மீன	-15282
▁மூன்று	-15283
्रमण	-15284
▁really	-15285
▁ઉદ	-15286
▁खेळाडू	-15287
▁ফল	-15288
▁چھ	-15289
ிற்கு	-15290
্যার	-15291
▁இருக்கிறது	-15292
fer	-15293
ଚା	-15294
ga	-15295
▁શખ	-15296
▁punjab	-15297
▁ದೆ	-15298
▁ਮੌਤ	-15299
▁మరింత	-15300
কর্ম	-15301
▁केन्द्र	-15302
▁அர	-15303
▁কর্মী	-15304
ರಾಜ್	-15305
▁క్రమ	-15306
▁લગાવ	-15307
▁मेट	-15308
▁সী	-15309
ೂರಪ್ಪ	-15310
▁கோயில்	-15311
▁ನನಗೆ	-15312
▁प्रभारी	-15313
▁तहसील	-15314
▁nation	-15315
▁പണം	-15316
మూ	-15317
▁അഭിപ്രായങ്ങള്	-15318
నించారు	-15319
▁ಒಟ್ಟು	-15320
▁chr	-15321
▁بچ	-15322
▁होऊन	-15323
▁जित	-15324
▁building	-15325
▁ஸ்ரீ	-15326
22	-15327
▁پولیس	-15328
▁നില്	-15329
▁threat	-15330
▁হয়েছেন	-15331
▁അമ്മ	-15332
▁kar	-15333
▁രോഗ	-15334
▁মিড	-15335
▁સેવા	-15336
▁उम्मीदवार	-15337
▁மாநக	-15338
▁हाद	-15339
િમ	-15340
صو	-15341
▁peace	-15342
▁looking	-15343
ಕಾಲ	-15344
ਧੂ	-15345
▁முடியும்	-15346
▁టీఆర్	-15347
▁கொலை	-15348
فر	-15349
▁தீவிர	-15350
▁शरीर	-15351
▁രണ്ടാം	-15352
▁അടിസ്ഥാന	-15353
▁चुका	-15354
▁പോലീസ	-15355
▁tur	-15356
▁இவ்வாறு	-15357
ಲಾಗುತ್ತಿದೆ	-15358
▁despite	-15359
▁हासिल	-15360
▁جم	-15361
▁പിണറായി	-15362
▁ताप	-15363
▁suggest	-15364
▁ಹೇಳಿಕೆ	-15365
ଳିତ	-15366
▁ਦੇਖ	-15367
▁ಅಂಬ	-15368
▁might	-15369
ൃഷ്ണന്	-15370
▁રમ	-15371
ിത്സ	-15372
जु	-15373
▁regist	-15374
ारायण	-15375
▁सचिन	-15376
▁পক্ষ	-15377
യന്	-15378
बंधन	-15379
▁loss	-15380
▁వు	-15381
▁விண்ண	-15382
ீடு	-15383
▁ઉલ્લેખનીય	-15384
▁ਕਰਦਿਆਂ	-15385
▁ఇద్దరు	-15386
▁ତଥା	-15387
▁engine	-15388
ేశ్వ	-15389
▁મોબા	-15390
ளுக்கான	-15391
▁ફી	-15392
▁kap	-15393
റിന്	-15394
್ಥ	-15395
▁ചിത്രം	-15396
▁நிகழ்ச்ச	-15397
▁ഭാര	-15398
েনি	-15399
▁સંપ	-15400
▁ರಾತ್ರಿ	-15401
▁தாக்கல்	-15402
▁ಮಾಡಲಾಗಿದೆ	-15403
4,	-15404
▁ಅಮೆ	-15405
മേരിക്ക	-15406
▁হাসপাত	-15407
▁കലാ	-15408
ன்றி	-15409
▁सीबी	-15410
کل	-15411
ஷ்ட	-15412
▁అంటూ	-15413
▁અર્	-15414
రావ	-15415
▁ಹಾ	-15416
▁मुद	-15417
ಚ್ಛ	-15418
▁ਘੱਟ	-15419
▁সত্য	-15420
▁সঙ্গ	-15421
▁dou	-15422
ভূ	-15423
▁cases	-15424
▁മുഖ	-15425
▁സുപ്ര	-15426
▁സ്വന്തം	-15427
▁મેળવી	-15428
▁१४	-15429
ാവ്	-15430
▁seek	-15431
▁forward	-15432
▁રોકા	-15433
रत	-15434
▁using	-15435
▁prop	-15436
ೂರ್ತಿ	-15437
▁உணவு	-15438
സഭാ	-15439
कालीन	-15440
▁அமெரிக்க	-15441
▁ବହୁ	-15442
मारा	-15443
▁સ્ટે	-15444
▁ಮಾಡಿಕೊಂಡ	-15445
▁ડોલ	-15446
▁स्वागत	-15447
जल	-15448
▁૧૫	-15449
▁مج	-15450
▁ऋ	-15451
▁রাহুল	-15452
▁ਕਿਉਂ	-15453
▁africa	-15454
వరకు	-15455
▁પિતા	-15456
ണല്	-15457
▁એજ	-15458
▁लु	-15459
▁ic	-15460
▁रखने	-15461
▁ফেল	-15462
করা	-15463
യാള്	-15464
▁ആരോഗ	-15465
▁தயாரி	-15466
▁பெண்கள்	-15467
▁એવો	-15468
రోజు	-15469
▁गाडी	-15470
▁ਵੱਧ	-15471
ೀಕ್ಷ	-15472
પ્રી	-15473
ശി	-15474
▁ഉമ്മ	-15475
▁നിന്നു	-15476
ராம்	-15477
▁३०	-15478
▁ಕ್ರೀ	-15479
▁কাশ	-15480
▁રેલ	-15481
੍ਰੀਤ	-15482
શનલ	-15483
▁রাজ্যে	-15484
ଥର	-15485
இந்த	-15486
▁ନେତା	-15487
▁తెర	-15488
▁ఆద	-15489
▁ಮಾರ್ಗ	-15490
▁એલ	-15491
▁चाहते	-15492
iding	-15493
मति	-15494
▁पुस्त	-15495
▁ಚಿನ್ನ	-15496
▁అంది	-15497
ତର	-15498
▁வருகிறார்	-15499
বাদিক	-15500
▁শুন	-15501
రల్	-15502
▁२००	-15503
▁ଖେ	-15504
▁2009	-15505
▁ਚੀ	-15506
▁ભગ	-15507
aka	-15508
ല്യ	-15509
▁चित्रपटा	-15510
ಡಿಯೂರಪ್ಪ	-15511
మెంట్	-15512
▁ਗੁ	-15513
▁विक्री	-15514
▁वास्त	-15515
మాను	-15516
▁ಮೂಡ	-15517
स्वी	-15518
▁ਆਮ	-15519
▁ইং	-15520
▁రీ	-15521
முதல்	-15522
તની	-15523
▁tele	-15524
र्चे	-15525
▁మాట	-15526
ീന	-15527
▁woman	-15528
▁mag	-15529
pa	-15530
▁ಪ್ರಯಾಣ	-15531
▁ਵਿਆ	-15532
▁இல்லாத	-15533
▁ಸಂಪರ್ಕ	-15534
▁વિચાર	-15535
▁cannot	-15536
▁थीं	-15537
▁రద్దు	-15538
▁झाल्याने	-15539
▁राहत	-15540
▁నట	-15541
▁सुनाव	-15542
▁एफ	-15543
▁বিশ্ববিদ্যাল	-15544
19	-15545
ਐਸ	-15546
▁rah	-15547
▁हटा	-15548
▁મધ્ય	-15549
▁ಭದ್ರ	-15550
▁rail	-15551
▁particip	-15552
▁community	-15553
▁जाण	-15554
fic	-15555
सीसी	-15556
▁jammu	-15557
▁ભારતમાં	-15558
▁ಒತ್ತಾಯ	-15559
▁व्हि	-15560
▁দিলেন	-15561
▁নেমে	-15562
▁उनले	-15563
▁அவரை	-15564
্ঞ	-15565
▁find	-15566
సార్	-15567
▁തുടങ്ങി	-15568
സ്ട്ര	-15569
نچ	-15570
▁ରୁ	-15571
▁થયેલા	-15572
వలం	-15573
▁पंच	-15574
▁ദി	-15575
▁வந்தது	-15576
▁വീട	-15577
കാല	-15578
▁ಅನೇಕ	-15579
▁तब्बल	-15580
▁ಭಾಗವಹ	-15581
▁దృష్టి	-15582
▁49	-15583
▁କରିଥିବା	-15584
▁ಅನುಭವ	-15585
▁૧૧	-15586
▁ஒது	-15587
▁दबा	-15588
ଓଡ଼ି	-15589
▁hours	-15590
▁ಯೋಜನೆಯ	-15591
▁کیلئے	-15592
पंच	-15593
కున్న	-15594
વાળા	-15595
ots	-15596
▁enc	-15597
ட்டிய	-15598
ନାୟକ	-15599
▁अवैध	-15600
▁adding	-15601
reed	-15602
▁मान्य	-15603
▁सहाय	-15604
▁আন্দ	-15605
▁हंगा	-15606
▁ਚਾਹੀ	-15607
▁అవస	-15608
పత్రి	-15609
▁वृत्त	-15610
▁લાગે	-15611
▁bab	-15612
▁કહી	-15613
▁మీద	-15614
▁முறைய	-15615
▁ಮೊದಲು	-15616
ಯೂ	-15617
▁ଦେଇଛନ୍ତି	-15618
▁youth	-15619
▁செய்யப்பட்டு	-15620
▁लखन	-15621
દર્શન	-15622
▁পথ	-15623
સ્મા	-15624
करा	-15625
▁ಮಧ	-15626
જરી	-15627
▁అతి	-15628
▁writ	-15629
▁received	-15630
▁सर्वोच्च	-15631
ଜନ	-15632
▁ਕੈਪ	-15633
▁கர	-15634
કને	-15635
▁ହେଉଛି	-15636
▁മെഡിക്കല്	-15637
പ്രവര്	-15638
▁అభ్యర్థ	-15639
amed	-15640
ctors	-15641
▁ਅਮਰੀ	-15642
▁previous	-15643
▁பயிற்சி	-15644
ନ୍ତା	-15645
▁નક્કી	-15646
न्ना	-15647
▁ಆಹಾರ	-15648
సులు	-15649
▁सम्मान	-15650
▁ವಿಚಾರಣೆ	-15651
▁રકમ	-15652
▁assist	-15653
▁ಪರಿಸ್ಥ	-15654
ലര്	-15655
ચ્ચ	-15656
വസ	-15657
वें	-15658
▁బ్ర	-15659
▁sports	-15660
▁ਯਾ	-15661
▁જામ	-15662
▁ఎంప	-15663
▁ପୂର୍ବରୁ	-15664
▁சம்பவ	-15665
ظم	-15666
▁ತಮ	-15667
੍ਰੇ	-15668
दरम्यान	-15669
▁জঙ্গি	-15670
▁ఇండి	-15671
▁थांब	-15672
▁குடிய	-15673
▁ವರ್ಷಗಳ	-15674
▁प्	-15675
ശേരി	-15676
▁ಆಚ	-15677
▁ফোন	-15678
▁కొనుగో	-15679
▁જમીન	-15680
ତିରେ	-15681
▁महापालिका	-15682
arma	-15683
▁கேள்வி	-15684
▁ಸೋಮವಾರ	-15685
▁പൊലീസ	-15686
▁ಉದ್	-15687
▁moh	-15688
ଣୁ	-15689
ೇಶ್ವರ	-15690
based	-15691
ತ್ಪಾದ	-15692
▁సంఖ్య	-15693
▁मॅ	-15694
▁പേരില്	-15695
▁കുമാര്	-15696
ka	-15697
▁age	-15698
ಾಗುವುದು	-15699
▁line	-15700
ply	-15701
▁او	-15702
▁താമ	-15703
சில	-15704
विधान	-15705
▁ഥി	-15706
▁எடு	-15707
વવામાં	-15708
▁ಅತಿ	-15709
▁स्म	-15710
▁ইন	-15711
▁সেখান	-15712
▁असल्याचा	-15713
▁சுமார்	-15714
▁ప్రమాద	-15715
▁सिटी	-15716
ਵਨ	-15717
▁ಉಳಿದ	-15718
▁લાં	-15719
▁ಮಾತನಾಡಿದರು	-15720
▁ಬಡ	-15721
▁নজর	-15722
▁কাপ	-15723
▁initi	-15724
▁civil	-15725
▁കയ	-15726
▁लगाने	-15727
▁विद्यालय	-15728
▁કેટલી	-15729
▁ஜன	-15730
▁അവത	-15731
ਡਰ	-15732
மல்	-15733
ପୁ	-15734
▁সাংবাদিক	-15735
رم	-15736
▁కేవలం	-15737
▁launched	-15738
▁behind	-15739
▁జీవి	-15740
▁पालिके	-15741
ಿತ್ಯ	-15742
ದಲ್ಲೇ	-15743
ಂತ್	-15744
▁यही	-15745
చ్చారు	-15746
▁जनवरी	-15747
▁ground	-15748
▁குறிப்பிட	-15749
▁ਸਪ	-15750
▁ਆਗੂ	-15751
ଦ୍ର	-15752
▁champions	-15753
▁ପୁଲିସ	-15754
चार्य	-15755
▁پارٹی	-15756
▁നിറ	-15757
లై	-15758
▁ಬಯ	-15759
▁ଚାଲି	-15760
াসের	-15761
▁அளவில்	-15762
മായും	-15763
▁russ	-15764
డో	-15765
▁দায়িত্ব	-15766
▁ఇబ్బందు	-15767
স্ক	-15768
▁ನ್ಯಾಯಾಲಯ	-15769
▁ପୁର	-15770
▁প্রকল্প	-15771
▁చా	-15772
▁સહિતના	-15773
▁આંદ	-15774
್ರಾ	-15775
▁अप्र	-15776
▁घरा	-15777
ಡಿಗೆ	-15778
▁ચુ	-15779
▁जोड	-15780
రంలో	-15781
وہ	-15782
▁হাজ	-15783
▁కృషి	-15784
▁ఎంపిక	-15785
▁ನರೇಂದ್ರ	-15786
ધાર	-15787
డియో	-15788
▁मीटर	-15789
▁ഹര്	-15790
ane	-15791
▁ಪ್ರತಿಕ್ರ	-15792
▁આદેશ	-15793
▁ఇటీవల	-15794
த்துள்ளது	-15795
▁ట్రా	-15796
▁సంద	-15797
▁நடிகர்	-15798
ர்களிடம்	-15799
▁ധന	-15800
▁ప్రయా	-15801
▁ਕਾਲ	-15802
▁माने	-15803
asing	-15804
▁பரிச	-15805
▁କରାଯାଇଥିଲା	-15806
▁সমস্ত	-15807
টো	-15808
ૂડ	-15809
▁ઘર	-15810
िरा	-15811
ઈલ	-15812
িদ	-15813
lement	-15814
18	-15815
ധ്യത	-15816
ಿಕಾ	-15817
▁જીવન	-15818
▁এতে	-15819
▁अत्य	-15820
నేందుకు	-15821
સ્તુ	-15822
▁ভর্ত	-15823
▁ചേ	-15824
ಹಿತ	-15825
▁કોલે	-15826
ுடன்	-15827
്യാപക	-15828
▁హోదా	-15829
▁ম্যাচে	-15830
▁सहकार	-15831
્ડ	-15832
▁अखेर	-15833
▁দূ	-15834
▁ধর্ম	-15835
▁sele	-15836
▁ചികിത്സ	-15837
▁brit	-15838
▁সপ্ত	-15839
▁जरूरत	-15840
জীব	-15841
▁അമേരിക്ക	-15842
▁अनुभव	-15843
▁विस्त	-15844
▁१८	-15845
▁କାର୍ଯ୍ୟକ୍ରମ	-15846
▁নিশ্চ	-15847
▁सोमवारी	-15848
ંતર	-15849
োদ	-15850
▁திட	-15851
ेश्वर	-15852
कल	-15853
পতি	-15854
वेल	-15855
िटी	-15856
▁इंग्ल	-15857
▁সম্পর্ক	-15858
▁ജോലി	-15859
▁మొదటి	-15860
ഖ്	-15861
▁கொடு	-15862
▁ਗਿ	-15863
▁ನಿರೀಕ್ಷ	-15864
▁રિપોર્ટ	-15865
▁આસ	-15866
▁राख	-15867
ੀਸ	-15868
▁note	-15869
വാദ	-15870
▁દર્શ	-15871
▁పంపి	-15872
▁घोषित	-15873
▁कमा	-15874
▁force	-15875
▁स्वयं	-15876
ശേഷം	-15877
▁लागली	-15878
▁సింగ్	-15879
▁અહે	-15880
▁पीछे	-15881
ଲରେ	-15882
▁दिसत	-15883
▁बॉलीवुड	-15884
uted	-15885
▁స్టేషన్	-15886
▁মিশ	-15887
ached	-15888
vi	-15889
ಾರ್ಟ್	-15890
▁mobile	-15891
▁cam	-15892
▁জম	-15893
ریب	-15894
ಪ್ರೀ	-15895
▁ভয়	-15896
கிரி	-15897
▁विदेश	-15898
▁किश	-15899
▁লাল	-15900
ਹਤ	-15901
ંગા	-15902
▁प्रत्यक्ष	-15903
▁వస్తు	-15904
▁সংস্থা	-15905
▁কোর	-15906
സിന്	-15907
▁released	-15908
▁ಪ್ರಶಸ್ತಿ	-15909
सित	-15910
ences	-15911
ಕ್ಷಿಣ	-15912
ಜು	-15913
▁शासकीय	-15914
▁dead	-15915
▁অশ	-15916
ాయతీ	-15917
▁സംഘം	-15918
att	-15919
▁बाइक	-15920
▁నేతలు	-15921
▁ಪ್ರವೇಶ	-15922
ുമു	-15923
▁प्या	-15924
▁काग	-15925
టీసీ	-15926
کٹ	-15927
▁జె	-15928
▁शेती	-15929
▁विराट	-15930
▁హామీ	-15931
▁pic	-15932
▁গাড়ি	-15933
କର	-15934
▁lab	-15935
▁mom	-15936
▁இள	-15937
▁ആയി	-15938
গ্রাম	-15939
த்தினர்	-15940
▁ണ്ട	-15941
▁twitter	-15942
▁ಕಾನೂನು	-15943
gb	-15944
▁pot	-15945
ਧਾਰ	-15946
▁नेटवर्क	-15947
▁हरिया	-15948
▁ಸಾಕಷ್ಟು	-15949
▁ਮੋਦੀ	-15950
▁గంటల	-15951
▁அலுவலர்	-15952
▁ਕਹਿ	-15953
▁forces	-15954
નલ	-15955
िटल	-15956
▁ਡੇ	-15957
▁కాల్	-15958
▁ஆண	-15959
తిరే	-15960
▁दुपारी	-15961
بل	-15962
ಣೆಯ	-15963
▁ପ୍ରଥମ	-15964
▁কাছ	-15965
னில்	-15966
▁महापौर	-15967
▁সিপি	-15968
ਟਨਾ	-15969
▁दिल	-15970
▁ash	-15971
▁পিছ	-15972
▁ವ್ಯಾಪ್	-15973
▁सही	-15974
▁ਖਿਲਾ	-15975
▁૧૨	-15976
▁ವಾ	-15977
ଧାରଣ	-15978
▁డ్ర	-15979
▁july	-15980
ांव	-15981
2,	-15982
▁बर्	-15983
nn	-15984
▁જેટલા	-15985
▁ভাঙ	-15986
▁வன	-15987
▁امری	-15988
▁ଚାଷ	-15989
▁സംവിധാനം	-15990
▁ఇందులో	-15991
▁democr	-15992
▁ਜੇਕਰ	-15993
▁ಕೃಷ್ಣ	-15994
▁থাকতে	-15995
▁تق	-15996
▁বিক্ষ	-15997
▁সন্ধ	-15998
ye	-15999
▁సంబంధించి	-16000
▁ನಡೆಸಿ	-16001
▁താന്	-16002
▁ਭੇ	-16003
sp	-16004
▁एखा	-16005
പാത	-16006
▁award	-16007
ண்மை	-16008
ப்பாளர்	-16009
▁north	-16010
▁field	-16011
▁ಸಾಮಾನ್ಯ	-16012
▁പ്രതീക്ഷ	-16013
લિયા	-16014
▁sr	-16015
▁கேர	-16016
▁सर्वाधिक	-16017
▁ಗೆಲುವ	-16018
▁हमें	-16019
▁সমা	-16020
ટ્સ	-16021
ಥಮ	-16022
aled	-16023
▁ക്കുന്ന	-16024
▁സ്ത്രീക	-16025
ಿಸುವಂತೆ	-16026
▁একটু	-16027
▁...	-16028
▁ਪਿਛਲੇ	-16029
▁લેવામાં	-16030
▁సైతం	-16031
▁என்பதை	-16032
▁ಸಂಸದ	-16033
▁যত	-16034
ரியில்	-16035
▁increase	-16036
▁అంటే	-16037
▁ખર્ચ	-16038
▁సీపీ	-16039
▁വേണ്ട	-16040
▁गोष्टी	-16041
▁performance	-16042
রাষ্ট্র	-16043
रल	-16044
▁നേതൃത്വത്തില്	-16045
ினம்	-16046
▁ಸಾಧ್ಯತೆ	-16047
▁বাইরে	-16048
▁ಮುಗ	-16049
▁ਉਹਨਾਂ	-16050
▁ਤਕ	-16051
▁సద	-16052
▁ಸಿಬ್ಬಂದಿ	-16053
సాద్	-16054
ਲਾਨ	-16055
▁വിഷയ	-16056
▁টাকার	-16057
▁finance	-16058
வதால்	-16059
..?	-16060
നിക	-16061
▁করলে	-16062
▁अगस्त	-16063
മൂ	-16064
▁मंत्रालय	-16065
ક્ષે	-16066
▁reve	-16067
▁આંદોલ	-16068
ಾಜ್	-16069
జేపీ	-16070
▁கூடு	-16071
▁बेटी	-16072
▁پڑ	-16073
▁জেল	-16074
ભી	-16075
்ட்	-16076
▁மோடி	-16077
▁మ్యాచ్	-16078
ಪಾ	-16079
▁காவல	-16080
भाष	-16081
ଗା	-16082
రేషన్	-16083
▁জায়গায়	-16084
ంతు	-16085
▁നേരത്തെ	-16086
▁દાખલ	-16087
സിയ	-16088
ಕನ	-16089
সভার	-16090
ಲ್ದಾಣ	-16091
ুরুষ	-16092
த்தக்க	-16093
▁games	-16094
▁பரபர	-16095
فت	-16096
▁५०	-16097
▁அங்க	-16098
▁goal	-16099
▁દેશમાં	-16100
▁شام	-16101
▁পরিস্থিতি	-16102
▁మై	-16103
లిక	-16104
াফ	-16105
ளவு	-16106
ಾಮೆ	-16107
▁ठाण्यात	-16108
▁investment	-16109
▁મુલાકાત	-16110
രിത	-16111
▁ગેર	-16112
▁ago	-16113
▁با	-16114
▁करावे	-16115
▁मागील	-16116
दात	-16117
phone	-16118
ാരാ	-16119
▁বলতে	-16120
▁ప్రాంతాల్లో	-16121
పోయిన	-16122
▁ছেড়ে	-16123
▁ପରିବାର	-16124
കുമാര്	-16125
एसटी	-16126
કના	-16127
▁ਕੱ	-16128
ഞ്ച്	-16129
ider	-16130
▁exam	-16131
▁ସ୍ୱା	-16132
▁england	-16133
▁પતિ	-16134
క్త	-16135
▁राजधानी	-16136
▁भारी	-16137
▁విస్త	-16138
▁होकर	-16139
ंदन	-16140
▁பறி	-16141
▁କାମ	-16142
లింగ్	-16143
▁हुने	-16144
▁இருந்தது	-16145
▁பார	-16146
▁పోరా	-16147
▁വിദേശ	-16148
गंज	-16149
▁હાજર	-16150
▁जुल	-16151
▁તેનું	-16152
▁શરી	-16153
▁बँके	-16154
▁जानेवारी	-16155
▁ప్రై	-16156
▁complete	-16157
▁வலியுறு	-16158
▁ચિ	-16159
▁ਅਨੁਸਾਰ	-16160
खान	-16161
▁plac	-16162
▁ପ୍ରଦାନ	-16163
▁गुप्ता	-16164
▁যেমন	-16165
▁वापस	-16166
▁anti	-16167
ஜ்	-16168
اح	-16169
aker	-16170
tr	-16171
▁seven	-16172
▁एयर	-16173
▁ریاست	-16174
enal	-16175
▁આપે	-16176
▁स्वतंत्र	-16177
చె	-16178
▁पैसा	-16179
వుడ్	-16180
▁ভিডিও	-16181
നായി	-16182
3,	-16183
▁इतिहास	-16184
যায়ী	-16185
▁भावना	-16186
▁கேட்ட	-16187
▁మాట్లాడారు	-16188
ଦ୍ଦେଶ	-16189
▁story	-16190
itor	-16191
ীতে	-16192
▁medical	-16193
धारण	-16194
▁ఎంతో	-16195
ଧିକ	-16196
▁needs	-16197
▁playing	-16198
▁आपके	-16199
▁તેથી	-16200
ructure	-16201
ಸೂ	-16202
▁heart	-16203
▁सुरेश	-16204
രിക്കുകയാണ്	-16205
▁हिस्सा	-16206
▁জীবন	-16207
বেষ	-16208
▁रम	-16209
રિયા	-16210
മല	-16211
▁చోటు	-16212
▁పక్క	-16213
▁বিভা	-16214
▁ஆலோச	-16215
ദ്ധ്യ	-16216
▁ਤੌਰ	-16217
da	-16218
▁পু	-16219
▁زیا	-16220
ించాడు	-16221
onment	-16222
▁ರಕ್ಷ	-16223
▁ವ್ಯವಸ್ಥೆ	-16224
▁এখানে	-16225
સની	-16226
▁അധികൃതര്	-16227
▁implement	-16228
ತಿಗೆ	-16229
▁ಹೀಗೆ	-16230
▁ಹೆಸರು	-16231
ष्ट्रा	-16232
▁ਬਰ	-16233
▁आमच्या	-16234
▁भन्	-16235
▁ഫ്ര	-16236
▁دوس	-16237
▁कस	-16238
utive	-16239
▁২০০	-16240
▁భర్	-16241
▁उपाय	-16242
▁રસ્તા	-16243
▁ઝડપી	-16244
▁ఆంధ్రప్రదేశ్	-16245
ਾਇਰ	-16246
▁મુદ્દે	-16247
▁സമയ	-16248
▁మంత్ర	-16249
ਪ੍ਰੀਤ	-16250
▁பேருந்து	-16251
▁അധ	-16252
▁હાઇ	-16253
▁ജൂ	-16254
▁achie	-16255
▁జరగ	-16256
▁vol	-16257
▁बल्कि	-16258
▁ಕಲ್ಪ	-16259
▁કૃ	-16260
▁ಏನ	-16261
म्स	-16262
ர்ப	-16263
▁વિરુ	-16264
ibility	-16265
▁வேண்டிய	-16266
▁નુક	-16267
▁ಸಭೆಯಲ್ಲಿ	-16268
▁ഹെ	-16269
▁ସୋ	-16270
▁রাজনী	-16271
జె	-16272
▁పవన్	-16273
▁लिखा	-16274
▁सहायक	-16275
મની	-16276
ମ୍ବର	-16277
లాల	-16278
ੇਅਰ	-16279
કોને	-16280
▁ஒருவர்	-16281
▁మంజ	-16282
▁खाली	-16283
▁பற்றி	-16284
ರಿಯಲ್ಲಿ	-16285
ung	-16286
▁జే	-16287
aff	-16288
▁reven	-16289
▁ટેસ્ટ	-16290
▁લાગી	-16291
▁নিন	-16292
▁టై	-16293
▁ಪತ್ರಿ	-16294
टेल	-16295
▁ఏర్పా	-16296
▁కల్ప	-16297
tra	-16298
▁ಒದಗ	-16299
▁சாத	-16300
▁తమి	-16301
▁ਕਾਰਵਾਈ	-16302
▁রাষ্ট্র	-16303
▁संगठन	-16304
డని	-16305
▁അഭിന	-16306
▁મુશ્કે	-16307
▁തമിഴ്	-16308
मेल	-16309
▁જાણી	-16310
▁ನು	-16311
▁అవకాశ	-16312
▁വ്യക്തി	-16313
्येष्ठ	-16314
▁જયારે	-16315
फोट	-16316
મદ	-16317
▁വിമര്	-16318
ler	-16319
▁മൂന്നു	-16320
స్తో	-16321
کار	-16322
▁अभिनेत्री	-16323
ન્ને	-16324
▁இங்கு	-16325
மையான	-16326
▁കാരണം	-16327
ટલ	-16328
▁ಪತ್ತ	-16329
ಬಂದ	-16330
▁வரி	-16331
ffic	-16332
ड्या	-16333
ಹಿ	-16334
▁agency	-16335
भेत	-16336
▁കോഴിക്കോട്	-16337
▁ചുമ	-16338
▁ഉത്ത	-16339
▁దాని	-16340
▁ಖಾಸಗಿ	-16341
▁ইতিমধ্য	-16342
ీర్	-16343
▁କୋଟି	-16344
▁সম্পর্কে	-16345
▁നേടിയ	-16346
▁यून	-16347
▁കമ്മിറ്റി	-16348
ાવે	-16349
▁ପ୍ରାର୍ଥ	-16350
▁लागला	-16351
▁వివరించారు	-16352
▁something	-16353
▁பழனி	-16354
ilar	-16355
ઝી	-16356
াণ	-16357
ਵਰੀ	-16358
▁বাড়ির	-16359
▁१३	-16360
ल्यास	-16361
বঙ্গ	-16362
▁ڈی	-16363
▁ಪ್ರಚಾರ	-16364
▁ઉજ	-16365
▁mass	-16366
▁cash	-16367
▁ମନ୍ତ୍ରୀ	-16368
પ્તા	-16369
▁സ്വകാര്യ	-16370
ালেন	-16371
▁देखने	-16372
▁अधीक्षक	-16373
▁ஆணைய	-16374
ंग्रेस	-16375
▁brand	-16376
▁3.	-16377
ಲೋ	-16378
શુ	-16379
ిల్లు	-16380
▁ਜਗ	-16381
اکہ	-16382
স্ত্র	-16383
▁mult	-16384
▁நூ	-16385
▁தய	-16386
▁પૂર્ણ	-16387
▁ਹੋਵੇਗਾ	-16388
চেয়ে	-16389
▁પરિણામ	-16390
▁இதற்கு	-16391
পূর্ণ	-16392
▁વિસ્તારો	-16393
▁ભુ	-16394
▁196	-16395
▁ট্রেন	-16396
ിക്കുകയും	-16397
▁राजनीतिक	-16398
resh	-16399
دال	-16400
േല്	-16401
ാനാണ്	-16402
ದೆಹಲಿ	-16403
▁ever	-16404
▁direct	-16405
▁అల	-16406
▁ജാ	-16407
িকের	-16408
▁ஜெ	-16409
▁निर्वा	-16410
▁conv	-16411
ॉर्ड	-16412
▁infl	-16413
ನಿಯ	-16414
ந்திரன்	-16415
▁బల	-16416
निंग	-16417
▁ലഭിച്ച	-16418
گریس	-16419
▁study	-16420
▁ആരോഗ്യ	-16421
▁சேர்ந்தவர்	-16422
▁ദിന	-16423
ಎನ್	-16424
ವಣಿಗೆ	-16425
▁பலர்	-16426
▁முன்பு	-16427
ನಾಥ್	-16428
▁కొంద	-16429
▁શકો	-16430
▁ఐదు	-16431
యానికి	-16432
িটার	-16433
▁ak	-16434
▁లీ	-16435
▁ಗುರುವ	-16436
▁ನಿಲ್ದಾಣ	-16437
టర్ల	-16438
▁ওয়	-16439
▁prep	-16440
पुरा	-16441
▁पिंपरी	-16442
▁ಅಭ್ಯರ್ಥಿ	-16443
itness	-16444
ଟ୍ଟ	-16445
ਬੀਰ	-16446
▁వ్యాప	-16447
▁ફોન	-16448
▁तिला	-16449
▁യുവതി	-16450
▁ഭക്ഷ	-16451
▁ఇంత	-16452
▁ಮಾರುಕ	-16453
▁లె	-16454
ರ್ಗ	-16455
लट	-16456
▁यूपी	-16457
▁ଦାବି	-16458
ட்டின்	-16459
യുമായി	-16460
ರಾಗಿ	-16461
▁গবেষ	-16462
35	-16463
▁ഗ്	-16464
▁ಹೇಗೆ	-16465
ண்ட்	-16466
ੱਤਰ	-16467
▁फ्ल	-16468
म्मद	-16469
▁एटी	-16470
ईक	-16471
▁bol	-16472
▁ಸಂಪೂರ್ಣ	-16473
ారన్నారు	-16474
തര	-16475
▁প্রত্য	-16476
▁ആഭ	-16477
▁દેવા	-16478
ांकडून	-16479
▁ਤਸ	-16480
▁জানতে	-16481
▁ഇംഗ്	-16482
രുദ്ധ	-16483
▁सुमारा	-16484
▁ran	-16485
عت	-16486
▁ಗಿ	-16487
▁रॉ	-16488
▁گر	-16489
నంగా	-16490
▁47	-16491
▁ଉତ୍	-16492
ಾಮೀ	-16493
ங்களின்	-16494
▁अश्	-16495
▁അഡ്	-16496
▁അയ	-16497
▁પ્રવેશ	-16498
▁रुग्णालयात	-16499
▁ফাঁ	-16500
▁கிருஷ்ண	-16501
▁थेट	-16502
▁నిల	-16503
hu	-16504
▁plat	-16505
ూర్తి	-16506
▁পঞ্চায়েত	-16507
▁latest	-16508
্যাম্প	-16509
▁उद्ध	-16510
▁fall	-16511
راد	-16512
ਖਾ	-16513
▁গেলে	-16514
ଦ୍ୟ	-16515
ത്തിനി	-16516
▁ਨਜ਼ਰ	-16517
▁ਜਿਨ੍ਹਾਂ	-16518
ङ्	-16519
▁प्रत	-16520
▁వ్యతిరే	-16521
▁தன்	-16522
ੁੱਧ	-16523
▁சரி	-16524
त्व	-16525
▁नवा	-16526
்ச்ச	-16527
▁सामन	-16528
ੱਥ	-16529
▁अंतर्गत	-16530
യിക്ക	-16531
ன்த	-16532
▁मुकाब	-16533
▁hope	-16534
▁વૈ	-16535
▁छात्रों	-16536
▁व्यापार	-16537
▁নির্ম	-16538
ക്കോടതി	-16539
medi	-16540
▁जाएंगे	-16541
'।	-16542
▁୮	-16543
▁bir	-16544
▁ఆలో	-16545
పణ	-16546
గంలో	-16547
ಲುಪ	-16548
▁બ્રા	-16549
ുത	-16550
▁football	-16551
▁सन	-16552
ंमध्ये	-16553
▁डिसेंबर	-16554
▁कोल्हापूर	-16555
▁छु	-16556
▁పాట	-16557
ில்ல	-16558
▁बँक	-16559
▁बाव	-16560
ాప	-16561
▁prices	-16562
▁మార	-16563
▁போலீஸ்	-16564
▁செல	-16565
▁ભી	-16566
▁കാന്	-16567
ଲାର	-16568
▁products	-16569
▁ಮಂಗಳೂರು	-16570
স্থার	-16571
▁വീട്ടില്	-16572
▁treat	-16573
▁सपा	-16574
▁ધરી	-16575
▁ઉત્પા	-16576
ருவ	-16577
▁ver	-16578
▁बारा	-16579
▁নিয়ন্ত্র	-16580
▁মার্ক	-16581
▁runs	-16582
య్యే	-16583
▁செய்யும்	-16584
ಯೋಗ	-16585
,500	-16586
▁અત્યાર	-16587
▁২৪	-16588
▁गोली	-16589
ಿತ್ಸೆ	-16590
▁ಚೆನ್ನ	-16591
▁অথ	-16592
▁போட்டி	-16593
ేష్	-16594
▁શ્ર	-16595
ರಿಗೂ	-16596
வினர்	-16597
▁പിടി	-16598
▁பல்க	-16599
▁బీజేపీ	-16600
ins	-16601
মাত্র	-16602
▁ള്ള	-16603
▁ರಸ್ತ	-16604
गण	-16605
▁नेताओं	-16606
▁નીતિ	-16607
▁ಕುಡಿಯ	-16608
▁ఉగ్ర	-16609
▁ಪಾಲ್	-16610
▁प्रसिद्ध	-16611
▁എടു	-16612
▁ಕುಮಾರಸ್ವಾಮಿ	-16613
ழிப்பு	-16614
▁শান্ত	-16615
▁सुमारास	-16616
▁નહો	-16617
▁است	-16618
▁पालक	-16619
▁पदाधिकारी	-16620
भूत	-16621
மடைந்த	-16622
▁स्पर्ध	-16623
ગ્રી	-16624
▁જોડ	-16625
▁ਮੁਤਾਬਕ	-16626
▁જાણવા	-16627
▁வங்கி	-16628
▁fav	-16629
▁જોડા	-16630
▁വിവാദ	-16631
ఎన్	-16632
▁সবচেয়ে	-16633
ందా	-16634
કત	-16635
▁വരുന്ന	-16636
ಿಸಿದರೆ	-16637
▁ଏହାର	-16638
ૂત	-16639
▁গ্রামের	-16640
▁break	-16641
▁போல	-16642
▁ತಿಂ	-16643
▁സ്കൂള്	-16644
▁ಶುಕ್ರ	-16645
▁markets	-16646
▁ഡല്	-16647
పోయింది	-16648
▁അതേസമയം	-16649
▁अगले	-16650
െടുക്ക	-16651
▁ଅତି	-16652
ವರನ್ನು	-16653
▁വാഹന	-16654
▁नियु	-16655
▁চৌ	-16656
▁చేస్తూ	-16657
મેન	-16658
derabad	-16659
કટ	-16660
पि	-16661
ધન	-16662
▁மிகவும்	-16663
▁ਦਿੱਤੇ	-16664
pecial	-16665
▁ਨਾਮ	-16666
்குமார்	-16667
▁স্বাস্থ্য	-16668
▁ભે	-16669
▁టుడే	-16670
▁ସୁର	-16671
▁அதற்கு	-16672
▁অবস্থায়	-16673
▁ഒരാ	-16674
ੰਮ	-16675
▁council	-16676
தியாக	-16677
▁महस	-16678
ീകരിച്ച	-16679
▁পূর্ব	-16680
▁ರಾಜ್ಯದಲ್ಲಿ	-16681
▁అక్రమ	-16682
▁दस	-16683
▁தாக்கு	-16684
▁rights	-16685
▁मुद्दे	-16686
▁ਸਾਹਮਣੇ	-16687
థి	-16688
▁राजस्थान	-16689
▁भ्रष्टा	-16690
▁अक्ट	-16691
ਵਲ	-16692
▁കൊണ്ട്	-16693
▁कोणत्याही	-16694
▁ಜತೆ	-16695
▁શહેરમાં	-16696
▁नंतर	-16697
▁निर्णया	-16698
▁ଆଗ	-16699
विला	-16700
ன்கள்	-16701
ांति	-16702
▁ਹੇ	-16703
କାରୀ	-16704
لام	-16705
▁ച്ചു	-16706
▁বেড়ে	-16707
साई	-16708
మణ	-16709
▁ബൈ	-16710
▁ஆன	-16711
▁অনুযায়ী	-16712
▁നല്ല	-16713
▁ക്ഷേത്ര	-16714
ହଣ	-16715
▁ਔਰ	-16716
नै	-16717
▁અટક	-16718
▁ગુજરાતના	-16719
धिका	-16720
நீதிமன்ற	-16721
▁విశాఖ	-16722
▁कीमत	-16723
▁ത്തന	-16724
▁आपला	-16725
▁ಆಗ್ರಹ	-16726
▁বিদেশ	-16727
▁ज्येष्ठ	-16728
ધું	-16729
▁वैद्य	-16730
▁রিপোর্ট	-16731
लोक	-16732
अप	-16733
▁ಚುನಾವಣಾ	-16734
▁లైన్	-16735
▁மேற்கொள்ள	-16736
▁યુવતી	-16737
ನಲ್	-16738
▁ನಿಂತ	-16739
ઉન્ડ	-16740
ਮੀਦ	-16741
اصل	-16742
of	-16743
ेशा	-16744
▁शांत	-16745
▁કૌ	-16746
▁ಉದ್ಯೋಗ	-16747
▁ಕೋರ್ಟ್	-16748
▁leading	-16749
ಪತಿ	-16750
പ്പോഴും	-16751
▁अजय	-16752
▁ஆட்ட	-16753
▁વહે	-16754
▁ভেঙে	-16755
▁pti	-16756
▁ওয়েব	-16757
▁मिळणार	-16758
▁ಅಭಿಪ್ರಾಯ	-16759
iving	-16760
மோ	-16761
▁قر	-16762
▁ଥିଲେ	-16763
▁१६	-16764
▁जता	-16765
▁सीएम	-16766
▁ಗ್ರಾಮದ	-16767
▁મહારા	-16768
▁ਕੈਪਟਨ	-16769
rodu	-16770
സേ	-16771
▁ਚੌ	-16772
▁সম্প্রতি	-16773
▁cal	-16774
▁তরফে	-16775
▁कानून	-16776
ಕ್ಕು	-16777
स्तान	-16778
ତ୍ୟ	-16779
aut	-16780
▁ਦੋਸ਼	-16781
▁সুপার	-16782
▁जातात	-16783
▁घरी	-16784
बू	-16785
▁झाल्यानंतर	-16786
▁સાત	-16787
▁बघ	-16788
ભગ	-16789
▁कश्मीर	-16790
▁பங்கேற்ற	-16791
▁धक्का	-16792
▁నష్ట	-16793
▁لوگوں	-16794
▁ఢిల్లీ	-16795
▁انھ	-16796
▁actress	-16797
▁ହଜାର	-16798
▁డివి	-16799
ଚି	-16800
ളിവ	-16801
▁3,	-16802
ulture	-16803
▁ஒன்று	-16804
▁એન્ડ	-16805
▁अथ	-16806
ताह	-16807
▁రాయ	-16808
▁જરૂરી	-16809
▁regard	-16810
▁amount	-16811
▁গুলি	-16812
▁আবেদন	-16813
வர்களை	-16814
ളാ	-16815
▁ତାହା	-16816
બંધી	-16817
ಾನುವ	-16818
▁परवान	-16819
ल्यामुळे	-16820
▁শিক্ষক	-16821
ಿಸುತ್ತದೆ	-16822
രാജ	-16823
▁பாஜக	-16824
▁औष	-16825
▁ಅಂದ	-16826
▁52	-16827
िलेश	-16828
▁शकतो	-16829
▁ଅନୁଷ୍ଠ	-16830
▁جانب	-16831
▁ತಲೆ	-16832
▁സ്വദേശി	-16833
▁मंजूर	-16834
▁ପଡ଼ି	-16835
ఎల్	-16836
पदा	-16837
▁ఇక్కడ	-16838
▁മാസ	-16839
▁sn	-16840
▁little	-16841
▁ಪ್ರಭ	-16842
▁ഡയറ	-16843
▁తమిళ	-16844
నల్	-16845
▁સલા	-16846
▁claimed	-16847
▁budget	-16848
▁বলছেন	-16849
▁ಫೆ	-16850
▁శ్రీనివాస్	-16851
▁ચોરી	-16852
▁scre	-16853
▁ಟ್	-16854
▁ज़	-16855
தாகவும்	-16856
▁ટા	-16857
▁കമ്മീഷ	-16858
▁সাহায্য	-16859
▁ଷ୍ଟ	-16860
ening	-16861
▁पीड़	-16862
▁मुद्दा	-16863
ಪಾಲ	-16864
▁ಧಾರ	-16865
▁కాకుండా	-16866
पाली	-16867
▁இரண்ட	-16868
▁साइ	-16869
ಿಕೊ	-16870
▁strateg	-16871
ପକ୍ଷ	-16872
పడు	-16873
▁ഏര്	-16874
▁संघटना	-16875
ಫಿ	-16876
▁கவு	-16877
▁देशमुख	-16878
▁આધારે	-16879
ുകൊണ്ട	-16880
▁ક્યારે	-16881
▁દેખા	-16882
▁డైర	-16883
ruary	-16884
▁ನಿರ	-16885
ப்புகள்	-16886
ക്കുറിച്ച്	-16887
ક્શન	-16888
ங்கிய	-16889
जवळ	-16890
▁ആള	-16891
ഡിയോ	-16892
ৃপক্ষ	-16893
▁music	-16894
ೇಲ್	-16895
▁સંસ્થા	-16896
▁ബോര്	-16897
▁ನಾಲ್ಕು	-16898
▁ক্রিকেট	-16899
▁ટ્	-16900
▁ప్రజలకు	-16901
▁quarter	-16902
▁संविधान	-16903
▁soci	-16904
ர்ச்ச	-16905
संदर्	-16906
▁ದಕ್ಷಿಣ	-16907
▁ത്തകര്	-16908
ധു	-16909
చుకు	-16910
▁తగ్గ	-16911
▁લોકોએ	-16912
▁ਚੋਣਾਂ	-16913
शिया	-16914
ప్ట	-16915
ખે	-16916
▁ಶುಕ್ರವಾರ	-16917
▁উদ্যোগ	-16918
ਟਾਂ	-16919
▁નગર	-16920
▁ଖା	-16921
ઠી	-16922
▁spot	-16923
▁ધરાવ	-16924
▁ఎన్నికల	-16925
▁असलेले	-16926
ിയോ	-16927
ிருக்கிறது	-16928
ಗಾರಿ	-16929
▁پہلے	-16930
▁ਕਿਸਾਨਾਂ	-16931
▁ਐਕ	-16932
ങ്ങളിലും	-16933
▁తొల	-16934
▁మొక్క	-16935
ಪ್ಪು	-16936
▁ಜೀವನ	-16937
▁सुपर	-16938
ম্যান	-16939
▁તબ	-16940
ாயம்	-16941
▁जाम	-16942
▁ಸೇವೆ	-16943
▁கடும்	-16944
▁పోలీస్	-16945
▁huge	-16946
▁প্রশাসন	-16947
▁46	-16948
▁त्यानुसार	-16949
شم	-16950
▁खासगी	-16951
▁दश	-16952
▁സംരക്ഷ	-16953
▁काठ	-16954
▁દિવસો	-16955
▁جاری	-16956
▁તમારી	-16957
▁സംഘടിപ്പ	-16958
▁चले	-16959
কর্ত	-16960
▁ప్రే	-16961
▁member	-16962
▁పడ	-16963
▁বিজ্ঞ	-16964
▁നൂ	-16965
ிடம்	-16966
ప్పటికీ	-16967
▁हिंदुस्थान	-16968
ci	-16969
▁ବୃ	-16970
ించాలి	-16971
▁मागे	-16972
▁बनी	-16973
▁زیادہ	-16974
চুর	-16975
ഭ്യാ	-16976
ীকার	-16977
▁musl	-16978
ਜੂਦ	-16979
▁బృ	-16980
▁41	-16981
▁ವರ್ಗ	-16982
▁ಅಭಿನ	-16983
▁కోల్	-16984
ేశ్	-16985
▁தேர்தலில்	-16986
ارت	-16987
▁ਮਾਨ	-16988
్రియ	-16989
▁ഇനി	-16990
▁ಅದೇ	-16991
ઇલ	-16992
▁રાજકીય	-16993
വസ്ഥ	-16994
ఖర్	-16995
कम	-16996
▁दिसंबर	-16997
▁ಸಮುದಾಯ	-16998
▁ആന്	-16999
▁जबाबदारी	-17000
▁கொண்டனர்	-17001
ங்கம்	-17002
క్కి	-17003
▁बोलत	-17004
▁मुस्लिम	-17005
▁വില്	-17006
▁रुग्ण	-17007
त्रा	-17008
▁അന്ത	-17009
▁کچھ	-17010
▁महिन्या	-17011
▁मैदान	-17012
▁ਸ਼ਹਿਰ	-17013
▁संरक्षण	-17014
▁focus	-17015
▁બસ	-17016
ਤਰਾ	-17017
▁রয়েছেন	-17018
ग्रस्त	-17019
▁पश्चिम	-17020
▁shoot	-17021
ତିକ	-17022
ികൂ	-17023
▁personal	-17024
▁પંચાય	-17025
నె	-17026
ंडर	-17027
▁कॉंग्रेस	-17028
ರ್ಪ	-17029
▁سن	-17030
▁സമിതി	-17031
ంలోకి	-17032
▁പുതു	-17033
irc	-17034
▁ప్రముఖ	-17035
▁ਸਾਬਕਾ	-17036
▁ಸೇರಿ	-17037
▁परिजनों	-17038
▁تم	-17039
ಿನಿಯ	-17040
▁certain	-17041
ത്തിനെ	-17042
▁ଆପଣ	-17043
▁ఆసు	-17044
▁wicket	-17045
▁ৱ	-17046
▁اج	-17047
▁भगवान	-17048
ర్స్	-17049
▁કરવો	-17050
▁தவி	-17051
▁ಚಂದ್ರ	-17052
▁agree	-17053
టీఆర్	-17054
పాల్	-17055
▁തീര്	-17056
▁ताब्यात	-17057
ping	-17058
हमी	-17059
▁गायक	-17060
മാവ	-17061
▁തമ്മ	-17062
▁பதவி	-17063
▁കല	-17064
▁नोक	-17065
▁عم	-17066
▁کرنا	-17067
▁sell	-17068
▁ಕ್ಯ	-17069
న్నాడు	-17070
▁ಸಂಭ	-17071
▁demon	-17072
▁निकल	-17073
▁date	-17074
▁ఇంటి	-17075
▁ശേഷ	-17076
▁دوران	-17077
یاں	-17078
▁పెట్టు	-17079
వైపు	-17080
▁आंबे	-17081
विका	-17082
▁जोरदार	-17083
▁मतदारसंघ	-17084
बाई	-17085
▁ಸಂಖ್ಯೆ	-17086
mar	-17087
▁నిర్ణయం	-17088
لو	-17089
▁బొ	-17090
▁ചെയ്തത്	-17091
▁అందుకు	-17092
ರಿಸುವ	-17093
▁આતંક	-17094
ಿವಿ	-17095
దన్నారు	-17096
▁যাতে	-17097
▁മുഹമ്മദ്	-17098
▁ge	-17099
ika	-17100
ಟಿಂಗ್	-17101
শা	-17102
▁लाइन	-17103
▁పలువు	-17104
▁ஒவ்வ	-17105
▁બેઠકો	-17106
▁ಮುಂಬೈ	-17107
back	-17108
▁പത്ത	-17109
ન્ચ	-17110
▁गत	-17111
ergy	-17112
▁వినియోగ	-17113
▁నివే	-17114
▁parties	-17115
▁vish	-17116
▁ନାମ	-17117
▁সাই	-17118
नाचे	-17119
▁ಸಂಗ್ರಹ	-17120
▁வழக்க	-17121
্যাত	-17122
కపోవడంతో	-17123
▁बिल	-17124
चारियों	-17125
મન	-17126
▁ఉంటే	-17127
ாளி	-17128
सँग	-17129
ude	-17130
र्जा	-17131
த்தூர்	-17132
▁అంచ	-17133
ത്തിനും	-17134
డికి	-17135
▁ஆம்	-17136
▁ਸਮੇਤ	-17137
▁સુધીમાં	-17138
▁সাত	-17139
▁access	-17140
ೋತ್ಸವ	-17141
▁চট্ট	-17142
this	-17143
▁meas	-17144
▁प्रवास	-17145
▁രീതി	-17146
▁station	-17147
२०	-17148
amb	-17149
▁ಸಂಚ	-17150
▁दुर्घ	-17151
యూ	-17152
▁stre	-17153
▁भवन	-17154
▁करण्यास	-17155
বান	-17156
▁देकर	-17157
▁অনুম	-17158
▁போட்டிய	-17159
▁ਉਮੀਦ	-17160
▁અકસ્મા	-17161
▁आंतर	-17162
णात	-17163
ത്തിക	-17164
▁સારી	-17165
▁অভিয	-17166
ধে	-17167
▁নরেন্দ্র	-17168
િયર	-17169
ಬಾರದು	-17170
▁प्रतिनि	-17171
▁ty	-17172
▁hon	-17173
▁কুমার	-17174
▁ਸੰਸ	-17175
▁late	-17176
▁અનુભ	-17177
▁संघर्ष	-17178
ક્ષણ	-17179
ಡೀ	-17180
ക്കിയത്	-17181
خاب	-17182
ാക്കി	-17183
▁ಜಿಲ್ಲಾಧಿಕಾರಿ	-17184
ட்டா	-17185
▁இழ	-17186
▁एकदा	-17187
શિયલ	-17188
ುತ್	-17189
▁લિ	-17190
ಬೇಕೆಂದು	-17191
▁رکھ	-17192
▁পরিবর্ত	-17193
ഗ്രഹ	-17194
▁मंगळवारी	-17195
▁अखिलेश	-17196
▁పారి	-17197
▁പറയുന്നത്	-17198
മതി	-17199
ਬਲ	-17200
▁வயது	-17201
ડીયા	-17202
▁ഹൈക്കോടതി	-17203
▁হলো	-17204
▁പരിക്ക	-17205
▁आवाज	-17206
tw	-17207
ందికి	-17208
▁യും	-17209
▁ಬಂದು	-17210
▁రిక	-17211
▁ફેર	-17212
▁পাশে	-17213
▁currently	-17214
▁আগুন	-17215
▁ધારાસભ્ય	-17216
▁ഉമ്മന്	-17217
ଦନ	-17218
ilities	-17219
▁জমা	-17220
क्की	-17221
▁అనేక	-17222
▁బ్యాం	-17223
اند	-17224
▁ord	-17225
▁പിന്തുണ	-17226
▁दला	-17227
▁ସଭାପତି	-17228
సె	-17229
యిన్	-17230
here	-17231
▁सर्वे	-17232
▁ਮਹੀ	-17233
▁neg	-17234
▁ಸುಪ್ರೀ	-17235
ल्याची	-17236
▁जैन	-17237
▁देशात	-17238
▁ପାଣି	-17239
oud	-17240
▁বাত	-17241
ಿಸಿತ್ತು	-17242
▁જમા	-17243
विण्यासाठी	-17244
▁sha	-17245
ାଇବା	-17246
ಿದ್ದೇವೆ	-17247
[...]
